{
  "version": "1.0",
  "truncation": null,
  "padding": null,
  "added_tokens": [
    {
      "id": 0,
      "content": "[UNK]",
      "single_word": false,
      "lstrip": false,
      "rstrip": false,
      "normalized": false,
      "special": true
    },
    {
      "id": 1,
      "content": "[PAD]",
      "single_word": false,
      "lstrip": false,
      "rstrip": false,
      "normalized": false,
      "special": true
    },
    {
      "id": 2,
      "content": "[CLS]",
      "single_word": false,
      "lstrip": false,
      "rstrip": false,
      "normalized": false,
      "special": true
    },
    {
      "id": 3,
      "content": "[SEP]",
      "single_word": false,
      "lstrip": false,
      "rstrip": false,
      "normalized": false,
      "special": true
    },
    {
      "id": 4,
      "content": "[MASK]",
      "single_word": false,
      "lstrip": false,
      "rstrip": false,
      "normalized": false,
      "special": true
    }
  ],
  "normalizer": {
    "type": "BertNormalizer",
    "clean_text": true,
    "handle_chinese_chars": true,
    "strip_accents": null,
    "lowercase": true
  },
  "pre_tokenizer": {
    "type": "BertPreTokenizer"
  },
  "post_processor": {
    "type": "TemplateProcessing",
    "single": [
      {
        "SpecialToken": {
          "id": "[CLS]",
          "type_id": 0
        }
      },
      {
        "Sequence": {
          "id": "A",
          "type_id": 0
        }
      },
      {
        "SpecialToken": {
          "id": "[SEP]",
          "type_id": 0
        }
      }
    ],
    "pair": [
      {
        "SpecialToken": {
          "id": "[CLS]",
          "type_id": 0
        }
      },
      {
        "Sequence": {
          "id": "A",
          "type_id": 0
        }
      },
      {
        "SpecialToken": {
          "id": "[SEP]",
          "type_id": 0
        }
      },
      {
        "Sequence": {
          "id": "B",
          "type_id": 1
        }
      },
      {
        "SpecialToken": {
          "id": "[SEP]",
          "type_id": 1
        }
      }
    ],
    "special_tokens": {
      "[CLS]": {
        "id": "[CLS]",
        "ids": [
          2
        ],
        "tokens": [
          "[CLS]"
        ]
      },
      "[SEP]": {
        "id": "[SEP]",
        "ids": [
          3
        ],
        "tokens": [
          "[SEP]"
        ]
      }
    }
  },
  "decoder": {
    "type": "WordPiece",
    "prefix": "##",
    "cleanup": true
  },
  "model": {
    "type": "WordPiece",
    "unk_token": "[UNK]",
    "continuing_subword_prefix": "##",
    "max_input_chars_per_word": 100,
    "vocab": {
      "[UNK]": 0,
      "[PAD]": 1,
      "[CLS]": 2,
      "[SEP]": 3,
      "[MASK]": 4,
      "!": 5,
      "\"": 6,
      "#": 7,
      "$": 8,
      "%": 9,
      "&": 10,
      "'": 11,
      "(": 12,
      ")": 13,
      "*": 14,
      "+": 15,
      ",": 16,
      "-": 17,
      ".": 18,
      "/": 19,
      "0": 20,
      "1": 21,
      "2": 22,
      "3": 23,
      "4": 24,
      "5": 25,
      "6": 26,
      "7": 27,
      "8": 28,
      "9": 29,
      ":": 30,
      ";": 31,
      "<": 32,
      "=": 33,
      "?": 34,
      "@": 35,
      "[": 36,
      "]": 37,
      "^": 38,
      "a": 39,
      "b": 40,
      "c": 41,
      "d": 42,
      "e": 43,
      "f": 44,
      "g": 45,
      "h": 46,
      "i": 47,
      "j": 48,
      "k": 49,
      "l": 50,
      "m": 51,
      "n": 52,
      "o": 53,
      "p": 54,
      "q": 55,
      "r": 56,
      "s": 57,
      "t": 58,
      "u": 59,
      "v": 60,
      "w": 61,
      "x": 62,
      "y": 63,
      "z": 64,
      "~": 65,
      "£": 66,
      "°": 67,
      "²": 68,
      "µ": 69,
      "º": 70,
      "×": 71,
      "ß": 72,
      "æ": 73,
      "đ": 74,
      "ł": 75,
      "ɪ": 76,
      "α": 77,
      "β": 78,
      "γ": 79,
      "δ": 80,
      "ε": 81,
      "η": 82,
      "θ": 83,
      "ι": 84,
      "μ": 85,
      "ν": 86,
      "ο": 87,
      "ρ": 88,
      "ς": 89,
      "σ": 90,
      "τ": 91,
      "υ": 92,
      "χ": 93,
      "а": 94,
      "в": 95,
      "з": 96,
      "и": 97,
      "к": 98,
      "н": 99,
      "р": 100,
      "с": 101,
      "ы": 102,
      "ا": 103,
      "ت": 104,
      "ث": 105,
      "د": 106,
      "س": 107,
      "م": 108,
      "ي": 109,
      "ก": 110,
      "ค": 111,
      "ง": 112,
      "ช": 113,
      "ซ": 114,
      "ญ": 115,
      "ฐ": 116,
      "ณ": 117,
      "ด": 118,
      "ต": 119,
      "บ": 120,
      "ป": 121,
      "พ": 122,
      "ภ": 123,
      "ม": 124,
      "ย": 125,
      "ร": 126,
      "ล": 127,
      "ว": 128,
      "ศ": 129,
      "ษ": 130,
      "ส": 131,
      "ห": 132,
      "อ": 133,
      "า": 134,
      "เ": 135,
      "แ": 136,
      "ไ": 137,
      "–": 138,
      "—": 139,
      "‘": 140,
      "’": 141,
      "“": 142,
      "”": 143,
      "†": 144,
      "‡": 145,
      "…": 146,
      "⁄": 147,
      "₤": 148,
      "₹": 149,
      "→": 150,
      "−": 151,
      "い": 152,
      "う": 153,
      "か": 154,
      "き": 155,
      "く": 156,
      "し": 157,
      "た": 158,
      "つ": 159,
      "な": 160,
      "の": 161,
      "め": 162,
      "も": 163,
      "ら": 164,
      "ァ": 165,
      "ア": 166,
      "ウ": 167,
      "キ": 168,
      "ュ": 169,
      "リ": 170,
      "ル": 171,
      "乙": 172,
      "光": 173,
      "名": 174,
      "君": 175,
      "命": 176,
      "咲": 177,
      "場": 178,
      "女": 179,
      "戦": 180,
      "灯": 181,
      "瘡": 182,
      "花": 183,
      "誓": 184,
      "誰": 185,
      "赤": 186,
      "運": 187,
      "銃": 188,
      "願": 189,
      "３": 190,
      "##a": 191,
      "##t": 192,
      "##o": 193,
      "##s": 194,
      "##z": 195,
      "##e": 196,
      "##w": 197,
      "##k": 198,
      "##i": 199,
      "##n": 200,
      "##r": 201,
      "##m": 202,
      "##u": 203,
      "##c": 204,
      "##x": 205,
      "##v": 206,
      "##y": 207,
      "##7": 208,
      "##h": 209,
      "##l": 210,
      "##b": 211,
      "##p": 212,
      "##d": 213,
      "##つ": 214,
      "##か": 215,
      "##g": 216,
      "##3": 217,
      "##f": 218,
      "##ł": 219,
      "##9": 220,
      "##8": 221,
      "##6": 222,
      "##5": 223,
      "##1": 224,
      "##4": 225,
      "##j": 226,
      "##q": 227,
      "##0": 228,
      "##ν": 229,
      "##τ": 230,
      "##ι": 231,
      "##μ": 232,
      "##ο": 233,
      "##ς": 234,
      "##ภ": 235,
      "##า": 236,
      "##ด": 237,
      "##2": 238,
      "##đ": 239,
      "##ร": 240,
      "##な": 241,
      "##き": 242,
      "##β": 243,
      "##พ": 244,
      "##ล": 245,
      "##ย": 246,
      "##ณ": 247,
      "##ม": 248,
      "##ต": 249,
      "##α": 250,
      "##ウ": 251,
      "##ァ": 252,
      "##ル": 253,
      "##キ": 254,
      "##ュ": 255,
      "##リ": 256,
      "##ア": 257,
      "##р": 258,
      "##а": 259,
      "##с": 260,
      "##н": 261,
      "##ы": 262,
      "##и": 263,
      "##ث": 264,
      "##م": 265,
      "##د": 266,
      "##เ": 267,
      "##ป": 268,
      "##อ": 269,
      "##ก": 270,
      "##ว": 271,
      "##ษ": 272,
      "##ฐ": 273,
      "##し": 274,
      "##も": 275,
      "##в": 276,
      "##к": 277,
      "##з": 278,
      "##γ": 279,
      "##ρ": 280,
      "##た": 281,
      "##め": 282,
      "##の": 283,
      "##ค": 284,
      "##ซ": 285,
      "##ي": 286,
      "##س": 287,
      "##ت": 288,
      "##ง": 289,
      "##ไ": 290,
      "##ช": 291,
      "##θ": 292,
      "##η": 293,
      "##ε": 294,
      "##ɪ": 295,
      "##แ": 296,
      "##ß": 297,
      "##º": 298,
      "##ら": 299,
      "##３": 300,
      "##χ": 301,
      "th": 302,
      "the": 303,
      "##er": 304,
      "##in": 305,
      "##ed": 306,
      "##on": 307,
      "##nd": 308,
      "##or": 309,
      "##at": 310,
      "##es": 311,
      "##ar": 312,
      "in": 313,
      "##en": 314,
      "of": 315,
      "##it": 316,
      "##an": 317,
      "##al": 318,
      "##is": 319,
      "##ing": 320,
      "##as": 321,
      "and": 322,
      "to": 323,
      "##ic": 324,
      "##ro": 325,
      "##ion": 326,
      "##re": 327,
      "##ou": 328,
      "##el": 329,
      "##il": 330,
      "##ec": 331,
      "##ol": 332,
      "##ent": 333,
      "##st": 334,
      "##th": 335,
      "##ad": 336,
      "was": 337,
      "##am": 338,
      "##om": 339,
      "on": 340,
      "##ur": 341,
      "##et": 342,
      "for": 343,
      "st": 344,
      "##ac": 345,
      "##ir": 346,
      "as": 347,
      "wh": 348,
      "re": 349,
      "##ly": 350,
      "al": 351,
      "##ith": 352,
      "##iv": 353,
      "##im": 354,
      "##le": 355,
      "##id": 356,
      "##ig": 357,
      "##ay": 358,
      "##ter": 359,
      "with": 360,
      "##ation": 361,
      "##ch": 362,
      "be": 363,
      "that": 364,
      "##ot": 365,
      "an": 366,
      "##ow": 367,
      "sh": 368,
      "##ers": 369,
      "he": 370,
      "##ut": 371,
      "##em": 372,
      "##um": 373,
      "##ul": 374,
      "##us": 375,
      "at": 376,
      "##ts": 377,
      "by": 378,
      "con": 379,
      "19": 380,
      "is": 381,
      "ch": 382,
      "##os": 383,
      "his": 384,
      "##av": 385,
      "##ver": 386,
      "##ere": 387,
      "##rom": 388,
      "##ag": 389,
      "##ce": 390,
      "##and": 391,
      "##ain": 392,
      "se": 393,
      "##ted": 394,
      "##od": 395,
      "de": 396,
      "##ies": 397,
      "20": 398,
      "com": 399,
      "su": 400,
      "pro": 401,
      "##pp": 402,
      "it": 403,
      "##ess": 404,
      "ar": 405,
      "were": 406,
      "from": 407,
      "##ct": 408,
      "##ra": 409,
      "##ish": 410,
      "pl": 411,
      "##oc": 412,
      "##ist": 413,
      "##est": 414,
      "ne": 415,
      "##ord": 416,
      "##ri": 417,
      "##un": 418,
      "##igh": 419,
      "or": 420,
      "ex": 421,
      "##if": 422,
      "##ich": 423,
      "##all": 424,
      "##op": 425,
      "le": 426,
      "##se": 427,
      "##ate": 428,
      "##ber": 429,
      "##ated": 430,
      "##ill": 431,
      "##ab": 432,
      "##ame": 433,
      "##ard": 434,
      "##gh": 435,
      "un": 436,
      "##ak": 437,
      "##ld": 438,
      "tr": 439,
      "sp": 440,
      "##ong": 441,
      "##ity": 442,
      "rec": 443,
      "##ap": 444,
      "had": 445,
      "##ther": 446,
      "##ian": 447,
      "##ear": 448,
      "##ud": 449,
      "##og": 450,
      "##rit": 451,
      "##rou": 452,
      "which": 453,
      "##ore": 454,
      "##ect": 455,
      "##art": 456,
      "are": 457,
      "##ia": 458,
      "##ort": 459,
      "##ial": 460,
      "##ive": 461,
      "##ost": 462,
      "##ip": 463,
      "pr": 464,
      "##ue": 465,
      "##ov": 466,
      "not": 467,
      "en": 468,
      "##ie": 469,
      "cl": 470,
      "all": 471,
      "af": 472,
      "##our": 473,
      "##pt": 474,
      "##ack": 475,
      "##ment": 476,
      "##ru": 477,
      "##ell": 478,
      "##ary": 479,
      "tw": 480,
      "##ant": 481,
      "##ave": 482,
      "200": 483,
      "her": 484,
      "wor": 485,
      "fe": 486,
      "this": 487,
      "##so": 488,
      "##ast": 489,
      "##out": 490,
      "##cc": 491,
      "##ine": 492,
      "also": 493,
      "rel": 494,
      "fir": 495,
      "##ical": 496,
      "their": 497,
      "pol": 498,
      "##qu": 499,
      "##ust": 500,
      "##ge": 501,
      "per": 502,
      "##pl": 503,
      "after": 504,
      "##ach": 505,
      "play": 506,
      "sc": 507,
      "##ure": 508,
      "##ight": 509,
      "##ub": 510,
      "##oll": 511,
      "##ign": 512,
      "ad": 513,
      "she": 514,
      "##ition": 515,
      "##ide": 516,
      "new": 517,
      "tim": 518,
      "cont": 519,
      "##wn": 520,
      "##ome": 521,
      "first": 522,
      "bo": 523,
      "##ous": 524,
      "one": 525,
      "##man": 526,
      "ab": 527,
      "201": 528,
      "##ath": 529,
      "##cl": 530,
      "##ould": 531,
      "man": 532,
      "am": 533,
      "two": 534,
      "car": 535,
      "int": 536,
      "##end": 537,
      "go": 538,
      "##ason": 539,
      "##ater": 540,
      "##ass": 541,
      "comm": 542,
      "its": 543,
      "year": 544,
      "##ough": 545,
      "##oin": 546,
      "ind": 547,
      "app": 548,
      "but": 549,
      "des": 550,
      "res": 551,
      "##ond": 552,
      "##ire": 553,
      "##oun": 554,
      "ag": 555,
      "has": 556,
      "##du": 557,
      "##ound": 558,
      "##ations": 559,
      "##uring": 560,
      "te": 561,
      "##00": 562,
      "##ree": 563,
      "off": 564,
      "##ph": 565,
      "##ark": 566,
      "##ran": 567,
      "air": 568,
      "##ans": 569,
      "fil": 570,
      "im": 571,
      "##per": 572,
      "##ok": 573,
      "who": 574,
      "##old": 575,
      "##nder": 576,
      "18": 577,
      "they": 578,
      "have": 579,
      "##ory": 580,
      "##ock": 581,
      "been": 582,
      "dis": 583,
      "##ely": 584,
      "god": 585,
      "rep": 586,
      "film": 587,
      "##ff": 588,
      "##own": 589,
      "##ual": 590,
      "alb": 591,
      "us": 592,
      "##ember": 593,
      "season": 594,
      "##iz": 595,
      "bec": 596,
      "##ence": 597,
      "album": 598,
      "mus": 599,
      "part": 600,
      "me": 601,
      "up": 602,
      "##act": 603,
      "##ities": 604,
      "##ile": 605,
      "record": 606,
      "##olog": 607,
      "ear": 608,
      "fin": 609,
      "sec": 610,
      "time": 611,
      "##ade": 612,
      "##ions": 613,
      "over": 614,
      "##ron": 615,
      "fl": 616,
      "under": 617,
      "##age": 618,
      "##ry": 619,
      "##ult": 620,
      "##ced": 621,
      "act": 622,
      "during": 623,
      "##ited": 624,
      "##ents": 625,
      "dec": 626,
      "##clud": 627,
      "ser": 628,
      "##ft": 629,
      "##ied": 630,
      "form": 631,
      "pre": 632,
      "##ib": 633,
      "reg": 634,
      "other": 635,
      "comp": 636,
      "##ordan": 637,
      "bl": 638,
      "##eas": 639,
      "co": 640,
      "jordan": 641,
      "ev": 642,
      "min": 643,
      "ass": 644,
      "ant": 645,
      "bas": 646,
      "war": 647,
      "rem": 648,
      "inter": 649,
      "char": 650,
      "##for": 651,
      "out": 652,
      "##ite": 653,
      "mon": 654,
      "team": 655,
      "more": 656,
      "##ric": 657,
      "them": 658,
      "##ose": 659,
      "aw": 660,
      "includ": 661,
      "brit": 662,
      "most": 663,
      "##ey": 664,
      "##ance": 665,
      "att": 666,
      "##ubl": 667,
      "199": 668,
      "him": 669,
      "game": 670,
      "##round": 671,
      "arch": 672,
      "##les": 673,
      "##fer": 674,
      "gen": 675,
      "##gan": 676,
      "whe": 677,
      "##ious": 678,
      "spec": 679,
      "##ice": 680,
      "##ik": 681,
      "work": 682,
      "nor": 683,
      "##ae": 684,
      "##ee": 685,
      "cons": 686,
      "##ens": 687,
      "##urn": 688,
      "into": 689,
      "high": 690,
      "##ces": 691,
      "##ors": 692,
      "##rough": 693,
      "no": 694,
      "some": 695,
      "##res": 696,
      "##ild": 697,
      "ac": 698,
      "releas": 699,
      "bu": 700,
      "##eler": 701,
      "end": 702,
      "ret": 703,
      "##reat": 704,
      "ro": 705,
      "##ork": 706,
      "four": 707,
      "##ally": 708,
      "##oss": 709,
      "##able": 710,
      "##ings": 711,
      "acc": 712,
      "##als": 713,
      "##ace": 714,
      "##ular": 715,
      "produ": 716,
      "wheeler": 717,
      "##ony": 718,
      "##ction": 719,
      "second": 720,
      "kn": 721,
      "sch": 722,
      "there": 723,
      "only": 724,
      "ma": 725,
      "publ": 726,
      "##eld": 727,
      "when": 728,
      "rev": 729,
      "##ved": 730,
      "##ull": 731,
      "sub": 732,
      "would": 733,
      "##ix": 734,
      "##rib": 735,
      "can": 736,
      "three": 737,
      "##one": 738,
      "town": 739,
      "##aeolog": 740,
      "ph": 741,
      "##aw": 742,
      "##hip": 743,
      "##ick": 744,
      "while": 745,
      "archaeolog": 746,
      "##ered": 747,
      "arm": 748,
      "imp": 749,
      "cent": 750,
      "again": 751,
      "##ail": 752,
      "##ates": 753,
      "num": 754,
      "mar": 755,
      "sur": 756,
      "win": 757,
      "##een": 758,
      "##ames": 759,
      "later": 760,
      "sy": 761,
      "##ished": 762,
      "em": 763,
      "sou": 764,
      "##land": 765,
      "inst": 766,
      "dev": 767,
      "bet": 768,
      "being": 769,
      "##ational": 770,
      "through": 771,
      "##erson": 772,
      "these": 773,
      "gods": 774,
      "long": 775,
      "may": 776,
      "##tle": 777,
      "music": 778,
      "sm": 779,
      "##ters": 780,
      "##iss": 781,
      "ger": 782,
      "many": 783,
      "song": 784,
      "dep": 785,
      "british": 786,
      "##ning": 787,
      "##ress": 788,
      "##ards": 789,
      "star": 790,
      "gener": 791,
      "german": 792,
      "writ": 793,
      "such": 794,
      "col": 795,
      "##ollow": 796,
      "follow": 797,
      "york": 798,
      "sever": 799,
      "pres": 800,
      "##eer": 801,
      "##red": 802,
      "##ang": 803,
      "about": 804,
      "so": 805,
      "hist": 806,
      "au": 807,
      "made": 808,
      "##fore": 809,
      "where": 810,
      "##ake": 811,
      "how": 812,
      "##son": 813,
      "##gy": 814,
      "##ict": 815,
      "antim": 816,
      "##air": 817,
      "pe": 818,
      "##iet": 819,
      "##iew": 820,
      "dire": 821,
      "##ays": 822,
      "ship": 823,
      "lead": 824,
      "bro": 825,
      "met": 826,
      "than": 827,
      "art": 828,
      "##raft": 829,
      "##form": 830,
      "nov": 831,
      "polish": 832,
      "north": 833,
      "000": 834,
      "##rist": 835,
      "supp": 836,
      "bat": 837,
      "sign": 838,
      "##ons": 839,
      "##up": 840,
      "world": 841,
      "sing": 842,
      "def": 843,
      "var": 844,
      "##ween": 845,
      "##though": 846,
      "although": 847,
      "before": 848,
      "##send": 849,
      "##ike": 850,
      "between": 851,
      "div": 852,
      "townsend": 853,
      "el": 854,
      "##ower": 855,
      "##ised": 856,
      "##ount": 857,
      "ob": 858,
      "##led": 859,
      "bel": 860,
      "do": 861,
      "lar": 862,
      "oper": 863,
      "then": 864,
      "##ros": 865,
      "##ague": 866,
      "both": 867,
      "number": 868,
      "##tern": 869,
      "years": 870,
      "##hn": 871,
      "##ily": 872,
      "##ained": 873,
      "several": 874,
      "egy": 875,
      "par": 876,
      "##ten": 877,
      "egypt": 878,
      "back": 879,
      "jo": 880,
      "sa": 881,
      "##ern": 882,
      "##amp": 883,
      "198": 884,
      "##rop": 885,
      "used": 886,
      "south": 887,
      "antimony": 888,
      "fur": 889,
      "gu": 890,
      "##ating": 891,
      "stud": 892,
      "191": 893,
      "exp": 894,
      "eng": 895,
      "early": 896,
      "##te": 897,
      "##ood": 898,
      "##ins": 899,
      "##ived": 900,
      "christ": 901,
      "lo": 902,
      "well": 903,
      "inv": 904,
      "##ists": 905,
      "##row": 906,
      "194": 907,
      "prom": 908,
      "##sp": 909,
      "##orn": 910,
      "##elf": 911,
      "##aus": 912,
      "##ield": 913,
      "##ral": 914,
      "##ale": 915,
      "##ected": 916,
      "became": 917,
      "lit": 918,
      "##ba": 919,
      "##dition": 920,
      "inc": 921,
      "league": 922,
      "val": 923,
      "state": 924,
      "##ific": 925,
      "mark": 926,
      "rock": 927,
      "##ool": 928,
      "began": 929,
      "trans": 930,
      "disc": 931,
      "sl": 932,
      "##ys": 933,
      "##ets": 934,
      "##ever": 935,
      "class": 936,
      "direct": 937,
      "mov": 938,
      "we": 939,
      "##fl": 940,
      "##eric": 941,
      "##ind": 942,
      "##its": 943,
      "desc": 944,
      "offic": 945,
      "dif": 946,
      "##other": 947,
      "##ball": 948,
      "##ute": 949,
      "appear": 950,
      "could": 951,
      "##az": 952,
      "br": 953,
      "gr": 954,
      "gold": 955,
      "##ren": 956,
      "scor": 957,
      "charac": 958,
      "cre": 959,
      "est": 960,
      "pop": 961,
      "##ject": 962,
      "rece": 963,
      "fey": 964,
      "public": 965,
      "##emb": 966,
      "released": 967,
      "against": 968,
      "crit": 969,
      "poin": 970,
      "##osed": 971,
      "united": 972,
      "ap": 973,
      "loc": 974,
      "main": 975,
      "known": 976,
      "best": 977,
      "found": 978,
      "own": 979,
      "##ision": 980,
      "##ics": 981,
      "##ife": 982,
      "##ty": 983,
      "ord": 984,
      "##oot": 985,
      "##ky": 986,
      "##ures": 987,
      "career": 988,
      "call": 989,
      "cap": 990,
      "192": 991,
      "gover": 992,
      "##ized": 993,
      "school": 994,
      "city": 995,
      "hum": 996,
      "##craft": 997,
      "##ank": 998,
      "##ise": 999,
      "##amed": 1000,
      "americ": 1001,
      "red": 1002,
      "##ah": 1003,
      "##ery": 1004,
      "##reas": 1005,
      "##ired": 1006,
      "orig": 1007,
      "however": 1008,
      "ter": 1009,
      "though": 1010,
      "193": 1011,
      "feat": 1012,
      "design": 1013,
      "aircraft": 1014,
      "return": 1015,
      "##io": 1016,
      "including": 1017,
      "govern": 1018,
      "like": 1019,
      "##ional": 1020,
      "##ury": 1021,
      "##aining": 1022,
      "mil": 1023,
      "op": 1024,
      "##ier": 1025,
      "##rum": 1026,
      "##ck": 1027,
      "const": 1028,
      "near": 1029,
      "mill": 1030,
      "set": 1031,
      "##ve": 1032,
      "##rol": 1033,
      "##elop": 1034,
      "##ided": 1035,
      "history": 1036,
      "origin": 1037,
      "coll": 1038,
      "port": 1039,
      "##ting": 1040,
      "##ism": 1041,
      "plan": 1042,
      "##ccess": 1043,
      "contin": 1044,
      "bar": 1045,
      "##mas": 1046,
      "##roup": 1047,
      "following": 1048,
      "10": 1049,
      "##au": 1050,
      "##iation": 1051,
      "##atch": 1052,
      "##aking": 1053,
      "series": 1054,
      "develop": 1055,
      "gre": 1056,
      "ra": 1057,
      "##way": 1058,
      "##ues": 1059,
      "##ines": 1060,
      "deities": 1061,
      "doll": 1062,
      "national": 1063,
      "##ole": 1064,
      "group": 1065,
      "qu": 1066,
      "##ton": 1067,
      "##ued": 1068,
      "exc": 1069,
      "egyptian": 1070,
      "15": 1071,
      "games": 1072,
      "pos": 1073,
      "##yp": 1074,
      "##gg": 1075,
      "##ured": 1076,
      "##ural": 1077,
      "##ement": 1078,
      "book": 1079,
      "describ": 1080,
      "each": 1081,
      "fran": 1082,
      "home": 1083,
      "my": 1084,
      "##aged": 1085,
      "##ather": 1086,
      "small": 1087,
      "dem": 1088,
      "post": 1089,
      "sim": 1090,
      "six": 1091,
      "##ful": 1092,
      "##orted": 1093,
      "ste": 1094,
      "##ivers": 1095,
      "show": 1096,
      "head": 1097,
      "##osa": 1098,
      "success": 1099,
      "repres": 1100,
      "species": 1101,
      "build": 1102,
      "general": 1103,
      "dollar": 1104,
      "ga": 1105,
      "gun": 1106,
      "jun": 1107,
      "##omin": 1108,
      "##emp": 1109,
      "peop": 1110,
      "john": 1111,
      "down": 1112,
      "id": 1113,
      "med": 1114,
      "occ": 1115,
      "soc": 1116,
      "##ects": 1117,
      "november": 1118,
      "christmas": 1119,
      "##oy": 1120,
      "thir": 1121,
      "any": 1122,
      "##ially": 1123,
      "##athan": 1124,
      "hal": 1125,
      "ii": 1126,
      "##ert": 1127,
      "##ince": 1128,
      "tow": 1129,
      "top": 1130,
      "##eter": 1131,
      "states": 1132,
      "along": 1133,
      "##aves": 1134,
      "played": 1135,
      "prev": 1136,
      "##ross": 1137,
      "12": 1138,
      "dist": 1139,
      "fam": 1140,
      "five": 1141,
      "ross": 1142,
      "same": 1143,
      "squ": 1144,
      "##ime": 1145,
      "##raph": 1146,
      "resp": 1147,
      "##ause": 1148,
      "people": 1149,
      "ele": 1150,
      "great": 1151,
      "nathan": 1152,
      "wee": 1153,
      "##ew": 1154,
      "##ium": 1155,
      "str": 1156,
      "child": 1157,
      "cult": 1158,
      "jan": 1159,
      "king": 1160,
      "oct": 1161,
      "rout": 1162,
      "##uj": 1163,
      "##ides": 1164,
      "ann": 1165,
      "##rang": 1166,
      "maj": 1167,
      "little": 1168,
      "person": 1169,
      "will": 1170,
      "##ution": 1171,
      "2013": 1172,
      "said": 1173,
      "million": 1174,
      "av": 1175,
      "did": 1176,
      "day": 1177,
      "##ev": 1178,
      "##ground": 1179,
      "##els": 1180,
      "another": 1181,
      "30": 1182,
      "count": 1183,
      "gl": 1184,
      "power": 1185,
      "##ash": 1186,
      "command": 1187,
      "differ": 1188,
      "coin": 1189,
      "##are": 1190,
      "open": 1191,
      "mor": 1192,
      "vide": 1193,
      "west": 1194,
      "##ative": 1195,
      "##ently": 1196,
      "iss": 1197,
      "##pped": 1198,
      "partic": 1199,
      "received": 1200,
      "called": 1201,
      "represent": 1202,
      "miss": 1203,
      "##iva": 1204,
      "addition": 1205,
      "##iety": 1206,
      "dam": 1207,
      "giv": 1208,
      "named": 1209,
      "##ober": 1210,
      "##ned": 1211,
      "##ril": 1212,
      "##ility": 1213,
      "##urch": 1214,
      "195": 1215,
      "compl": 1216,
      "left": 1217,
      "##ible": 1218,
      "excav": 1219,
      "week": 1220,
      "october": 1221,
      "hy": 1222,
      "mu": 1223,
      "nba": 1224,
      "##ai": 1225,
      "##ilt": 1226,
      "##oman": 1227,
      "shiva": 1228,
      "heav": 1229,
      "prop": 1230,
      "organ": 1231,
      "##ruction": 1232,
      "##ually": 1233,
      "consid": 1234,
      "route": 1235,
      "11": 1236,
      "fle": 1237,
      "##hl": 1238,
      "project": 1239,
      "##ments": 1240,
      "serv": 1241,
      "syn": 1242,
      "17": 1243,
      "hel": 1244,
      "hand": 1245,
      "youn": 1246,
      "##field": 1247,
      "infl": 1248,
      "##aced": 1249,
      "sev": 1250,
      "##illo": 1251,
      "univers": 1252,
      "##ograph": 1253,
      "##ended": 1254,
      "india": 1255,
      "award": 1256,
      "aug": 1257,
      "april": 1258,
      "described": 1259,
      "young": 1260,
      "ge": 1261,
      "place": 1262,
      "truj": 1263,
      "single": 1264,
      "major": 1265,
      "13": 1266,
      "aust": 1267,
      "del": 1268,
      "eas": 1269,
      "foot": 1270,
      "pat": 1271,
      "sk": 1272,
      "since": 1273,
      "##0s": 1274,
      "stru": 1275,
      "ext": 1276,
      "2007": 1277,
      "belie": 1278,
      "character": 1279,
      "trujillo": 1280,
      "mad": 1281,
      "use": 1282,
      "##side": 1283,
      "##ones": 1284,
      "##orts": 1285,
      "197": 1286,
      "club": 1287,
      "third": 1288,
      "took": 1289,
      "activ": 1290,
      "even": 1291,
      "american": 1292,
      "##ris": 1293,
      "##und": 1294,
      "perform": 1295,
      "release": 1296,
      "review": 1297,
      "august": 1298,
      "bull": 1299,
      "east": 1300,
      "eff": 1301,
      "life": 1302,
      "##ki": 1303,
      "##cted": 1304,
      "##xt": 1305,
      "##ots": 1306,
      "conc": 1307,
      "##ified": 1308,
      "contr": 1309,
      "december": 1310,
      "assoc": 1311,
      "included": 1312,
      "increas": 1313,
      "squad": 1314,
      "dest": 1315,
      "eu": 1316,
      "fun": 1317,
      "just": 1318,
      "mod": 1319,
      "opp": 1320,
      "##uary": 1321,
      "##isted": 1322,
      "short": 1323,
      "prof": 1324,
      "##ection": 1325,
      "##ove": 1326,
      "larg": 1327,
      "government": 1328,
      "video": 1329,
      "ever": 1330,
      "sap": 1331,
      "typ": 1332,
      "##til": 1333,
      "##iod": 1334,
      "those": 1335,
      "##enn": 1336,
      "prov": 1337,
      "trad": 1338,
      "##ption": 1339,
      "because": 1340,
      "human": 1341,
      "tel": 1342,
      "tri": 1343,
      "##over": 1344,
      "##ead": 1345,
      "##con": 1346,
      "##cial": 1347,
      "##ange": 1348,
      "##read": 1349,
      "within": 1350,
      "2006": 1351,
      "##ically": 1352,
      "player": 1353,
      "position": 1354,
      "around": 1355,
      "name": 1356,
      "##oth": 1357,
      "anderson": 1358,
      "stand": 1359,
      "##uss": 1360,
      "track": 1361,
      "period": 1362,
      "appro": 1363,
      "based": 1364,
      "army": 1365,
      "june": 1366,
      "half": 1367,
      "nav": 1368,
      "pass": 1369,
      "site": 1370,
      "you": 1371,
      "##ient": 1372,
      "##erv": 1373,
      "##ase": 1374,
      "tot": 1375,
      "##ret": 1376,
      "ent": 1377,
      "control": 1378,
      "ships": 1379,
      "list": 1380,
      "run": 1381,
      "sal": 1382,
      "won": 1383,
      "##eum": 1384,
      "##ina": 1385,
      "##ane": 1386,
      "##reak": 1387,
      "##ively": 1388,
      "##ains": 1389,
      "sept": 1390,
      "##abl": 1391,
      "goal": 1392,
      "monum": 1393,
      "fleet": 1394,
      "cal": 1395,
      "light": 1396,
      "##port": 1397,
      "##ined": 1398,
      "##ident": 1399,
      "conf": 1400,
      "##aving": 1401,
      "##raf": 1402,
      "adv": 1403,
      "museum": 1404,
      "accord": 1405,
      "auth": 1406,
      "director": 1407,
      "milit": 1408,
      "influ": 1409,
      "saprang": 1410,
      "september": 1411,
      "cor": 1412,
      "cour": 1413,
      "ju": 1414,
      "now": 1415,
      "uk": 1416,
      "##sh": 1417,
      "##bo": 1418,
      "##ately": 1419,
      "##ared": 1420,
      "away": 1421,
      "built": 1422,
      "##osaur": 1423,
      "previous": 1424,
      "nat": 1425,
      "sound": 1426,
      "wro": 1427,
      "##ention": 1428,
      "##ado": 1429,
      "island": 1430,
      "prot": 1431,
      "press": 1432,
      "building": 1433,
      "family": 1434,
      "europ": 1435,
      "according": 1436,
      "aer": 1437,
      "fly": 1438,
      "fig": 1439,
      "land": 1440,
      "pil": 1441,
      "rest": 1442,
      "role": 1443,
      "sw": 1444,
      "sit": 1445,
      "##sen": 1446,
      "##mb": 1447,
      "##ink": 1448,
      "##roy": 1449,
      "##ley": 1450,
      "sugg": 1451,
      "black": 1452,
      "produced": 1453,
      "throughout": 1454,
      "establ": 1455,
      "complet": 1456,
      "much": 1457,
      "band": 1458,
      "ed": 1459,
      "jack": 1460,
      "join": 1461,
      "##off": 1462,
      "##ram": 1463,
      "##ann": 1464,
      "times": 1465,
      "commer": 1466,
      "final": 1467,
      "instit": 1468,
      "obs": 1469,
      "order": 1470,
      "january": 1471,
      "wrote": 1472,
      "low": 1473,
      "mid": 1474,
      "mag": 1475,
      "sb": 1476,
      "##ested": 1477,
      "##ister": 1478,
      "##omen": 1479,
      "react": 1480,
      "until": 1481,
      "area": 1482,
      "polit": 1483,
      "perfor": 1484,
      "##ached": 1485,
      "desp": 1486,
      "military": 1487,
      "performan": 1488,
      "25": 1489,
      "due": 1490,
      "led": 1491,
      "lim": 1492,
      "lond": 1493,
      "##yal": 1494,
      "##gal": 1495,
      "init": 1496,
      "beh": 1497,
      "##ulf": 1498,
      "church": 1499,
      "##ria": 1500,
      "month": 1501,
      "published": 1502,
      "archaeology": 1503,
      "archaeological": 1504,
      "present": 1505,
      "support": 1506,
      "further": 1507,
      "promot": 1508,
      "original": 1509,
      "different": 1510,
      "london": 1511,
      "bill": 1512,
      "came": 1513,
      "fr": 1514,
      "make": 1515,
      "pur": 1516,
      "##ford": 1517,
      "##ene": 1518,
      "often": 1519,
      "##ouse": 1520,
      "what": 1521,
      "real": 1522,
      "ali": 1523,
      "196": 1524,
      "deb": 1525,
      "##thern": 1526,
      "2010": 1527,
      "commun": 1528,
      "help": 1529,
      "squadron": 1530,
      "14": 1531,
      "cir": 1532,
      "hol": 1533,
      "held": 1534,
      "line": 1535,
      "old": 1536,
      "roman": 1537,
      "vis": 1538,
      "##co": 1539,
      "stated": 1540,
      "2011": 1541,
      "indian": 1542,
      "186": 1543,
      "march": 1544,
      "operations": 1545,
      "points": 1546,
      "europe": 1547,
      "##tado": 1548,
      "##eal": 1549,
      "##ble": 1550,
      "##graf": 1551,
      "stat": 1552,
      "##uted": 1553,
      "##pping": 1554,
      "relig": 1555,
      "awards": 1556,
      "furtado": 1557,
      "markgraf": 1558,
      "scored": 1559,
      "##embers": 1560,
      "author": 1561,
      "ep": 1562,
      "if": 1563,
      "la": 1564,
      "right": 1565,
      "way": 1566,
      "##aim": 1567,
      "##olay": 1568,
      "repl": 1569,
      "sholay": 1570,
      "prim": 1571,
      "noted": 1572,
      "recorded": 1573,
      "underground": 1574,
      "colum": 1575,
      "invol": 1576,
      "particular": 1577,
      "given": 1578,
      "despite": 1579,
      "lab": 1580,
      "turn": 1581,
      "wal": 1582,
      "##ob": 1583,
      "inch": 1584,
      "##eng": 1585,
      "sty": 1586,
      "requ": 1587,
      "##ages": 1588,
      "next": 1589,
      "##ried": 1590,
      "enter": 1591,
      "allow": 1592,
      "result": 1593,
      "##ront": 1594,
      "songs": 1595,
      "signed": 1596,
      "bod": 1597,
      "fem": 1598,
      "late": 1599,
      "last": 1600,
      "mas": 1601,
      "members": 1602,
      "vers": 1603,
      "##ms": 1604,
      "##med": 1605,
      "##ying": 1606,
      "##itch": 1607,
      "##amb": 1608,
      "chart": 1609,
      "blue": 1610,
      "production": 1611,
      "import": 1612,
      "surv": 1613,
      "battle": 1614,
      "local": 1615,
      "society": 1616,
      "circ": 1617,
      "free": 1618,
      "##ring": 1619,
      "##ha": 1620,
      "##ars": 1621,
      "##ilar": 1622,
      "##adem": 1623,
      "conv": 1624,
      "seen": 1625,
      "##ights": 1626,
      "anti": 1627,
      "base": 1628,
      "academ": 1629,
      "valky": 1630,
      "16": 1631,
      "eat": 1632,
      "father": 1633,
      "jew": 1634,
      "km": 1635,
      "match": 1636,
      "sol": 1637,
      "vi": 1638,
      "women": 1639,
      "##tain": 1640,
      "##ox": 1641,
      "##ner": 1642,
      "##bru": 1643,
      "##atic": 1644,
      "##ences": 1645,
      "##ices": 1646,
      "##ott": 1647,
      "death": 1648,
      "among": 1649,
      "batt": 1650,
      "large": 1651,
      "moved": 1652,
      "returned": 1653,
      "tower": 1654,
      "profess": 1655,
      "commercial": 1656,
      "21": 1657,
      "camp": 1658,
      "hock": 1659,
      "##yl": 1660,
      "##ator": 1661,
      "##atory": 1662,
      "##stem": 1663,
      "comed": 1664,
      "never": 1665,
      "febru": 1666,
      "similar": 1667,
      "february": 1668,
      "cur": 1669,
      "cup": 1670,
      "equ": 1671,
      "nhl": 1672,
      "##self": 1673,
      "beg": 1674,
      "##raw": 1675,
      "lev": 1676,
      "2009": 1677,
      "2008": 1678,
      "former": 1679,
      "system": 1680,
      "considered": 1681,
      "24": 1682,
      "cat": 1683,
      "cru": 1684,
      "cert": 1685,
      "ft": 1686,
      "live": 1687,
      "pri": 1688,
      "sen": 1689,
      "tro": 1690,
      "tak": 1691,
      "water": 1692,
      "##af": 1693,
      "##ez": 1694,
      "##dom": 1695,
      "##ances": 1696,
      "forces": 1697,
      "##cept": 1698,
      "players": 1699,
      "2012": 1700,
      "britain": 1701,
      "divine": 1702,
      "construction": 1703,
      "university": 1704,
      "##osaurus": 1705,
      "hockey": 1706,
      "er": 1707,
      "eight": 1708,
      "having": 1709,
      "rad": 1710,
      "sel": 1711,
      "sold": 1712,
      "##ka": 1713,
      "##ara": 1714,
      "stor": 1715,
      "start": 1716,
      "police": 1717,
      "goals": 1718,
      "bulls": 1719,
      "valkyria": 1720,
      "eaton": 1721,
      "hun": 1722,
      "mem": 1723,
      "poss": 1724,
      "tor": 1725,
      "##ep": 1726,
      "##cy": 1727,
      "##cer": 1728,
      "stra": 1729,
      "sun": 1730,
      "arsen": 1731,
      "exper": 1732,
      "##oviet": 1733,
      "reported": 1734,
      "earth": 1735,
      "cover": 1736,
      "##ission": 1737,
      "president": 1738,
      "various": 1739,
      "popular": 1740,
      "cr": 1741,
      "house": 1742,
      "soviet": 1743,
      "##iam": 1744,
      "##ero": 1745,
      "##rew": 1746,
      "##enth": 1747,
      "##thers": 1748,
      "##ett": 1749,
      "##ayer": 1750,
      "##umm": 1751,
      "expl": 1752,
      "adm": 1753,
      "2014": 1754,
      "common": 1755,
      "##duc": 1756,
      "coach": 1757,
      "intern": 1758,
      "himself": 1759,
      "##ferred": 1760,
      "royal": 1761,
      "canad": 1762,
      "phil": 1763,
      "##hips": 1764,
      "histor": 1765,
      "metal": 1766,
      "critic": 1767,
      "kingdom": 1768,
      "country": 1769,
      "cou": 1770,
      "den": 1771,
      "fif": 1772,
      "fru": 1773,
      "gir": 1774,
      "ox": 1775,
      "po": 1776,
      "pi": 1777,
      "tit": 1778,
      "##sc": 1779,
      "##ski": 1780,
      "##ke": 1781,
      "##ll": 1782,
      "##par": 1783,
      "##ests": 1784,
      "##thing": 1785,
      "still": 1786,
      "story": 1787,
      "##ploy": 1788,
      "##ounds": 1789,
      "films": 1790,
      "##uals": 1791,
      "##ensive": 1792,
      "continued": 1793,
      "excavation": 1794,
      "contract": 1795,
      "girl": 1796,
      "cold": 1797,
      "educ": 1798,
      "front": 1799,
      "mer": 1800,
      "sent": 1801,
      "take": 1802,
      "voc": 1803,
      "##ats": 1804,
      "insp": 1805,
      "##omb": 1806,
      "without": 1807,
      "should": 1808,
      "##ulation": 1809,
      "##used": 1810,
      "deal": 1811,
      "##istic": 1812,
      "clark": 1813,
      "##arker": 1814,
      "central": 1815,
      "century": 1816,
      "football": 1817,
      "destroy": 1818,
      "columb": 1819,
      "bus": 1820,
      "cull": 1821,
      "det": 1822,
      "fair": 1823,
      "mater": 1824,
      "sil": 1825,
      "##ward": 1826,
      "##ves": 1827,
      "##yn": 1828,
      "##line": 1829,
      "##ps": 1830,
      "##ged": 1831,
      "##ored": 1832,
      "##estern": 1833,
      "##arian": 1834,
      "##omet": 1835,
      "stones": 1836,
      "##ives": 1837,
      "##ival": 1838,
      "##iving": 1839,
      "come": 1840,
      "##sequ": 1841,
      "spe": 1842,
      "few": 1843,
      "appoin": 1844,
      "upon": 1845,
      "records": 1846,
      "road": 1847,
      "instead": 1848,
      "point": 1849,
      "occup": 1850,
      "children": 1851,
      "association": 1852,
      "tradition": 1853,
      "july": 1854,
      "flying": 1855,
      "days": 1856,
      "far": 1857,
      "fern": 1858,
      "hour": 1859,
      "men": 1860,
      "night": 1861,
      "pa": 1862,
      "##her": 1863,
      "##ling": 1864,
      "##ds": 1865,
      "##ata": 1866,
      "##ison": 1867,
      "force": 1868,
      "leading": 1869,
      "##augh": 1870,
      "developed": 1871,
      "telev": 1872,
      "behind": 1873,
      "fernand": 1874,
      "100": 1875,
      "age": 1876,
      "civ": 1877,
      "cut": 1878,
      "fac": 1879,
      "hold": 1880,
      "mich": 1881,
      "san": 1882,
      "side": 1883,
      "temp": 1884,
      "vict": 1885,
      "##eg": 1886,
      "##ket": 1887,
      "##xim": 1888,
      "##hib": 1889,
      "##ened": 1890,
      "##enced": 1891,
      "##icles": 1892,
      "once": 1893,
      "chron": 1894,
      "##ief": 1895,
      "##ples": 1896,
      "playoff": 1897,
      "manag": 1898,
      "##ize": 1899,
      "become": 1900,
      "albums": 1901,
      "earl": 1902,
      "attack": 1903,
      "special": 1904,
      "across": 1905,
      "depart": 1906,
      "elect": 1907,
      "scoring": 1908,
      "guns": 1909,
      "strong": 1910,
      "every": 1911,
      "clarkson": 1912,
      "civil": 1913,
      "caves": 1914,
      "fire": 1915,
      "kill": 1916,
      "less": 1917,
      "##ael": 1918,
      "##ination": 1919,
      "##eder": 1920,
      "##arch": 1921,
      "##ital": 1922,
      "##ithic": 1923,
      "##ivid": 1924,
      "shot": 1925,
      "190": 1926,
      "training": 1927,
      "priv": 1928,
      "##anta": 1929,
      "poland": 1930,
      "add": 1931,
      "individ": 1932,
      "recording": 1933,
      "subm": 1934,
      "written": 1935,
      "personal": 1936,
      "commander": 1937,
      "eastern": 1938,
      "struck": 1939,
      "activities": 1940,
      "jackets": 1941,
      "performance": 1942,
      "important": 1943,
      "cullen": 1944,
      "material": 1945,
      "23": 1946,
      "barker": 1947,
      "dr": 1948,
      "fren": 1949,
      "pers": 1950,
      "sn": 1951,
      "summ": 1952,
      "ten": 1953,
      "western": 1954,
      "##app": 1955,
      "##ving": 1956,
      "##aries": 1957,
      "##itted": 1958,
      "station": 1959,
      "stone": 1960,
      "conn": 1961,
      "##ogue": 1962,
      "compet": 1963,
      "event": 1964,
      "events": 1965,
      "writing": 1966,
      "signific": 1967,
      "iii": 1968,
      "austral": 1969,
      "cave": 1970,
      "creat": 1971,
      "fund": 1972,
      "put": 1973,
      "##work": 1974,
      "##by": 1975,
      "##iness": 1976,
      "stre": 1977,
      "##iver": 1978,
      "##aying": 1979,
      "sex": 1980,
      "prog": 1981,
      "ital": 1982,
      "relations": 1983,
      "indust": 1984,
      "basket": 1985,
      "discover": 1986,
      "successful": 1987,
      "hyg": 1988,
      "madero": 1989,
      "style": 1990,
      "female": 1991,
      "television": 1992,
      "french": 1993,
      "born": 1994,
      "gave": 1995,
      "hit": 1996,
      "ill": 1997,
      "james": 1998,
      "pot": 1999,
      "##cess": 2000,
      "##han": 2001,
      "##ham": 2002,
      "##jects": 2003,
      "##que": 2004,
      "##iny": 2005,
      "##str": 2006,
      "stri": 2007,
      "reached": 2008,
      "##ither": 2009,
      "##lear": 2010,
      "##odrom": 2011,
      "##bert": 2012,
      "union": 2013,
      "claim": 2014,
      "allosaurus": 2015,
      "##ourn": 2016,
      "playing": 2017,
      "operation": 2018,
      "characters": 2019,
      "believed": 2020,
      "aerodrom": 2021,
      "arsenal": 2022,
      "50": 2023,
      "fel": 2024,
      "fav": 2025,
      "hill": 2026,
      "mat": 2027,
      "making": 2028,
      "tem": 2029,
      "treat": 2030,
      "##ior": 2031,
      "##uc": 2032,
      "##iting": 2033,
      "tomb": 2034,
      "##ico": 2035,
      "##imes": 2036,
      "##iding": 2037,
      "suff": 2038,
      "##ians": 2039,
      "##igned": 2040,
      "secret": 2041,
      "regular": 2042,
      "remained": 2043,
      "##rict": 2044,
      "revol": 2045,
      "subsequ": 2046,
      "broad": 2047,
      "thought": 2048,
      "ident": 2049,
      "damage": 2050,
      "institute": 2051,
      "comedy": 2052,
      "coldrum": 2053,
      "fernandez": 2054,
      "bur": 2055,
      "hor": 2056,
      "lat": 2057,
      "others": 2058,
      "pan": 2059,
      "son": 2060,
      "save": 2061,
      "sulf": 2062,
      "tra": 2063,
      "wra": 2064,
      "##ef": 2065,
      "##ness": 2066,
      "##bar": 2067,
      "##ont": 2068,
      "##isc": 2069,
      "##iser": 2070,
      "##idence": 2071,
      "ang": 2072,
      "##ush": 2073,
      "comb": 2074,
      "##riend": 2075,
      "##aps": 2076,
      "##play": 2077,
      "carol": 2078,
      "finished": 2079,
      "regime": 2080,
      "##ference": 2081,
      "phot": 2082,
      "started": 2083,
      "colle": 2084,
      "created": 2085,
      "barrow": 2086,
      "aviation": 2087,
      "coins": 2088,
      "navy": 2089,
      "total": 2090,
      "monument": 2091,
      "observ": 2092,
      "viol": 2093,
      "columbus": 2094,
      "appointed": 2095,
      "private": 2096,
      "cro": 2097,
      "cop": 2098,
      "domin": 2099,
      "hop": 2100,
      "mm": 2101,
      "rich": 2102,
      "wife": 2103,
      "##aff": 2104,
      "##ne": 2105,
      "##reed": 2106,
      "##ecut": 2107,
      "shown": 2108,
      "see": 2109,
      "##ode": 2110,
      "least": 2111,
      "##ably": 2112,
      "##aper": 2113,
      "feet": 2114,
      "appl": 2115,
      "action": 2116,
      "decided": 2117,
      "archaeologist": 2118,
      "impro": 2119,
      "novel": 2120,
      "development": 2121,
      "performed": 2122,
      "type": 2123,
      "political": 2124,
      "version": 2125,
      "chronicles": 2126,
      "basketball": 2127,
      "wrapped": 2128,
      "aver": 2129,
      "ca": 2130,
      "hon": 2131,
      "journ": 2132,
      "ll": 2133,
      "loss": 2134,
      "mass": 2135,
      "mix": 2136,
      "nec": 2137,
      "went": 2138,
      "##ken": 2139,
      "##ience": 2140,
      "##fic": 2141,
      "inform": 2142,
      "ref": 2143,
      "shr": 2144,
      "##ander": 2145,
      "need": 2146,
      "leg": 2147,
      "##ells": 2148,
      "##elling": 2149,
      "2015": 2150,
      "good": 2151,
      "188": 2152,
      "block": 2153,
      "mint": 2154,
      "remains": 2155,
      "cultural": 2156,
      "established": 2157,
      "joined": 2158,
      "reaction": 2159,
      "purp": 2160,
      "academy": 2161,
      "professional": 2162,
      "40": 2163,
      "ball": 2164,
      "break": 2165,
      "dar": 2166,
      "dou": 2167,
      "fail": 2168,
      "grow": 2169,
      "har": 2170,
      "hall": 2171,
      "host": 2172,
      "iron": 2173,
      "ly": 2174,
      "nar": 2175,
      "tur": 2176,
      "uran": 2177,
      "vol": 2178,
      "wol": 2179,
      "##ship": 2180,
      "##pted": 2181,
      "##get": 2182,
      "##ators": 2183,
      "too": 2184,
      "##ican": 2185,
      "atl": 2186,
      "##aint": 2187,
      "##unch": 2188,
      "##ops": 2189,
      "recog": 2190,
      "##ought": 2191,
      "187": 2192,
      "mean": 2193,
      "meth": 2194,
      "compan": 2195,
      "interv": 2196,
      "##ressed": 2197,
      "followed": 2198,
      "officers": 2199,
      "appeared": 2200,
      "damaged": 2201,
      "holid": 2202,
      "jewish": 2203,
      "begin": 2204,
      "fruit": 2205,
      "piec": 2206,
      "recogn": 2207,
      "22": 2208,
      "foc": 2209,
      "friend": 2210,
      "lost": 2211,
      "mo": 2212,
      "member": 2213,
      "tre": 2214,
      "very": 2215,
      "##ked": 2216,
      "##iers": 2217,
      "##iber": 2218,
      "##day": 2219,
      "##int": 2220,
      "##itt": 2221,
      "##ants": 2222,
      "##eless": 2223,
      "##ament": 2224,
      "##oming": 2225,
      "staff": 2226,
      "##aces": 2227,
      "read": 2228,
      "##utes": 2229,
      "##osing": 2230,
      "super": 2231,
      "ark": 2232,
      "##ape": 2233,
      "##ective": 2234,
      "using": 2235,
      "finals": 2236,
      "formed": 2237,
      "region": 2238,
      "minute": 2239,
      "outside": 2240,
      "schools": 2241,
      "heavy": 2242,
      "seven": 2243,
      "##board": 2244,
      "limited": 2245,
      "community": 2246,
      "international": 2247,
      "cm": 2248,
      "draft": 2249,
      "draw": 2250,
      "field": 2251,
      "hard": 2252,
      "lad": 2253,
      "nomin": 2254,
      "pra": 2255,
      "ru": 2256,
      "round": 2257,
      "vill": 2258,
      "word": 2259,
      "##eb": 2260,
      "##wood": 2261,
      "##iated": 2262,
      "##my": 2263,
      "##dess": 2264,
      "thak": 2265,
      "ins": 2266,
      "##olithic": 2267,
      "##omp": 2268,
      "white": 2269,
      "##abbar": 2270,
      "polic": 2271,
      "decl": 2272,
      "minor": 2273,
      "attemp": 2274,
      "southern": 2275,
      "transport": 2276,
      "official": 2277,
      "estim": 2278,
      "culture": 2279,
      "figure": 2280,
      "religious": 2281,
      "body": 2282,
      "battles": 2283,
      "level": 2284,
      "taken": 2285,
      "michael": 2286,
      "earlier": 2287,
      "significant": 2288,
      "urania": 2289,
      "44": 2290,
      "dav": 2291,
      "either": 2292,
      "fell": 2293,
      "get": 2294,
      "mc": 2295,
      "pen": 2296,
      "rh": 2297,
      "range": 2298,
      "##cing": 2299,
      "##bc": 2300,
      "##bon": 2301,
      "##der": 2302,
      "##ising": 2303,
      "tour": 2304,
      "##echn": 2305,
      "##enty": 2306,
      "##etic": 2307,
      "##pper": 2308,
      "##ortun": 2309,
      "closed": 2310,
      "##elled": 2311,
      "2003": 2312,
      "2005": 2313,
      "2004": 2314,
      "above": 2315,
      "commission": 2316,
      "resul": 2317,
      "##ization": 2318,
      "include": 2319,
      "schol": 2320,
      "center": 2321,
      "soon": 2322,
      "loose": 2323,
      "america": 2324,
      "frag": 2325,
      "debut": 2326,
      "primary": 2327,
      "prior": 2328,
      "education": 2329,
      "revolution": 2330,
      "##ecutive": 2331,
      "35": 2332,
      "ast": 2333,
      "bi": 2334,
      "cast": 2335,
      "case": 2336,
      "mult": 2337,
      "past": 2338,
      "pitch": 2339,
      "rul": 2340,
      "rank": 2341,
      "saves": 2342,
      "view": 2343,
      "##ax": 2344,
      "##ways": 2345,
      "##me": 2346,
      "toge": 2347,
      "##urst": 2348,
      "##idge": 2349,
      "anc": 2350,
      "anim": 2351,
      "shoot": 2352,
      "condu": 2353,
      "##romet": 2354,
      "prob": 2355,
      "trade": 2356,
      "env": 2357,
      "close": 2358,
      "republ": 2359,
      "regard": 2360,
      "works": 2361,
      "##rought": 2362,
      "officer": 2363,
      "critical": 2364,
      "located": 2365,
      "originally": 2366,
      "issue": 2367,
      "service": 2368,
      "synag": 2369,
      "court": 2370,
      "pilot": 2371,
      "initially": 2372,
      "storm": 2373,
      "hung": 2374,
      "girls": 2375,
      "department": 2376,
      "submar": 2377,
      "holiday": 2378,
      "together": 2379,
      "31": 2380,
      "brought": 2381,
      "caus": 2382,
      "du": 2383,
      "full": 2384,
      "gar": 2385,
      "russ": 2386,
      "river": 2387,
      "sat": 2388,
      "somet": 2389,
      "ul": 2390,
      "wall": 2391,
      "##sel": 2392,
      "##nes": 2393,
      "##har": 2394,
      "inj": 2395,
      "##itive": 2396,
      "##icated": 2397,
      "##amber": 2398,
      "reag": 2399,
      "champ": 2400,
      "chamber": 2401,
      "process": 2402,
      "##ishing": 2403,
      "exist": 2404,
      "##abor": 2405,
      "##earch": 2406,
      "prin": 2407,
      "aff": 2408,
      "able": 2409,
      "intro": 2410,
      "research": 2411,
      "image": 2412,
      "megal": 2413,
      "##ology": 2414,
      "evidence": 2415,
      "specim": 2416,
      "##eep": 2417,
      "reveal": 2418,
      "surround": 2419,
      "employ": 2420,
      "devin": 2421,
      "germany": 2422,
      "territ": 2423,
      "designed": 2424,
      "announ": 2425,
      "nature": 2426,
      "suggested": 2427,
      "billboard": 2428,
      "coup": 2429,
      "business": 2430,
      "silver": 2431,
      "australia": 2432,
      "hygromet": 2433,
      "photograph": 2434,
      "synagogue": 2435,
      "hygrometric": 2436,
      "45": 2437,
      "bru": 2438,
      "bomb": 2439,
      "gabbar": 2440,
      "love": 2441,
      "mot": 2442,
      "pick": 2443,
      "ram": 2444,
      "self": 2445,
      "taking": 2446,
      "techn": 2447,
      "##tr": 2448,
      "##wh": 2449,
      "##ks": 2450,
      "##rated": 2451,
      "##vat": 2452,
      "##ped": 2453,
      "##inent": 2454,
      "inf": 2455,
      "##ential": 2456,
      "asp": 2457,
      "placed": 2458,
      "##ope": 2459,
      "perm": 2460,
      "goddess": 2461,
      "report": 2462,
      "coast": 2463,
      "highway": 2464,
      "winning": 2465,
      "##angu": 2466,
      "guard": 2467,
      "look": 2468,
      "slayer": 2469,
      "diffic": 2470,
      "appearance": 2471,
      "features": 2472,
      "occur": 2473,
      "geor": 2474,
      "shortly": 2475,
      "larger": 2476,
      "approach": 2477,
      "monuments": 2478,
      "blackie": 2479,
      "completed": 2480,
      "involved": 2481,
      "particularly": 2482,
      "survey": 2483,
      "troops": 2484,
      "strapping": 2485,
      "felt": 2486,
      "wolf": 2487,
      "hygrometricus": 2488,
      "##vati": 2489,
      "difficult": 2490,
      "aud": 2491,
      "cer": 2492,
      "coun": 2493,
      "cred": 2494,
      "died": 2495,
      "lack": 2496,
      "langu": 2497,
      "mach": 2498,
      "names": 2499,
      "pow": 2500,
      "qual": 2501,
      "tar": 2502,
      "##vers": 2503,
      "##gas": 2504,
      "things": 2505,
      "##ering": 2506,
      "##ency": 2507,
      "##anted": 2508,
      "##elph": 2509,
      "##adelph": 2510,
      "whom": 2511,
      "##ements": 2512,
      "##ulated": 2513,
      "conference": 2514,
      "chang": 2515,
      "##agre": 2516,
      "sea": 2517,
      "deity": 2518,
      "arr": 2519,
      "##istics": 2520,
      "unl": 2521,
      "clos": 2522,
      "2002": 2523,
      "served": 2524,
      "##ibility": 2525,
      "worked": 2526,
      "fourth": 2527,
      "vargas": 2528,
      "parvati": 2529,
      "studio": 2530,
      "crew": 2531,
      "feature": 2532,
      "greater": 2533,
      "books": 2534,
      "myth": 2535,
      "increasing": 2536,
      "modern": 2537,
      "fifth": 2538,
      "snl": 2539,
      "street": 2540,
      "journal": 2541,
      "llosa": 2542,
      "beginning": 2543,
      "champions": 2544,
      "##adelphia": 2545,
      "28": 2546,
      "500": 2547,
      "cas": 2548,
      "di": 2549,
      "ey": 2550,
      "fer": 2551,
      "fact": 2552,
      "lic": 2553,
      "mal": 2554,
      "nine": 2555,
      "pal": 2556,
      "rit": 2557,
      "ver": 2558,
      "##ex": 2559,
      "##ii": 2560,
      "##ler": 2561,
      "##lish": 2562,
      "##bers": 2563,
      "thus": 2564,
      "##ories": 2565,
      "##ald": 2566,
      "##ilities": 2567,
      "##omm": 2568,
      "anal": 2569,
      "comment": 2570,
      "##akes": 2571,
      "twenty": 2572,
      "intell": 2573,
      "189": 2574,
      "185": 2575,
      "meet": 2576,
      "flight": 2577,
      "assass": 2578,
      "remain": 2579,
      "charles": 2580,
      "teams": 2581,
      "archit": 2582,
      "highest": 2583,
      "division": 2584,
      "does": 2585,
      "students": 2586,
      "england": 2587,
      "liter": 2588,
      "nearly": 2589,
      "egyptians": 2590,
      "shows": 2591,
      "social": 2592,
      "eleph": 2593,
      "greatest": 2594,
      "avail": 2595,
      "additional": 2596,
      "opportun": 2597,
      "largely": 2598,
      "campa": 2599,
      "certain": 2600,
      "summer": 2601,
      "industry": 2602,
      "favor": 2603,
      "subsequently": 2604,
      "carolina": 2605,
      "arkans": 2606,
      "republic": 2607,
      "sometimes": 2608,
      "bruins": 2609,
      "aut": 2610,
      "bh": 2611,
      "cam": 2612,
      "dan": 2613,
      "dia": 2614,
      "era": 2615,
      "feder": 2616,
      "law": 2617,
      "mv": 2618,
      "might": 2619,
      "pet": 2620,
      "sac": 2621,
      "wood": 2622,
      "wanted": 2623,
      "yl": 2624,
      "##ipp": 2625,
      "##ras": 2626,
      "##ma": 2627,
      "##most": 2628,
      "##ug": 2629,
      "##ges": 2630,
      "##anes": 2631,
      "##isters": 2632,
      "##ington": 2633,
      "##oles": 2634,
      "##acy": 2635,
      "##iral": 2636,
      "##empt": 2637,
      "##ago": 2638,
      "neolithic": 2639,
      "##ector": 2640,
      "##ecting": 2641,
      "pred": 2642,
      "pract": 2643,
      "ens": 2644,
      "fired": 2645,
      "##ender": 2646,
      "agreed": 2647,
      "compounds": 2648,
      "remaining": 2649,
      "mont": 2650,
      "attempt": 2651,
      "1994": 2652,
      "northern": 2653,
      "know": 2654,
      "subst": 2655,
      "phys": 2656,
      "winds": 2657,
      "instrum": 2658,
      "background": 2659,
      "english": 2660,
      "appearances": 2661,
      "featured": 2662,
      "ide": 2663,
      "elements": 2664,
      "opening": 2665,
      "issued": 2666,
      "weeks": 2667,
      "synth": 2668,
      "fung": 2669,
      "entire": 2670,
      "figures": 2671,
      "pilots": 2672,
      "helped": 2673,
      "epis": 2674,
      "selected": 2675,
      "method": 2676,
      "introdu": 2677,
      "announced": 2678,
      "campaign": 2679,
      "arkansas": 2680,
      "diaz": 2681,
      "29": 2682,
      "ben": 2683,
      "bow": 2684,
      "dut": 2685,
      "fict": 2686,
      "ground": 2687,
      "gamb": 2688,
      "nation": 2689,
      "park": 2690,
      "ren": 2691,
      "rif": 2692,
      "saw": 2693,
      "treas": 2694,
      "upper": 2695,
      "wid": 2696,
      "wander": 2697,
      "zagre": 2698,
      "##eh": 2699,
      "##king": 2700,
      "thai": 2701,
      "theat": 2702,
      "##inct": 2703,
      "##ana": 2704,
      "##ises": 2705,
      "##ication": 2706,
      "##icago": 2707,
      "##olic": 2708,
      "##stand": 2709,
      "forced": 2710,
      "reason": 2711,
      "##oted": 2712,
      "chicago": 2713,
      "search": 2714,
      "dead": 2715,
      "arg": 2716,
      "##istan": 2717,
      "##ections": 2718,
      "##ruct": 2719,
      "twins": 2720,
      "2001": 2721,
      "adam": 2722,
      "abs": 2723,
      "carbon": 2724,
      "##ending": 2725,
      "office": 2726,
      "seasons": 2727,
      "forms": 2728,
      "minutes": 2729,
      "remov": 2730,
      "1998": 2731,
      "working": 2732,
      "numbers": 2733,
      "smith": 2734,
      "depic": 2735,
      "germans": 2736,
      "writer": 2737,
      "study": 2738,
      "grad": 2739,
      "redu": 2740,
      "collabor": 2741,
      "franc": 2742,
      "represented": 2743,
      "propag": 2744,
      "proposed": 2745,
      "concern": 2746,
      "situ": 2747,
      "midd": 2748,
      "european": 2749,
      "inches": 2750,
      "##medi": 2751,
      "canada": 2752,
      "detail": 2753,
      "temple": 2754,
      "relationship": 2755,
      "temples": 2756,
      "college": 2757,
      "dominican": 2758,
      "focus": 2759,
      "david": 2760,
      "federal": 2761,
      "zagreb": 2762,
      "26": 2763,
      "60": 2764,
      "ach": 2765,
      "bost": 2766,
      "cy": 2767,
      "cross": 2768,
      "don": 2769,
      "esc": 2770,
      "fre": 2771,
      "fall": 2772,
      "fits": 2773,
      "gian": 2774,
      "kar": 2775,
      "mother": 2776,
      "non": 2777,
      "tal": 2778,
      "wing": 2779,
      "##oid": 2780,
      "##band": 2781,
      "##bod": 2782,
      "##onment": 2783,
      "##ature": 2784,
      "##ased": 2785,
      "##ech": 2786,
      "##ented": 2787,
      "wasp": 2788,
      "##etch": 2789,
      "stans": 2790,
      "reb": 2791,
      "condition": 2792,
      "chap": 2793,
      "chief": 2794,
      "##ify": 2795,
      "scre": 2796,
      "adap": 2797,
      "mex": 2798,
      "earned": 2799,
      "formation": 2800,
      "prem": 2801,
      "interest": 2802,
      "theme": 2803,
      "producer": 2804,
      "generally": 2805,
      "broken": 2806,
      "defe": 2807,
      "divided": 2808,
      "##ample": 2809,
      "engine": 2810,
      "capt": 2811,
      "miles": 2812,
      "dollars": 2813,
      "media": 2814,
      "respons": 2815,
      "opened": 2816,
      "awarded": 2817,
      "magaz": 2818,
      "promoted": 2819,
      "religion": 2820,
      "baseball": 2821,
      "radio": 2822,
      "possible": 2823,
      "individuals": 2824,
      "eventually": 2825,
      "atlanta": 2826,
      "interview": 2827,
      "wanderers": 2828,
      "propagand": 2829,
      "stansfield": 2830,
      "27": 2831,
      "burn": 2832,
      "cath": 2833,
      "fa": 2834,
      "got": 2835,
      "lif": 2836,
      "mic": 2837,
      "mel": 2838,
      "sam": 2839,
      "size": 2840,
      "veer": 2841,
      "##tim": 2842,
      "##ze": 2843,
      "##iel": 2844,
      "##ny": 2845,
      "##ray": 2846,
      "##ca": 2847,
      "##van": 2848,
      "##ław": 2849,
      "threat": 2850,
      "##onse": 2851,
      "##orary": 2852,
      "##arily": 2853,
      "##omes": 2854,
      "stan": 2855,
      "##acre": 2856,
      "conver": 2857,
      "##ceed": 2858,
      "separ": 2859,
      "proper": 2860,
      "exit": 2861,
      "example": 2862,
      "##ateg": 2863,
      "trav": 2864,
      "enc": 2865,
      "##itions": 2866,
      "board": 2867,
      "carried": 2868,
      "tex": 2869,
      "##ological": 2870,
      "finally": 2871,
      "##ibr": 2872,
      "assist": 2873,
      "wars": 2874,
      "money": 2875,
      "retired": 2876,
      "##ributed": 2877,
      "arms": 2878,
      "armed": 2879,
      "guit": 2880,
      "##ification": 2881,
      "1939": 2882,
      "raaf": 2883,
      "response": 2884,
      "##ography": 2885,
      "madison": 2886,
      "reviews": 2887,
      "philadelphia": 2888,
      "playoffs": 2889,
      "manager": 2890,
      "program": 2891,
      "aerodromes": 2892,
      "company": 2893,
      "envir": 2894,
      "language": 2895,
      "architect": 2896,
      "available": 2897,
      "middle": 2898,
      "veeru": 2899,
      "cin": 2900,
      "cel": 2901,
      "cab": 2902,
      "dro": 2903,
      "date": 2904,
      "econ": 2905,
      "fit": 2906,
      "gro": 2907,
      "hur": 2908,
      "jul": 2909,
      "kings": 2910,
      "lik": 2911,
      "pay": 2912,
      "sister": 2913,
      "sisters": 2914,
      "ven": 2915,
      "zr": 2916,
      "##la": 2917,
      "##don": 2918,
      "##gress": 2919,
      "##itors": 2920,
      "##ental": 2921,
      "ash": 2922,
      "##imin": 2923,
      "##tered": 2924,
      "##iest": 2925,
      "neg": 2926,
      "exam": 2927,
      "##alled": 2928,
      "##oph": 2929,
      "##ructed": 2930,
      "scul": 2931,
      "##ounts": 2932,
      "offer": 2933,
      "184": 2934,
      "meas": 2935,
      "overall": 2936,
      "flow": 2937,
      "charl": 2938,
      "##rick": 2939,
      "themes": 2940,
      "consecutive": 2941,
      "access": 2942,
      "metres": 2943,
      "supported": 2944,
      "variety": 2945,
      "saf": 2946,
      "transferred": 2947,
      "grand": 2948,
      "creation": 2949,
      "captain": 2950,
      "term": 2951,
      "terms": 2952,
      "planning": 2953,
      "quick": 2954,
      "frank": 2955,
      "demon": 2956,
      "respect": 2957,
      "particip": 2958,
      "heaven": 2959,
      "hands": 2960,
      "##rison": 2961,
      "controlled": 2962,
      "influenced": 2963,
      "natural": 2964,
      "suggest": 2965,
      "establish": 2966,
      "labor": 2967,
      "allowing": 2968,
      "antiqu": 2969,
      "curr": 2970,
      "memor": 2971,
      "paul": 2972,
      "killed": 2973,
      "necess": 2974,
      "shrine": 2975,
      "lyric": 2976,
      "estimated": 2977,
      "ancient": 2978,
      "hungarian": 2979,
      "ultim": 2980,
      "cerem": 2981,
      "mvp": 2982,
      "achie": 2983,
      "boston": 2984,
      "magazine": 2985,
      "environment": 2986,
      "econom": 2987,
      "36": 2988,
      "cost": 2989,
      "corn": 2990,
      "dun": 2991,
      "deter": 2992,
      "fut": 2993,
      "gross": 2994,
      "ir": 2995,
      "jud": 2996,
      "ke": 2997,
      "kra": 2998,
      "let": 2999,
      "mi": 3000,
      "net": 3001,
      "naz": 3002,
      "rap": 3003,
      "tree": 3004,
      "van": 3005,
      "##oon": 3006,
      "##ns": 3007,
      "##ration": 3008,
      "##rain": 3009,
      "##uous": 3010,
      "##uck": 3011,
      "##cent": 3012,
      "##por": 3013,
      "##ores": 3014,
      "##anced": 3015,
      "##asion": 3016,
      "##ilis": 3017,
      "##ille": 3018,
      "sto": 3019,
      "##acing": 3020,
      "always": 3021,
      "##usion": 3022,
      "leon": 3023,
      "afric": 3024,
      "newsp": 3025,
      "itself": 3026,
      "indep": 3027,
      "repair": 3028,
      "find": 3029,
      "flower": 3030,
      "acting": 3031,
      "mostly": 3032,
      "1999": 3033,
      "1996": 3034,
      "consisted": 3035,
      "ending": 3036,
      "depict": 3037,
      "artists": 3038,
      "below": 3039,
      "parts": 3040,
      "1918": 3041,
      "critics": 3042,
      "governor": 3043,
      "continue": 3044,
      "quar": 3045,
      "medway": 3046,
      "william": 3047,
      "austro": 3048,
      "provided": 3049,
      "naval": 3050,
      "turned": 3051,
      "required": 3052,
      "vocals": 3053,
      "fairies": 3054,
      "italian": 3055,
      "##inyi": 3056,
      "attempted": 3057,
      "conducted": 3058,
      "##selves": 3059,
      "intellig": 3060,
      "propaganda": 3061,
      "zrinyi": 3062,
      "independ": 3063,
      "80": 3064,
      "bank": 3065,
      "clear": 3066,
      "esp": 3067,
      "face": 3068,
      "fox": 3069,
      "jai": 3070,
      "nuc": 3071,
      "pak": 3072,
      "penn": 3073,
      "ton": 3074,
      "test": 3075,
      "tied": 3076,
      "tax": 3077,
      "vice": 3078,
      "##ius": 3079,
      "##cop": 3080,
      "##bs": 3081,
      "##bal": 3082,
      "##ports": 3083,
      "##erved": 3084,
      "##alth": 3085,
      "##real": 3086,
      "##outh": 3087,
      "##ster": 3088,
      "refl": 3089,
      "##iths": 3090,
      "##cepted": 3091,
      "plans": 3092,
      "##ability": 3093,
      "unit": 3094,
      "poly": 3095,
      "scene": 3096,
      "newly": 3097,
      "teach": 3098,
      "##reek": 3099,
      "flo": 3100,
      "actress": 3101,
      "##ricane": 3102,
      "themselves": 3103,
      "attend": 3104,
      "attention": 3105,
      "1997": 3106,
      "genus": 3107,
      "highly": 3108,
      "ended": 3109,
      "room": 3110,
      "robert": 3111,
      "maxim": 3112,
      "archaeologists": 3113,
      "symb": 3114,
      "color": 3115,
      "batter": 3116,
      "1988": 3117,
      "1985": 3118,
      "loan": 3119,
      "discuss": 3120,
      "move": 3121,
      "##emble": 3122,
      "ordered": 3123,
      "planned": 3124,
      "groups": 3125,
      "excavations": 3126,
      "increase": 3127,
      "course": 3128,
      "sites": 3129,
      "months": 3130,
      "launch": 3131,
      "replaced": 3132,
      "wales": 3133,
      "master": 3134,
      "soldiers": 3135,
      "torped": 3136,
      "admiral": 3137,
      "destroyed": 3138,
      "sexual": 3139,
      "treaty": 3140,
      "secretary": 3141,
      "croat": 3142,
      "copies": 3143,
      "information": 3144,
      "probably": 3145,
      "caused": 3146,
      "analys": 3147,
      "fungus": 3148,
      "cinem": 3149,
      "hurricane": 3150,
      "lyrics": 3151,
      "pakistan": 3152,
      "torpedo": 3153,
      "42": 3154,
      "88": 3155,
      "ath": 3156,
      "aim": 3157,
      "aot": 3158,
      "bir": 3159,
      "der": 3160,
      "ded": 3161,
      "es": 3162,
      "fight": 3163,
      "jer": 3164,
      "jap": 3165,
      "ker": 3166,
      "kind": 3167,
      "libr": 3168,
      "mort": 3169,
      "mount": 3170,
      "male": 3171,
      "pair": 3172,
      "purch": 3173,
      "sem": 3174,
      "vess": 3175,
      "wide": 3176,
      "woman": 3177,
      "yet": 3178,
      "zap": 3179,
      "##aut": 3180,
      "##oice": 3181,
      "##zy": 3182,
      "##east": 3183,
      "##win": 3184,
      "##kh": 3185,
      "##yd": 3186,
      "##lin": 3187,
      "##less": 3188,
      "##pre": 3189,
      "##ga": 3190,
      "##gr": 3191,
      "thom": 3192,
      "##ester": 3193,
      "##isers": 3194,
      "wash": 3195,
      "almost": 3196,
      "##igg": 3197,
      "##aging": 3198,
      "##rae": 3199,
      "plain": 3200,
      "##ript": 3201,
      "exeter": 3202,
      "exhib": 3203,
      "##allow": 3204,
      "true": 3205,
      "spring": 3206,
      "notes": 3207,
      "related": 3208,
      "perman": 3209,
      "##ously": 3210,
      "offered": 3211,
      "##arked": 3212,
      "airport": 3213,
      "airports": 3214,
      "diss": 3215,
      "becoming": 3216,
      "prep": 3217,
      "compos": 3218,
      "assigned": 3219,
      "1991": 3220,
      "1990": 3221,
      "specific": 3222,
      "accepted": 3223,
      "wins": 3224,
      "longacre": 3225,
      "door": 3226,
      "1986": 3227,
      "1943": 3228,
      "grew": 3229,
      "green": 3230,
      "franch": 3231,
      "towards": 3232,
      "alongside": 3233,
      "distinct": 3234,
      "moral": 3235,
      "services": 3236,
      "belief": 3237,
      "effect": 3238,
      "tracks": 3239,
      "previously": 3240,
      "magn": 3241,
      "initial": 3242,
      "authorities": 3243,
      "allowed": 3244,
      "bodies": 3245,
      "solo": 3246,
      "title": 3247,
      "vocal": 3248,
      "inspired": 3249,
      "hours": 3250,
      "suffered": 3251,
      "caa": 3252,
      "double": 3253,
      "piece": 3254,
      "battleships": 3255,
      "resulted": 3256,
      "scholars": 3257,
      "revealed": 3258,
      "aspects": 3259,
      "championship": 3260,
      "synthes": 3261,
      "francis": 3262,
      "mexico": 3263,
      "guitar": 3264,
      "sculpt": 3265,
      "76": 3266,
      "ble": 3267,
      "bud": 3268,
      "bah": 3269,
      "dre": 3270,
      "dict": 3271,
      "hus": 3272,
      "hired": 3273,
      "ig": 3274,
      "je": 3275,
      "key": 3276,
      "lower": 3277,
      "listed": 3278,
      "mac": 3279,
      "ple": 3280,
      "paper": 3281,
      "rav": 3282,
      "rather": 3283,
      "sour": 3284,
      "ur": 3285,
      "wides": 3286,
      "##to": 3287,
      "##tained": 3288,
      "##zog": 3289,
      "##zher": 3290,
      "##ker": 3291,
      "##ique": 3292,
      "##mp": 3293,
      "##ple": 3294,
      "##gen": 3295,
      "think": 3296,
      "told": 3297,
      "##ica": 3298,
      "##eling": 3299,
      "##ompl": 3300,
      "##urg": 3301,
      "##urity": 3302,
      "fort": 3303,
      "asked": 3304,
      "whose": 3305,
      "referred": 3306,
      "beat": 3307,
      "##eman": 3308,
      "conclud": 3309,
      "chall": 3310,
      "##oses": 3311,
      "places": 3312,
      "##anti": 3313,
      "adop": 3314,
      "timbal": 3315,
      "amun": 3316,
      "goat": 3317,
      "going": 3318,
      "committ": 3319,
      "flood": 3320,
      "comple": 3321,
      "blood": 3322,
      "1995": 3323,
      "consist": 3324,
      "acqu": 3325,
      "married": 3326,
      "surf": 3327,
      "emer": 3328,
      "##ression": 3329,
      "leader": 3330,
      "1984": 3331,
      "marked": 3332,
      "##azz": 3333,
      "owned": 3334,
      "humans": 3335,
      "constructed": 3336,
      "issues": 3337,
      "increased": 3338,
      "approxim": 3339,
      "influence": 3340,
      "performances": 3341,
      "entered": 3342,
      "mask": 3343,
      "erzher": 3344,
      "starting": 3345,
      "speed": 3346,
      "victor": 3347,
      "competition": 3348,
      "latin": 3349,
      "failed": 3350,
      "fragilis": 3351,
      "reagents": 3352,
      "megaliths": 3353,
      "surrounding": 3354,
      "introduced": 3355,
      "removed": 3356,
      "catholic": 3357,
      "texts": 3358,
      "thomas": 3359,
      "franchise": 3360,
      "husband": 3361,
      "timbaland": 3362,
      "committee": 3363,
      "erzherzog": 3364,
      "38": 3365,
      "70": 3366,
      "ban": 3367,
      "bass": 3368,
      "bene": 3369,
      "categ": 3370,
      "daugh": 3371,
      "gall": 3372,
      "horn": 3373,
      "hind": 3374,
      "link": 3375,
      "os": 3376,
      "our": 3377,
      "pain": 3378,
      "rar": 3379,
      "roles": 3380,
      "sus": 3381,
      "sky": 3382,
      "saying": 3383,
      "tale": 3384,
      "tenn": 3385,
      "##teen": 3386,
      "##syl": 3387,
      "##iqu": 3388,
      "##xis": 3389,
      "##pg": 3390,
      "##den": 3391,
      "##go": 3392,
      "##era": 3393,
      "##enes": 3394,
      "##ense": 3395,
      "##enge": 3396,
      "##iter": 3397,
      "##olk": 3398,
      "streak": 3399,
      "reach": 3400,
      "##ership": 3401,
      "##utions": 3402,
      "##ems": 3403,
      "##ument": 3404,
      "##ully": 3405,
      "proble": 3406,
      "##ocr": 3407,
      "except": 3408,
      "uns": 3409,
      "spent": 3410,
      "##aped": 3411,
      "##iple": 3412,
      "worship": 3413,
      "indic": 3414,
      "immedi": 3415,
      "180": 3416,
      "minister": 3417,
      "attended": 3418,
      "1993": 3419,
      "higher": 3420,
      "##ribution": 3421,
      "armor": 3422,
      "brown": 3423,
      "singh": 3424,
      "##roscop": 3425,
      "studies": 3426,
      "engaged": 3427,
      "1944": 3428,
      "prominent": 3429,
      "smaller": 3430,
      "johnson": 3431,
      "county": 3432,
      "glid": 3433,
      "standards": 3434,
      "entran": 3435,
      "influences": 3436,
      "soundtr": 3437,
      "label": 3438,
      "entertain": 3439,
      "freeway": 3440,
      "matches": 3441,
      "illust": 3442,
      "claimed": 3443,
      "purpose": 3444,
      "narr": 3445,
      "trees": 3446,
      "praised": 3447,
      "thakur": 3448,
      "fellow": 3449,
      "shooting": 3450,
      "regarded": 3451,
      "injury": 3452,
      "assassination": 3453,
      "idea": 3454,
      "fictional": 3455,
      "##standing": 3456,
      "future": 3457,
      "pennsyl": 3458,
      "zapata": 3459,
      "approximately": 3460,
      "soundtrack": 3461,
      "pennsylvan": 3462,
      "300": 3463,
      "75": 3464,
      "90": 3465,
      "bal": 3466,
      "bol": 3467,
      "bad": 3468,
      "bay": 3469,
      "bri": 3470,
      "cle": 3471,
      "cos": 3472,
      "dra": 3473,
      "doc": 3474,
      "dance": 3475,
      "done": 3476,
      "dram": 3477,
      "diam": 3478,
      "fest": 3479,
      "gh": 3480,
      "hen": 3481,
      "happ": 3482,
      "kon": 3483,
      "keep": 3484,
      "living": 3485,
      "must": 3486,
      "mys": 3487,
      "pict": 3488,
      "que": 3489,
      "rain": 3490,
      "rang": 3491,
      "rays": 3492,
      "sav": 3493,
      "tend": 3494,
      "tons": 3495,
      "vir": 3496,
      "via": 3497,
      "wre": 3498,
      "wil": 3499,
      "##kow": 3500,
      "##na": 3501,
      "##lo": 3502,
      "##bb": 3503,
      "##pread": 3504,
      "##din": 3505,
      "thail": 3506,
      "##esh": 3507,
      "##aring": 3508,
      "##aria": 3509,
      "##isl": 3510,
      "##isf": 3511,
      "andrew": 3512,
      "##roph": 3513,
      "##reg": 3514,
      "stage": 3515,
      "##iring": 3516,
      "rej": 3517,
      "rein": 3518,
      "refer": 3519,
      "##lywood": 3520,
      "##ids": 3521,
      "withd": 3522,
      "##ote": 3523,
      "health": 3524,
      "##emed": 3525,
      "chem": 3526,
      "chair": 3527,
      "change": 3528,
      "##anded": 3529,
      "projects": 3530,
      "units": 3531,
      "##antic": 3532,
      "##astrum": 3533,
      "poles": 3534,
      "carey": 3535,
      "intended": 3536,
      "##phy": 3537,
      "dism": 3538,
      "reports": 3539,
      "decision": 3540,
      "compared": 3541,
      "assemb": 3542,
      "max": 3543,
      "subject": 3544,
      "surre": 3545,
      "wind": 3546,
      "sms": 3547,
      "write": 3548,
      "writers": 3549,
      "antimon": 3550,
      "metall": 3551,
      "defin": 3552,
      "invited": 3553,
      "slow": 3554,
      "capital": 3555,
      "featuring": 3556,
      "positive": 3557,
      "france": 3558,
      "sixth": 3559,
      "representative": 3560,
      "missing": 3561,
      "sevent": 3562,
      "seventh": 3563,
      "geastrum": 3564,
      "majority": 3565,
      "struct": 3566,
      "characteristics": 3567,
      "standing": 3568,
      "standard": 3569,
      "passed": 3570,
      "supporting": 3571,
      "cruiser": 3572,
      "canadian": 3573,
      "occupied": 3574,
      "traditional": 3575,
      "added": 3576,
      "creator": 3577,
      "discovery": 3578,
      "identified": 3579,
      "legisl": 3580,
      "friends": 3581,
      "policy": 3582,
      "eye": 3583,
      "opportunities": 3584,
      "montreal": 3585,
      "episode": 3586,
      "gambia": 3587,
      "gradu": 3588,
      "situation": 3589,
      "frequ": 3590,
      "intelligence": 3591,
      "symbol": 3592,
      "permanent": 3593,
      "widespread": 3594,
      "cosm": 3595,
      "thailand": 3596,
      "bott": 3597,
      "core": 3598,
      "dub": 3599,
      "edition": 3600,
      "fans": 3601,
      "fix": 3602,
      "jazz": 3603,
      "khan": 3604,
      "lines": 3605,
      "mur": 3606,
      "makes": 3607,
      "nin": 3608,
      "nam": 3609,
      "od": 3610,
      "ran": 3611,
      "sail": 3612,
      "trib": 3613,
      "und": 3614,
      "wa": 3615,
      "##tt": 3616,
      "##sb": 3617,
      "##sin": 3618,
      "##war": 3619,
      "##ney": 3620,
      "##uter": 3621,
      "##val": 3622,
      "##let": 3623,
      "##be": 3624,
      "##eness": 3625,
      "##isation": 3626,
      "##ingu": 3627,
      "##ecially": 3628,
      "##the": 3629,
      "##urt": 3630,
      "##acted": 3631,
      "whole": 3632,
      "alle": 3633,
      "##iment": 3634,
      "##ume": 3635,
      "prohib": 3636,
      "plat": 3637,
      "##order": 3638,
      "spores": 3639,
      "recon": 3640,
      "enough": 3641,
      "worst": 3642,
      "scient": 3643,
      "news": 3644,
      "box": 3645,
      "##irement": 3646,
      "##phas": 3647,
      "airsp": 3648,
      "uses": 3649,
      "regional": 3650,
      "interact": 3651,
      "1992": 3652,
      "norm": 3653,
      "secondary": 3654,
      "cancer": 3655,
      "emp": 3656,
      "emphas": 3657,
      "better": 3658,
      "generation": 3659,
      "directed": 3660,
      "artist": 3661,
      "objects": 3662,
      "1911": 3663,
      "christian": 3664,
      "1940": 3665,
      "##bai": 3666,
      "directly": 3667,
      "weap": 3668,
      "bridge": 3669,
      "owner": 3670,
      "greg": 3671,
      "annual": 3672,
      "heavily": 3673,
      "consider": 3674,
      "strugg": 3675,
      "associated": 3676,
      "##ready": 3677,
      "advanced": 3678,
      "experi": 3679,
      "poor": 3680,
      "occupation": 3681,
      "management": 3682,
      "discovered": 3683,
      "specimen": 3684,
      "territory": 3685,
      "occurred": 3686,
      "audience": 3687,
      "rituals": 3688,
      "ylide": 3689,
      "carbonaria": 3690,
      "giants": 3691,
      "assistant": 3692,
      "quickly": 3693,
      "determ": 3694,
      "especially": 3695,
      "analysis": 3696,
      "francisco": 3697,
      "husbandman": 3698,
      "tennant": 3699,
      "airspace": 3700,
      "600": 3701,
      "95": 3702,
      "bc": 3703,
      "bran": 3704,
      "dial": 3705,
      "fame": 3706,
      "folk": 3707,
      "give": 3708,
      "hers": 3709,
      "here": 3710,
      "ice": 3711,
      "kim": 3712,
      "mum": 3713,
      "mention": 3714,
      "nbc": 3715,
      "pun": 3716,
      "push": 3717,
      "rum": 3718,
      "roll": 3719,
      "sipp": 3720,
      "tig": 3721,
      "want": 3722,
      "##ta": 3723,
      "##oh": 3724,
      "##of": 3725,
      "##ees": 3726,
      "##eign": 3727,
      "##eenth": 3728,
      "##ih": 3729,
      "##iate": 3730,
      "##ya": 3731,
      "##hum": 3732,
      "##gs": 3733,
      "thick": 3734,
      "##erous": 3735,
      "##oned": 3736,
      "##orth": 3737,
      "##atively": 3738,
      "inside": 3739,
      "##anc": 3740,
      "##aster": 3741,
      "##asted": 3742,
      "today": 3743,
      "##icle": 3744,
      "##thur": 3745,
      "##ades": 3746,
      "##ety": 3747,
      "##acts": 3748,
      "altern": 3749,
      "already": 3750,
      "##change": 3751,
      "anth": 3752,
      "shell": 3753,
      "##umed": 3754,
      "##usz": 3755,
      "deploy": 3756,
      "proceed": 3757,
      "##istry": 3758,
      "##ift": 3759,
      "##opol": 3760,
      "lear": 3761,
      "train": 3762,
      "spot": 3763,
      "##ogen": 3764,
      "##ipl": 3765,
      "allied": 3766,
      "scott": 3767,
      "agric": 3768,
      "airfield": 3769,
      "party": 3770,
      "meant": 3771,
      "active": 3772,
      "actions": 3773,
      "basis": 3774,
      "charts": 3775,
      "produce": 3776,
      "impact": 3777,
      "marsh": 3778,
      "surp": 3779,
      "emot": 3780,
      "brook": 3781,
      "singles": 3782,
      "belong": 3783,
      "expressed": 3784,
      "1941": 3785,
      "officially": 3786,
      "pope": 3787,
      "population": 3788,
      "1929": 3789,
      "opin": 3790,
      "raised": 3791,
      "square": 3792,
      "elev": 3793,
      "element": 3794,
      "missed": 3795,
      "giving": 3796,
      "pattern": 3797,
      "extre": 3798,
      "activity": 3799,
      "effort": 3800,
      "destruction": 3801,
      "confeder": 3802,
      "promotion": 3803,
      "trophy": 3804,
      "earthst": 3805,
      "historical": 3806,
      "funding": 3807,
      "potential": 3808,
      "aerodrome": 3809,
      "horus": 3810,
      "latter": 3811,
      "angel": 3812,
      "combined": 3813,
      "observatory": 3814,
      "mixed": 3815,
      "darwin": 3816,
      "growth": 3817,
      "submarine": 3818,
      "submarines": 3819,
      "counter": 3820,
      "target": 3821,
      "increasingly": 3822,
      "ferdin": 3823,
      "commented": 3824,
      "favorite": 3825,
      "substit": 3826,
      "physical": 3827,
      "treasury": 3828,
      "details": 3829,
      "captured": 3830,
      "celeb": 3831,
      "demonstr": 3832,
      "respectively": 3833,
      "memorial": 3834,
      "ultimately": 3835,
      "ceremony": 3836,
      "launched": 3837,
      "complex": 3838,
      "entrance": 3839,
      "sippy": 3840,
      "ferdinand": 3841,
      "33": 3842,
      "86": 3843,
      "bre": 3844,
      "bab": 3845,
      "cit": 3846,
      "cand": 3847,
      "cited": 3848,
      "cause": 3849,
      "drew": 3850,
      "fal": 3851,
      "fear": 3852,
      "gran": 3853,
      "hin": 3854,
      "hot": 3855,
      "hair": 3856,
      "lu": 3857,
      "leng": 3858,
      "layer": 3859,
      "losing": 3860,
      "mol": 3861,
      "mary": 3862,
      "mob": 3863,
      "nash": 3864,
      "oro": 3865,
      "oil": 3866,
      "overs": 3867,
      "rom": 3868,
      "sar": 3869,
      "says": 3870,
      "wy": 3871,
      "wear": 3872,
      "wiz": 3873,
      "watch": 3874,
      "your": 3875,
      "##och": 3876,
      "##za": 3877,
      "##zco": 3878,
      "##kn": 3879,
      "##iations": 3880,
      "##ipped": 3881,
      "##men": 3882,
      "##mates": 3883,
      "##cil": 3884,
      "##vis": 3885,
      "##bor": 3886,
      "##fall": 3887,
      "##inity": 3888,
      "inn": 3889,
      "##itz": 3890,
      "##aly": 3891,
      "##ama": 3892,
      "ones": 3893,
      "##uri": 3894,
      "rear": 3895,
      "reign": 3896,
      "##ivity": 3897,
      "##idents": 3898,
      "##ayed": 3899,
      "concept": 3900,
      "##osp": 3901,
      "deep": 3902,
      "##ession": 3903,
      "arres": 3904,
      "##ription": 3905,
      "##ateur": 3906,
      "unc": 3907,
      "unique": 3908,
      "##aked": 3909,
      "recre": 3910,
      "noting": 3911,
      "enem": 3912,
      "cloth": 3913,
      "##eller": 3914,
      "twice": 3915,
      "bob": 3916,
      "ability": 3917,
      "amateur": 3918,
      "carry": 3919,
      "images": 3920,
      "disp": 3921,
      "display": 3922,
      "usually": 3923,
      "musical": 3924,
      "finish": 3925,
      "flights": 3926,
      "prepar": 3927,
      "whether": 3928,
      "retirement": 3929,
      "accomp": 3930,
      "accompl": 3931,
      "sched": 3932,
      "maat": 3933,
      "maria": 3934,
      "stars": 3935,
      "brother": 3936,
      "singer": 3937,
      "defensive": 3938,
      "doing": 3939,
      "1914": 3940,
      "invasion": 3941,
      "1942": 3942,
      "value": 3943,
      "transfer": 3944,
      "classic": 3945,
      "brig": 3946,
      "create": 3947,
      "publication": 3948,
      "ordn": 3949,
      "1926": 3950,
      "1937": 3951,
      "designated": 3952,
      "settle": 3953,
      "collection": 3954,
      "quest": 3955,
      "district": 3956,
      "1954": 3957,
      "organized": 3958,
      "organization": 3959,
      "patron": 3960,
      "##rising": 3961,
      "performing": 3962,
      "concent": 3963,
      "contrast": 3964,
      "typically": 3965,
      "provide": 3966,
      "##ervation": 3967,
      "sales": 3968,
      "goalt": 3969,
      "museums": 3970,
      "pressure": 3971,
      "landing": 3972,
      "swallow": 3973,
      "complete": 3974,
      "magic": 3975,
      "presented": 3976,
      "1861": 3977,
      "covered": 3978,
      "farm": 3979,
      "##aught": 3980,
      "victory": 3981,
      "italy": 3982,
      "tombs": 3983,
      "panel": 3984,
      "losses": 3985,
      "refused": 3986,
      "purposes": 3987,
      "words": 3988,
      "thaksin": 3989,
      "astrae": 3990,
      "ranked": 3991,
      "george": 3992,
      "literature": 3993,
      "elephanta": 3994,
      "reduced": 3995,
      "concerned": 3996,
      "screen": 3997,
      "necessary": 3998,
      "environmental": 3999,
      "kept": 4000,
      "nazi": 4001,
      "newspaper": 4002,
      "nuclear": 4003,
      "taxon": 4004,
      "floor": 4005,
      "prepared": 4006,
      "dream": 4007,
      "concluded": 4008,
      "immediately": 4009,
      "##roscopic": 4010,
      "document": 4011,
      "surrender": 4012,
      "bottom": 4013,
      "branch": 4014,
      "mumbai": 4015,
      "length": 4016,
      "orozco": 4017,
      "wizards": 4018,
      "accompan": 4019,
      "39": 4020,
      "400": 4021,
      "cens": 4022,
      "croy": 4023,
      "dail": 4024,
      "drum": 4025,
      "dread": 4026,
      "fres": 4027,
      "fully": 4028,
      "greek": 4029,
      "hu": 4030,
      "jar": 4031,
      "kh": 4032,
      "kit": 4033,
      "kurst": 4034,
      "lay": 4035,
      "lot": 4036,
      "los": 4037,
      "mir": 4038,
      "mut": 4039,
      "mand": 4040,
      "mart": 4041,
      "om": 4042,
      "pist": 4043,
      "say": 4044,
      "selling": 4045,
      "saint": 4046,
      "sector": 4047,
      "tv": 4048,
      "wat": 4049,
      "##aud": 4050,
      "##ries": 4051,
      "##mun": 4052,
      "##hist": 4053,
      "##head": 4054,
      "##lec": 4055,
      "##back": 4056,
      "##gar": 4057,
      "##jo": 4058,
      "thr": 4059,
      "##ino": 4060,
      "##ini": 4061,
      "##inated": 4062,
      "inner": 4063,
      "##itor": 4064,
      "##road": 4065,
      "##rec": 4066,
      "##theless": 4067,
      "forward": 4068,
      "stib": 4069,
      "reform": 4070,
      "##lement": 4071,
      "sha": 4072,
      "share": 4073,
      "##erse": 4074,
      "##ump": 4075,
      "isis": 4076,
      "##osph": 4077,
      "seas": 4078,
      "coming": 4079,
      "sund": 4080,
      "##rie": 4081,
      "##iff": 4082,
      "leaving": 4083,
      "##illery": 4084,
      "##abled": 4085,
      "##aker": 4086,
      "spir": 4087,
      "spect": 4088,
      "spread": 4089,
      "##overs": 4090,
      "note": 4091,
      "enl": 4092,
      "feast": 4093,
      "relief": 4094,
      "contemp": 4095,
      "2016": 4096,
      "appar": 4097,
      "disapp": 4098,
      "##izations": 4099,
      "means": 4100,
      "serious": 4101,
      "prec": 4102,
      "regul": 4103,
      "register": 4104,
      "cool": 4105,
      "includes": 4106,
      "highl": 4107,
      "noise": 4108,
      "something": 4109,
      "accept": 4110,
      "##awa": 4111,
      "##icks": 4112,
      "emb": 4113,
      "whereas": 4114,
      "artillery": 4115,
      "elimin": 4116,
      "expected": 4117,
      "valid": 4118,
      "market": 4119,
      "classes": 4120,
      "gram": 4121,
      "reception": 4122,
      "nearby": 4123,
      "prevent": 4124,
      "glob": 4125,
      "skull": 4126,
      "funer": 4127,
      "largest": 4128,
      "types": 4129,
      "telec": 4130,
      "passing": 4131,
      "##shire": 4132,
      "jackson": 4133,
      "joint": 4134,
      "institutions": 4135,
      "observed": 4136,
      "lowe": 4137,
      "purs": 4138,
      "1961": 4139,
      "battlec": 4140,
      "equip": 4141,
      "titled": 4142,
      "elections": 4143,
      "individual": 4144,
      "stationed": 4145,
      "strike": 4146,
      "sulfide": 4147,
      "applied": 4148,
      "average": 4149,
      "village": 4150,
      "penal": 4151,
      "rhode": 4152,
      "commissioned": 4153,
      "multiple": 4154,
      "specimens": 4155,
      "permitted": 4156,
      "instruments": 4157,
      "cycl": 4158,
      "defeat": 4159,
      "warsaw": 4160,
      "cabral": 4161,
      "julian": 4162,
      "examples": 4163,
      "participated": 4164,
      "establishment": 4165,
      "current": 4166,
      "economic": 4167,
      "quarter": 4168,
      "teachers": 4169,
      "dedicated": 4170,
      "semi": 4171,
      "dictator": 4172,
      "jeff": 4173,
      "flooding": 4174,
      "surface": 4175,
      "benef": 4176,
      "daughter": 4177,
      "susp": 4178,
      "pennsylvania": 4179,
      "drama": 4180,
      "henry": 4181,
      "reinfor": 4182,
      "chairman": 4183,
      "herself": 4184,
      "agricult": 4185,
      "citiz": 4186,
      "candid": 4187,
      "ordnance": 4188,
      "goaltender": 4189,
      "astraeus": 4190,
      "croydon": 4191,
      "daily": 4192,
      "kurstin": 4193,
      "battlecru": 4194,
      "37": 4195,
      "48": 4196,
      "az": 4197,
      "ba": 4198,
      "bond": 4199,
      "bone": 4200,
      "cot": 4201,
      "cust": 4202,
      "dah": 4203,
      "fred": 4204,
      "faced": 4205,
      "hip": 4206,
      "hous": 4207,
      "hang": 4208,
      "jose": 4209,
      "lou": 4210,
      "lie": 4211,
      "mason": 4212,
      "mouth": 4213,
      "ni": 4214,
      "pound": 4215,
      "peter": 4216,
      "paint": 4217,
      "ppg": 4218,
      "rod": 4219,
      "sought": 4220,
      "tess": 4221,
      "tun": 4222,
      "tell": 4223,
      "tade": 4224,
      "von": 4225,
      "wr": 4226,
      "wound": 4227,
      "ways": 4228,
      "ye": 4229,
      "##aur": 4230,
      "##tic": 4231,
      "##ties": 4232,
      "##oen": 4233,
      "##oba": 4234,
      "##sky": 4235,
      "##ror": 4236,
      "##ridge": 4237,
      "##uel": 4238,
      "##cel": 4239,
      "##vement": 4240,
      "##hi": 4241,
      "##haps": 4242,
      "##ls": 4243,
      "##laim": 4244,
      "##bes": 4245,
      "##break": 4246,
      "##ja": 4247,
      "##onium": 4248,
      "##atus": 4249,
      "##atives": 4250,
      "inh": 4251,
      "##ena": 4252,
      "##itation": 4253,
      "##itable": 4254,
      "##ales": 4255,
      "tom": 4256,
      "touring": 4257,
      "##icz": 4258,
      "##olia": 4259,
      "##aded": 4260,
      "##omy": 4261,
      "##ette": 4262,
      "foreign": 4263,
      "stating": 4264,
      "really": 4265,
      "##chan": 4266,
      "##ota": 4267,
      "##otte": 4268,
      "conce": 4269,
      "chris": 4270,
      "##vert": 4271,
      "##cend": 4272,
      "##ands": 4273,
      "seg": 4274,
      "deg": 4275,
      "deemed": 4276,
      "arrang": 4277,
      "plot": 4278,
      "##rial": 4279,
      "orland": 4280,
      "leave": 4281,
      "legal": 4282,
      "##abit": 4283,
      "spore": 4284,
      "sports": 4285,
      "rect": 4286,
      "##ude": 4287,
      "areas": 4288,
      "clock": 4289,
      "2000": 4290,
      "perhaps": 4291,
      "script": 4292,
      "amb": 4293,
      "amend": 4294,
      "##enders": 4295,
      "agency": 4296,
      "offs": 4297,
      "##ffic": 4298,
      "flint": 4299,
      "fletch": 4300,
      "actually": 4301,
      "assists": 4302,
      "basic": 4303,
      "attr": 4304,
      "##eeper": 4305,
      "acid": 4306,
      "acts": 4307,
      "seconds": 4308,
      "mah": 4309,
      "phoen": 4310,
      "longer": 4311,
      "##terson": 4312,
      "peace": 4313,
      "northeast": 4314,
      "suppl": 4315,
      "parish": 4316,
      "1913": 4317,
      "1915": 4318,
      "description": 4319,
      "bring": 4320,
      "grant": 4321,
      "golden": 4322,
      "publications": 4323,
      "returning": 4324,
      "constit": 4325,
      "portico": 4326,
      "ideas": 4327,
      "thirty": 4328,
      "morning": 4329,
      "hyd": 4330,
      "serving": 4331,
      "deliv": 4332,
      "patrick": 4333,
      "patterson": 4334,
      "extended": 4335,
      "effects": 4336,
      "oppos": 4337,
      "salary": 4338,
      "caliber": 4339,
      "restrict": 4340,
      "edm": 4341,
      "behav": 4342,
      "billion": 4343,
      "debuted": 4344,
      "visited": 4345,
      "primarily": 4346,
      "involving": 4347,
      "academic": 4348,
      "sense": 4349,
      "memory": 4350,
      "straight": 4351,
      "experience": 4352,
      "historic": 4353,
      "progress": 4354,
      "successfully": 4355,
      "violence": 4356,
      "richard": 4357,
      "improved": 4358,
      "hosted": 4359,
      "turk": 4360,
      "meaning": 4361,
      "fruitbod": 4362,
      "pieces": 4363,
      "declared": 4364,
      "russian": 4365,
      "credited": 4366,
      "powered": 4367,
      "quality": 4368,
      "changed": 4369,
      "arrived": 4370,
      "elephant": 4371,
      "camera": 4372,
      "daniel": 4373,
      "depicts": 4374,
      "depicted": 4375,
      "chapel": 4376,
      "adapted": 4377,
      "microl": 4378,
      "threatened": 4379,
      "stanley": 4380,
      "converted": 4381,
      "property": 4382,
      "encour": 4383,
      "likely": 4384,
      "1849": 4385,
      "charlotte": 4386,
      "safety": 4387,
      "africa": 4388,
      "independent": 4389,
      "croatia": 4390,
      "birth": 4391,
      "japan": 4392,
      "library": 4393,
      "magnolia": 4394,
      "synthesis": 4395,
      "maskray": 4396,
      "narrative": 4397,
      "diameter": 4398,
      "murder": 4399,
      "empire": 4400,
      "experienced": 4401,
      "airfields": 4402,
      "angeles": 4403,
      "hindu": 4404,
      "contemporary": 4405,
      "equipment": 4406,
      "tadeusz": 4407,
      "orlando": 4408,
      "phoenix": 4409,
      "32": 4410,
      "47": 4411,
      "41": 4412,
      "54": 4413,
      "52": 4414,
      "94": 4415,
      "ber": 4416,
      "bor": 4417,
      "bach": 4418,
      "bang": 4419,
      "card": 4420,
      "dor": 4421,
      "dry": 4422,
      "data": 4423,
      "dhar": 4424,
      "fat": 4425,
      "fing": 4426,
      "fill": 4427,
      "ha": 4428,
      "jam": 4429,
      "lin": 4430,
      "lives": 4431,
      "mes": 4432,
      "mcc": 4433,
      "nick": 4434,
      "peng": 4435,
      "pigg": 4436,
      "rud": 4437,
      "rough": 4438,
      "rights": 4439,
      "sand": 4440,
      "sri": 4441,
      "sort": 4442,
      "section": 4443,
      "##tar": 4444,
      "##oard": 4445,
      "##oys": 4446,
      "##wall": 4447,
      "##kov": 4448,
      "##rd": 4449,
      "##rical": 4450,
      "##uf": 4451,
      "##uing": 4452,
      "##cock": 4453,
      "##haw": 4454,
      "##lor": 4455,
      "##ban": 4456,
      "##ging": 4457,
      "##gth": 4458,
      "thous": 4459,
      "##onents": 4460,
      "##orpor": 4461,
      "##ita": 4462,
      "##itage": 4463,
      "##ancial": 4464,
      "##asc": 4465,
      "##rets": 4466,
      "##elly": 4467,
      "##struction": 4468,
      "##omers": 4469,
      "stren": 4470,
      "##imer": 4471,
      "##otes": 4472,
      "anup": 4473,
      "shared": 4474,
      "shells": 4475,
      "shape": 4476,
      "shaped": 4477,
      "##ula": 4478,
      "##ults": 4479,
      "congress": 4480,
      "cha": 4481,
      "##agn": 4482,
      "sequ": 4483,
      "20th": 4484,
      "proved": 4485,
      "##ocated": 4486,
      "##esty": 4487,
      "##rif": 4488,
      "##riage": 4489,
      "orb": 4490,
      "unus": 4491,
      "##aken": 4492,
      "##pton": 4493,
      "##antly": 4494,
      "heritage": 4495,
      "scale": 4496,
      "scope": 4497,
      "scenes": 4498,
      "containing": 4499,
      "aband": 4500,
      "##clus": 4501,
      "mane": 4502,
      "manif": 4503,
      "managed": 4504,
      "amount": 4505,
      "appeal": 4506,
      "resemb": 4507,
      "##ounted": 4508,
      "imper": 4509,
      "##oked": 4510,
      "repe": 4511,
      "becomes": 4512,
      "partly": 4513,
      "meh": 4514,
      "finishing": 4515,
      "financial": 4516,
      "security": 4517,
      "overt": 4518,
      "flor": 4519,
      "underne": 4520,
      "ministry": 4521,
      "anton": 4522,
      "remix": 4523,
      "inters": 4524,
      "charge": 4525,
      "acclaim": 4526,
      "##onym": 4527,
      "therefore": 4528,
      "substr": 4529,
      "phara": 4530,
      "winner": 4531,
      "emmy": 4532,
      "musician": 4533,
      "colon": 4534,
      "supply": 4535,
      "##ledge": 4536,
      "job": 4537,
      "1987": 4538,
      "guest": 4539,
      "1910": 4540,
      "invest": 4541,
      "movement": 4542,
      "location": 4543,
      "mainly": 4544,
      "calling": 4545,
      "1920": 4546,
      "1930": 4547,
      "sett": 4548,
      "demons": 4549,
      "posted": 4550,
      "steve": 4551,
      "famil": 4552,
      "greatly": 4553,
      "glass": 4554,
      "gliding": 4555,
      "mission": 4556,
      "missions": 4557,
      "1952": 4558,
      "easa": 4559,
      "skill": 4560,
      "sketch": 4561,
      "extra": 4562,
      "extensive": 4563,
      "1975": 4564,
      "function": 4565,
      "traded": 4566,
      "lightning": 4567,
      "advance": 4568,
      "protest": 4569,
      "1862": 4570,
      "statute": 4571,
      "authority": 4572,
      "importance": 4573,
      "nevertheless": 4574,
      "levels": 4575,
      "cruisers": 4576,
      "takes": 4577,
      "denomin": 4578,
      "##ivalent": 4579,
      "facilities": 4580,
      "connected": 4581,
      "creating": 4582,
      "buried": 4583,
      "observations": 4584,
      "turrets": 4585,
      "meanwh": 4586,
      "recognized": 4587,
      "nominated": 4588,
      "nominations": 4589,
      "declined": 4590,
      "officials": 4591,
      "results": 4592,
      "animal": 4593,
      "employed": 4594,
      "bombard": 4595,
      "unlike": 4596,
      "journalists": 4597,
      "licens": 4598,
      "palin": 4599,
      "remainder": 4600,
      "dutch": 4601,
      "widely": 4602,
      "absence": 4603,
      "conditions": 4604,
      "adapt": 4605,
      "premi": 4606,
      "responsible": 4607,
      "separate": 4608,
      "network": 4609,
      "ess": 4610,
      "mortimer": 4611,
      "vessels": 4612,
      "washington": 4613,
      "sculpture": 4614,
      "ign": 4615,
      "adopted": 4616,
      "victoria": 4617,
      "entertainment": 4618,
      "brief": 4619,
      "festival": 4620,
      "mysore": 4621,
      "picture": 4622,
      "seventeenth": 4623,
      "##urti": 4624,
      "earthstar": 4625,
      "arrested": 4626,
      "dreadn": 4627,
      "penalty": 4628,
      "tessa": 4629,
      "fletcher": 4630,
      "pengu": 4631,
      "piggott": 4632,
      "strength": 4633,
      "underneath": 4634,
      "meanwhile": 4635,
      "69": 4636,
      "64": 4637,
      "77": 4638,
      "ak": 4639,
      "bon": 4640,
      "bones": 4641,
      "cu": 4642,
      "cart": 4643,
      "crow": 4644,
      "dv": 4645,
      "dies": 4646,
      "dru": 4647,
      "eth": 4648,
      "gulf": 4649,
      "ham": 4650,
      "homes": 4651,
      "hosp": 4652,
      "iv": 4653,
      "jon": 4654,
      "jac": 4655,
      "ka": 4656,
      "ko": 4657,
      "kent": 4658,
      "kras": 4659,
      "log": 4660,
      "lect": 4661,
      "lane": 4662,
      "lasted": 4663,
      "mis": 4664,
      "mound": 4665,
      "mph": 4666,
      "native": 4667,
      "pac": 4668,
      "ros": 4669,
      "rail": 4670,
      "riding": 4671,
      "sir": 4672,
      "sons": 4673,
      "trou": 4674,
      "vic": 4675,
      "vaud": 4676,
      "##tv": 4677,
      "##eth": 4678,
      "##wise": 4679,
      "##worth": 4680,
      "##kan": 4681,
      "##kins": 4682,
      "##nel": 4683,
      "##mer": 4684,
      "##mes": 4685,
      "##bed": 4686,
      "##gia": 4687,
      "theater": 4688,
      "##erted": 4689,
      "##inist": 4690,
      "##arted": 4691,
      "##itan": 4692,
      "##aled": 4693,
      "##isions": 4694,
      "tourn": 4695,
      "##rox": 4696,
      "stal": 4697,
      "store": 4698,
      "##iris": 4699,
      "##iration": 4700,
      "asian": 4701,
      "rend": 4702,
      "##imm": 4703,
      "##ida": 4704,
      "##aykov": 4705,
      "anch": 4706,
      "sho": 4707,
      "shut": 4708,
      "shore": 4709,
      "height": 4710,
      "chann": 4711,
      "chamb": 4712,
      "chaykov": 4713,
      "##osh": 4714,
      "##aver": 4715,
      "##ception": 4716,
      "##ung": 4717,
      "##ighter": 4718,
      "orn": 4719,
      "exec": 4720,
      "##opy": 4721,
      "##sey": 4722,
      "##illance": 4723,
      "trust": 4724,
      "sport": 4725,
      "recent": 4726,
      "recover": 4727,
      "recomm": 4728,
      "##apers": 4729,
      "##oster": 4730,
      "prison": 4731,
      "##ruption": 4732,
      "twin": 4733,
      "##antry": 4734,
      "worth": 4735,
      "percent": 4736,
      "score": 4737,
      "##ightly": 4738,
      "advert": 4739,
      "content": 4740,
      "boy": 4741,
      "boys": 4742,
      "care": 4743,
      "carter": 4744,
      "carved": 4745,
      "##ends": 4746,
      "aggress": 4747,
      "##ocked": 4748,
      "displ": 4749,
      "filmm": 4750,
      "filmed": 4751,
      "upd": 4752,
      "earn": 4753,
      "flank": 4754,
      "actors": 4755,
      "composed": 4756,
      "assumed": 4757,
      "outstanding": 4758,
      "##resp": 4759,
      "buck": 4760,
      "rob": 4761,
      "accused": 4762,
      "armored": 4763,
      "marriage": 4764,
      "musicians": 4765,
      "depos": 4766,
      "starred": 4767,
      "broke": 4768,
      "northw": 4769,
      "object": 4770,
      "obtained": 4771,
      "exped": 4772,
      "loyal": 4773,
      "promisc": 4774,
      "incorpor": 4775,
      "valley": 4776,
      "##ifications": 4777,
      "directors": 4778,
      "1923": 4779,
      "1925": 4780,
      "##anka": 4781,
      "1931": 4782,
      "##veillance": 4783,
      "collected": 4784,
      "continues": 4785,
      "simp": 4786,
      "step": 4787,
      "steam": 4788,
      "represents": 4789,
      "anything": 4790,
      "toward": 4791,
      "distingu": 4792,
      "famous": 4793,
      "willing": 4794,
      "morrison": 4795,
      "videos": 4796,
      "organizations": 4797,
      "model": 4798,
      "trip": 4799,
      "##cont": 4800,
      "passeng": 4801,
      "confir": 4802,
      "corps": 4803,
      "ukrain": 4804,
      "##inking": 4805,
      "##annah": 4806,
      "styles": 4807,
      "request": 4808,
      "circle": 4809,
      "similarly": 4810,
      "equivalent": 4811,
      "historian": 4812,
      "criticism": 4813,
      "paid": 4814,
      "holds": 4815,
      "holding": 4816,
      "relationships": 4817,
      "subsequent": 4818,
      "traffic": 4819,
      "crown": 4820,
      "honor": 4821,
      "neck": 4822,
      "shrines": 4823,
      "rule": 4824,
      "attempts": 4825,
      "significantly": 4826,
      "getting": 4827,
      "rhy": 4828,
      "scholar": 4829,
      "duo": 4830,
      "existing": 4831,
      "existence": 4832,
      "technical": 4833,
      "goddesses": 4834,
      "guardian": 4835,
      "looking": 4836,
      "machine": 4837,
      "changes": 4838,
      "licence": 4839,
      "meeting": 4840,
      "practices": 4841,
      "knowledge": 4842,
      "reasons": 4843,
      "karl": 4844,
      "##nyi": 4845,
      "achieved": 4846,
      "cornwall": 4847,
      "rapid": 4848,
      "leonard": 4849,
      "repaired": 4850,
      "depicting": 4851,
      "batteries": 4852,
      "cinema": 4853,
      "fighting": 4854,
      "jerzy": 4855,
      "purchased": 4856,
      "source": 4857,
      "challeng": 4858,
      "consisting": 4859,
      "osiris": 4860,
      "problems": 4861,
      "bollywood": 4862,
      "queen": 4863,
      "rangers": 4864,
      "savannah": 4865,
      "wreck": 4866,
      "corey": 4867,
      "fixed": 4868,
      "nameless": 4869,
      "mentioned": 4870,
      "opinion": 4871,
      "confederate": 4872,
      "settlement": 4873,
      "grammy": 4874,
      "fruitbodies": 4875,
      "bachchan": 4876,
      "dharm": 4877,
      "unusual": 4878,
      "manifest": 4879,
      "investig": 4880,
      "penguins": 4881,
      "hospital": 4882,
      "vaudev": 4883,
      "chaykovsky": 4884,
      "1st": 4885,
      "43": 4886,
      "51": 4887,
      "800": 4888,
      "bra": 4889,
      "brist": 4890,
      "cav": 4891,
      "cub": 4892,
      "dark": 4893,
      "dating": 4894,
      "eag": 4895,
      "fate": 4896,
      "fab": 4897,
      "gard": 4898,
      "gust": 4899,
      "gang": 4900,
      "gather": 4901,
      "hay": 4902,
      "hart": 4903,
      "hier": 4904,
      "icon": 4905,
      "ken": 4906,
      "kal": 4907,
      "mec": 4908,
      "mess": 4909,
      "mine": 4910,
      "mike": 4911,
      "na": 4912,
      "nut": 4913,
      "nha": 4914,
      "ost": 4915,
      "oak": 4916,
      "pack": 4917,
      "path": 4918,
      "ron": 4919,
      "rat": 4920,
      "rate": 4921,
      "rick": 4922,
      "sell": 4923,
      "soph": 4924,
      "tort": 4925,
      "table": 4926,
      "ut": 4927,
      "vai": 4928,
      "voted": 4929,
      "voice": 4930,
      "yog": 4931,
      "zone": 4932,
      "µm": 4933,
      "##we": 4934,
      "##writ": 4935,
      "##wide": 4936,
      "##wick": 4937,
      "##ios": 4938,
      "##rid": 4939,
      "##rate": 4940,
      "##mond": 4941,
      "##uk": 4942,
      "##uit": 4943,
      "##uff": 4944,
      "##cast": 4945,
      "##ville": 4946,
      "##hood": 4947,
      "##lock": 4948,
      "##bras": 4949,
      "##ding": 4950,
      "##dney": 4951,
      "##gl": 4952,
      "##ger": 4953,
      "##gery": 4954,
      "##joy": 4955,
      "throw": 4956,
      "##erate": 4957,
      "##erick": 4958,
      "##orus": 4959,
      "##esco": 4960,
      "##ening": 4961,
      "tou": 4962,
      "##eland": 4963,
      "##iling": 4964,
      "##olved": 4965,
      "##thi": 4966,
      "##thm": 4967,
      "##oms": 4968,
      "##urb": 4969,
      "##urf": 4970,
      "##uries": 4971,
      "##eton": 4972,
      "##etts": 4973,
      "forest": 4974,
      "stable": 4975,
      "##acles": 4976,
      "##acement": 4977,
      "##aya": 4978,
      "##chest": 4979,
      "beaut": 4980,
      "ancon": 4981,
      "##owski": 4982,
      "shar": 4983,
      "shots": 4984,
      "##uten": 4985,
      "##umes": 4986,
      "##uls": 4987,
      "##ulate": 4988,
      "aten": 4989,
      "isol": 4990,
      "chest": 4991,
      "chance": 4992,
      "china": 4993,
      "choice": 4994,
      "##osel": 4995,
      "##agues": 4996,
      "seated": 4997,
      "##odes": 4998,
      "prosp": 4999,
      "arab": 5000,
      "##ighth": 5001,
      "exclus": 5002,
      "##ifying": 5003,
      "unkn": 5004,
      "unesco": 5005,
      "span": 5006,
      "recently": 5007,
      "recalled": 5008,
      "##apt": 5009,
      "##iano": 5010,
      "pras": 5011,
      "notable": 5012,
      "enanti": 5013,
      "allies": 5014,
      "feel": 5015,
      "##astic": 5016,
      "##outing": 5017,
      "##quar": 5018,
      "##ustin": 5019,
      "adj": 5020,
      "contain": 5021,
      "manuf": 5022,
      "intention": 5023,
      "indicated": 5024,
      "resign": 5025,
      "resigned": 5026,
      "agre": 5027,
      "agustin": 5028,
      "disabled": 5029,
      "partial": 5030,
      "##ologies": 5031,
      "flame": 5032,
      "underw": 5033,
      "actor": 5034,
      "serve": 5035,
      "preced": 5036,
      "regulation": 5037,
      "minim": 5038,
      "minnes": 5039,
      "remarked": 5040,
      "themed": 5041,
      "attributed": 5042,
      "gameplay": 5043,
      "releases": 5044,
      "account": 5045,
      "produc": 5046,
      "producing": 5047,
      "knew": 5048,
      "scheer": 5049,
      "surgery": 5050,
      "winter": 5051,
      "instance": 5052,
      "smo": 5053,
      "deprec": 5054,
      "##ressing": 5055,
      "severe": 5056,
      "presence": 5057,
      "article": 5058,
      "defender": 5059,
      "else": 5060,
      "election": 5061,
      "doct": 5062,
      "1917": 5063,
      "1919": 5064,
      "expanded": 5065,
      "##teenth": 5066,
      "movie": 5067,
      "webs": 5068,
      "appearing": 5069,
      "brand": 5070,
      "founded": 5071,
      "foundation": 5072,
      "capable": 5073,
      "1920s": 5074,
      "##ierz": 5075,
      "setting": 5076,
      "portug": 5077,
      "planet": 5078,
      "raf": 5079,
      "##uese": 5080,
      "democr": 5081,
      "steph": 5082,
      "buildings": 5083,
      "occas": 5084,
      "distribution": 5085,
      "respond": 5086,
      "personnel": 5087,
      "didn": 5088,
      "powerful": 5089,
      "commanding": 5090,
      "representing": 5091,
      "additionally": 5092,
      "1950": 5093,
      "organised": 5094,
      "universe": 5095,
      "skin": 5096,
      "1973": 5097,
      "1970s": 5098,
      "concert": 5099,
      "trials": 5100,
      "##ussion": 5101,
      "corresp": 5102,
      "suggests": 5103,
      "reactor": 5104,
      "older": 5105,
      "visual": 5106,
      "statistics": 5107,
      "turns": 5108,
      "resulting": 5109,
      "circum": 5110,
      "convers": 5111,
      "##oxide": 5112,
      "profession": 5113,
      "certified": 5114,
      "senators": 5115,
      "toront": 5116,
      "crime": 5117,
      "crash": 5118,
      "soviets": 5119,
      "administ": 5120,
      "criticised": 5121,
      "denied": 5122,
      "poe": 5123,
      "titles": 5124,
      "destroyers": 5125,
      "speaking": 5126,
      "sanford": 5127,
      "attacks": 5128,
      "everything": 5129,
      "industrial": 5130,
      "hoped": 5131,
      "averaged": 5132,
      "blockade": 5133,
      "narrow": 5134,
      "animals": 5135,
      "territories": 5136,
      "council": 5137,
      "closely": 5138,
      "myths": 5139,
      "diagn": 5140,
      "opportunity": 5141,
      "sacred": 5142,
      "renamed": 5143,
      "rifle": 5144,
      "rifles": 5145,
      "collaboration": 5146,
      "melod": 5147,
      "measure": 5148,
      "suggesting": 5149,
      "tonnes": 5150,
      "maximum": 5151,
      "blend": 5152,
      "budget": 5153,
      "emerged": 5154,
      "rarely": 5155,
      "reaching": 5156,
      "rainfall": 5157,
      "rejected": 5158,
      "chemical": 5159,
      "ninth": 5160,
      "interaction": 5161,
      "weapons": 5162,
      "rumors": 5163,
      "proceeded": 5164,
      "extreme": 5165,
      "mandatory": 5166,
      "telecom": 5167,
      "citizens": 5168,
      "candidate": 5169,
      "frederick": 5170,
      "lieuten": 5171,
      "fingal": 5172,
      "imperial": 5173,
      "pharaoh": 5174,
      "denomination": 5175,
      "krasnyi": 5176,
      "channel": 5177,
      "update": 5178,
      "promiscuous": 5179,
      "bristol": 5180,
      "mechan": 5181,
      "ancona": 5182,
      "manufact": 5183,
      "minnesota": 5184,
      "portuguese": 5185,
      "correspond": 5186,
      "toronto": 5187,
      "00": 5188,
      "57": 5189,
      "56": 5190,
      "62": 5191,
      "79": 5192,
      "71": 5193,
      "92": 5194,
      "aa": 5195,
      "aid": 5196,
      "axis": 5197,
      "big": 5198,
      "bron": 5199,
      "bann": 5200,
      "bbc": 5201,
      "citing": 5202,
      "cns": 5203,
      "dyn": 5204,
      "hann": 5205,
      "kum": 5206,
      "ling": 5207,
      "lived": 5208,
      "liber": 5209,
      "m1": 5210,
      "mun": 5211,
      "map": 5212,
      "mile": 5213,
      "mck": 5214,
      "mounts": 5215,
      "nights": 5216,
      "oly": 5217,
      "option": 5218,
      "ott": 5219,
      "pit": 5220,
      "rac": 5221,
      "rid": 5222,
      "rub": 5223,
      "rose": 5224,
      "rise": 5225,
      "rival": 5226,
      "rush": 5227,
      "sad": 5228,
      "tat": 5229,
      "tas": 5230,
      "tip": 5231,
      "trop": 5232,
      "ve": 5233,
      "vac": 5234,
      "vision": 5235,
      "vatic": 5236,
      "wis": 5237,
      "zilt": 5238,
      "##eals": 5239,
      "##wis": 5240,
      "##well": 5241,
      "##wards": 5242,
      "##kes": 5243,
      "##kok": 5244,
      "##ias": 5245,
      "##more": 5246,
      "##ux": 5247,
      "##uth": 5248,
      "##cz": 5249,
      "##hold": 5250,
      "##bee": 5251,
      "##bled": 5252,
      "##pr": 5253,
      "##pective": 5254,
      "##gin": 5255,
      "##fan": 5256,
      "##fare": 5257,
      "##jee": 5258,
      "thing": 5259,
      "##erry": 5260,
      "##ergy": 5261,
      "##erve": 5262,
      "##inum": 5263,
      "##insey": 5264,
      "##ora": 5265,
      "##orm": 5266,
      "##orter": 5267,
      "##arn": 5268,
      "##isław": 5269,
      "##icted": 5270,
      "##icop": 5271,
      "##icide": 5272,
      "##ications": 5273,
      "##rovers": 5274,
      "##rel": 5275,
      "##outs": 5276,
      "##ece": 5277,
      "##ston": 5278,
      "##stained": 5279,
      "##ete": 5280,
      "forty": 5281,
      "stop": 5282,
      "strict": 5283,
      "aside": 5284,
      "rever": 5285,
      "alone": 5286,
      "alex": 5287,
      "##imurti": 5288,
      "##idation": 5289,
      "##tery": 5290,
      "beach": 5291,
      "shin": 5292,
      "heart": 5293,
      "##uts": 5294,
      "##uting": 5295,
      "##umber": 5296,
      "##usetts": 5297,
      "##avk": 5298,
      "##aine": 5299,
      "seat": 5300,
      "comes": 5301,
      "sustained": 5302,
      "items": 5303,
      "arts": 5304,
      "arih": 5305,
      "##ctions": 5306,
      "nebras": 5307,
      "##ighted": 5308,
      "executive": 5309,
      "lewis": 5310,
      "##iller": 5311,
      "unable": 5312,
      "trinsey": 5313,
      "trimurti": 5314,
      "spons": 5315,
      "recru": 5316,
      "##ogie": 5317,
      "prime": 5318,
      "##ovil": 5319,
      "relatively": 5320,
      "perc": 5321,
      "##achan": 5322,
      "##achusetts": 5323,
      "contact": 5324,
      "controvers": 5325,
      "boats": 5326,
      "boogie": 5327,
      "##clad": 5328,
      "##clusion": 5329,
      "amy": 5330,
      "amid": 5331,
      "ammun": 5332,
      "carving": 5333,
      "##endra": 5334,
      "resc": 5335,
      "resist": 5336,
      "agent": 5337,
      "offensive": 5338,
      "imm": 5339,
      "##oke": 5340,
      "##okes": 5341,
      "##ologist": 5342,
      "flat": 5343,
      "flag": 5344,
      "undert": 5345,
      "decade": 5346,
      "decades": 5347,
      "prehist": 5348,
      "regions": 5349,
      "compar": 5350,
      "evans": 5351,
      "assa": 5352,
      "remember": 5353,
      "interested": 5354,
      "interpre": 5355,
      "outbreak": 5356,
      "monitors": 5357,
      "consp": 5358,
      "consists": 5359,
      "somewh": 5360,
      "ends": 5361,
      "roots": 5362,
      "knots": 5363,
      "revers": 5364,
      "subcont": 5365,
      "##away": 5366,
      "implement": 5367,
      "centre": 5368,
      "numerous": 5369,
      "surveillance": 5370,
      "longest": 5371,
      "peaked": 5372,
      "brothers": 5373,
      "defence": 5374,
      "defens": 5375,
      "joe": 5376,
      "##ropri": 5377,
      "guid": 5378,
      "student": 5379,
      "expos": 5380,
      "engr": 5381,
      "slightly": 5382,
      "moving": 5383,
      "brut": 5384,
      "cape": 5385,
      "1924": 5386,
      "1938": 5387,
      "1936": 5388,
      "##ismo": 5389,
      "barr": 5390,
      "stefan": 5391,
      "heads": 5392,
      "headquar": 5393,
      "distance": 5394,
      "strachan": 5395,
      "countries": 5396,
      "differences": 5397,
      "1950s": 5398,
      "serves": 5399,
      "helicop": 5400,
      "geopy": 5401,
      "deleg": 5402,
      "easter": 5403,
      "1976": 5404,
      "evening": 5405,
      "efforts": 5406,
      "positions": 5407,
      "entry": 5408,
      "runs": 5409,
      "salv": 5410,
      "confront": 5411,
      "corpor": 5412,
      "protests": 5413,
      "aerial": 5414,
      "completely": 5415,
      "institution": 5416,
      "politic": 5417,
      "politics": 5418,
      "limit": 5419,
      "frame": 5420,
      "communities": 5421,
      "visitors": 5422,
      "laid": 5423,
      "replacement": 5424,
      "convin": 5425,
      "cataly": 5426,
      "prize": 5427,
      "select": 5428,
      "explained": 5429,
      "fifa": 5430,
      "oxford": 5431,
      "educational": 5432,
      "fairy": 5433,
      "comeback": 5434,
      "speech": 5435,
      "persu": 5436,
      "australian": 5437,
      "##works": 5438,
      "matter": 5439,
      "suffering": 5440,
      "broadway": 5441,
      "broadcast": 5442,
      "burial": 5443,
      "sonthi": 5444,
      "##apsed": 5445,
      "violent": 5446,
      "richmond": 5447,
      "application": 5448,
      "averaging": 5449,
      "massachusetts": 5450,
      "ironclad": 5451,
      "volume": 5452,
      "recognised": 5453,
      "nomination": 5454,
      "battleship": 5455,
      "rules": 5456,
      "conduct": 5457,
      "russia": 5458,
      "satisf": 5459,
      "reagent": 5460,
      "princ": 5461,
      "affair": 5462,
      "megalithic": 5463,
      "picked": 5464,
      "infantry": 5465,
      "coastal": 5466,
      "georgia": 5467,
      "difficulty": 5468,
      "powers": 5469,
      "##anese": 5470,
      "practice": 5471,
      "ensemble": 5472,
      "theaters": 5473,
      "argued": 5474,
      "absor": 5475,
      "collaborated": 5476,
      "burned": 5477,
      "faith": 5478,
      "travel": 5479,
      "architectural": 5480,
      "negot": 5481,
      "laboratory": 5482,
      "antiquaries": 5483,
      "irreg": 5484,
      "krakow": 5485,
      "letter": 5486,
      "african": 5487,
      "battery": 5488,
      "athlet": 5489,
      "baht": 5490,
      "ravana": 5491,
      "acquired": 5492,
      "glider": 5493,
      "gliders": 5494,
      "drawn": 5495,
      "withdraw": 5496,
      "assembled": 5497,
      "metallic": 5498,
      "definition": 5499,
      "graduated": 5500,
      "frequently": 5501,
      "odor": 5502,
      "tigers": 5503,
      "recreational": 5504,
      "enemy": 5505,
      "carrying": 5506,
      "schedul": 5507,
      "question": 5508,
      "enlisted": 5509,
      "globe": 5510,
      "benefit": 5511,
      "dahl": 5512,
      "louis": 5513,
      "yeovil": 5514,
      "degree": 5515,
      "arranged": 5516,
      "opposite": 5517,
      "edmund": 5518,
      "bangkok": 5519,
      "maneater": 5520,
      "florida": 5521,
      "families": 5522,
      "bombardment": 5523,
      "pacific": 5524,
      "chambers": 5525,
      "executed": 5526,
      "simply": 5527,
      "cornwallis": 5528,
      "dharmendra": 5529,
      "vaudeville": 5530,
      "unknown": 5531,
      "smooth": 5532,
      "website": 5533,
      "lieutenant": 5534,
      "kumar": 5535,
      "m18": 5536,
      "mckay": 5537,
      "olymp": 5538,
      "ziltoid": 5539,
      "arihant": 5540,
      "nebraska": 5541,
      "ammunition": 5542,
      "somewhat": 5543,
      "subcontinent": 5544,
      "geopyxis": 5545,
      "irregular": 5546,
      "3rd": 5547,
      "49": 5548,
      "53": 5549,
      "700": 5550,
      "84": 5551,
      "97": 5552,
      "91": 5553,
      "bed": 5554,
      "bound": 5555,
      "border": 5556,
      "cry": 5557,
      "cres": 5558,
      "cells": 5559,
      "dil": 5560,
      "dig": 5561,
      "dated": 5562,
      "dust": 5563,
      "dang": 5564,
      "ere": 5565,
      "eld": 5566,
      "eighth": 5567,
      "fish": 5568,
      "fought": 5569,
      "gas": 5570,
      "gained": 5571,
      "hits": 5572,
      "hyp": 5573,
      "hund": 5574,
      "ire": 5575,
      "jason": 5576,
      "kg": 5577,
      "kick": 5578,
      "kail": 5579,
      "kev": 5580,
      "kavk": 5581,
      "lem": 5582,
      "luc": 5583,
      "mall": 5584,
      "moth": 5585,
      "none": 5586,
      "oh": 5587,
      "oce": 5588,
      "ori": 5589,
      "outer": 5590,
      "por": 5591,
      "pill": 5592,
      "ports": 5593,
      "pett": 5594,
      "punch": 5595,
      "puck": 5596,
      "ring": 5597,
      "rig": 5598,
      "rural": 5599,
      "rash": 5600,
      "rca": 5601,
      "ucl": 5602,
      "vish": 5603,
      "wit": 5604,
      "yell": 5605,
      "##tra": 5606,
      "##taining": 5607,
      "##ska": 5608,
      "##wich": 5609,
      "##kin": 5610,
      "##nu": 5611,
      "##rest": 5612,
      "##rity": 5613,
      "##min": 5614,
      "##mon": 5615,
      "##mouth": 5616,
      "##uable": 5617,
      "##can": 5618,
      "##vara": 5619,
      "##vements": 5620,
      "##lav": 5621,
      "##lines": 5622,
      "##pts": 5623,
      "##ji": 5624,
      "##erg": 5625,
      "##eria": 5626,
      "##inary": 5627,
      "##inations": 5628,
      "##oral": 5629,
      "##oric": 5630,
      "##arthur": 5631,
      "##itas": 5632,
      "##itated": 5633,
      "##itled": 5634,
      "##ala": 5635,
      "tool": 5636,
      "##rot": 5637,
      "##rod": 5638,
      "##rog": 5639,
      "##oud": 5640,
      "##eline": 5641,
      "##ils": 5642,
      "##ecess": 5643,
      "##entially": 5644,
      "##sted": 5645,
      "##stit": 5646,
      "##station": 5647,
      "##stances": 5648,
      "##ading": 5649,
      "##omical": 5650,
      "##eted": 5651,
      "##aco": 5652,
      "##acle": 5653,
      "##irt": 5654,
      "asi": 5655,
      "asc": 5656,
      "whit": 5657,
      "reference": 5658,
      "##imierz": 5659,
      "##igall": 5660,
      "beings": 5661,
      "##otic": 5662,
      "##owa": 5663,
      "shop": 5664,
      "heard": 5665,
      "##uty": 5666,
      "##utional": 5667,
      "chose": 5668,
      "seems": 5669,
      "suicide": 5670,
      "proc": 5671,
      "##unt": 5672,
      "##unk": 5673,
      "exchange": 5674,
      "##iful": 5675,
      "##icherry": 5676,
      "##illing": 5677,
      "##abh": 5678,
      "unp": 5679,
      "uncon": 5680,
      "trained": 5681,
      "spl": 5682,
      "##uda": 5683,
      "##ogues": 5684,
      "##ips": 5685,
      "pries": 5686,
      "encl": 5687,
      "enjoy": 5688,
      "clim": 5689,
      "##rupt": 5690,
      "hero": 5691,
      "feeling": 5692,
      "playstation": 5693,
      "scr": 5694,
      "scot": 5695,
      "##ignment": 5696,
      "adult": 5697,
      "contrib": 5698,
      "contains": 5699,
      "contributed": 5700,
      "abilities": 5701,
      "abroad": 5702,
      "amaz": 5703,
      "intens": 5704,
      "commod": 5705,
      "indu": 5706,
      "aground": 5707,
      "text": 5708,
      "##okie": 5709,
      "disorder": 5710,
      "partially": 5711,
      "format": 5712,
      "formally": 5713,
      "blues": 5714,
      "coal": 5715,
      "basement": 5716,
      "remark": 5717,
      "interp": 5718,
      "aware": 5719,
      "1990s": 5720,
      "conservation": 5721,
      "##orship": 5722,
      "buy": 5723,
      "rookie": 5724,
      "fourteen": 5725,
      "knicks": 5726,
      "publish": 5727,
      "centuries": 5728,
      "soul": 5729,
      "##lands": 5730,
      "instruct": 5731,
      "##issed": 5732,
      "depth": 5733,
      "departed": 5734,
      "deputy": 5735,
      "follows": 5736,
      "severely": 5737,
      "direction": 5738,
      "leads": 5739,
      "signing": 5740,
      "worldwide": 5741,
      "defense": 5742,
      "variation": 5743,
      "divin": 5744,
      "diverse": 5745,
      "1982": 5746,
      "1980s": 5747,
      "1916": 5748,
      "1912": 5749,
      "1949": 5750,
      "1948": 5751,
      "1945": 5752,
      "valuable": 5753,
      "discip": 5754,
      "grade": 5755,
      "scorer": 5756,
      "receiving": 5757,
      "apart": 5758,
      "maintained": 5759,
      "owners": 5760,
      "1928": 5761,
      "##aha": 5762,
      "collections": 5763,
      "collapsed": 5764,
      "portion": 5765,
      "continental": 5766,
      "developing": 5767,
      "describing": 5768,
      "demol": 5769,
      "headed": 5770,
      "successor": 5771,
      "annular": 5772,
      "annex": 5773,
      "##arez": 5774,
      "gives": 5775,
      "weekend": 5776,
      "##hler": 5777,
      "universal": 5778,
      "universities": 5779,
      "deliber": 5780,
      "footage": 5781,
      "skel": 5782,
      "believe": 5783,
      "1972": 5784,
      "moderate": 5785,
      "opponents": 5786,
      "tried": 5787,
      "##othy": 5788,
      "periods": 5789,
      "youth": 5790,
      "##aneously": 5791,
      "confisc": 5792,
      "##booba": 5793,
      "protection": 5794,
      "bands": 5795,
      "sbf": 5796,
      "reactions": 5797,
      "status": 5798,
      "epox": 5799,
      "involvement": 5800,
      "walk": 5801,
      "require": 5802,
      "requested": 5803,
      "survived": 5804,
      "surviving": 5805,
      "circulation": 5806,
      "jewel": 5807,
      "solid": 5808,
      "camps": 5809,
      "begins": 5810,
      "systems": 5811,
      "senior": 5812,
      "arsenic": 5813,
      "coaching": 5814,
      "coul": 5815,
      "oxide": 5816,
      "inspiration": 5817,
      "earliest": 5818,
      "attacked": 5819,
      "electric": 5820,
      "##archy": 5821,
      "1908": 5822,
      "significance": 5823,
      "temper": 5824,
      "sulfur": 5825,
      "anger": 5826,
      "combinations": 5827,
      "barrows": 5828,
      "needed": 5829,
      "1889": 5830,
      "growing": 5831,
      "atlantic": 5832,
      "recognition": 5833,
      "villa": 5834,
      "estimates": 5835,
      "penet": 5836,
      "astron": 5837,
      "biography": 5838,
      "castle": 5839,
      "ruled": 5840,
      "views": 5841,
      "regarding": 5842,
      "injured": 5843,
      "princess": 5844,
      "affected": 5845,
      "surrounded": 5846,
      "photographs": 5847,
      "permission": 5848,
      "machismo": 5849,
      "closer": 5850,
      "cases": 5851,
      "casem": 5852,
      "casual": 5853,
      "assassins": 5854,
      "sacrif": 5855,
      "wooden": 5856,
      "bowman": 5857,
      "theatrical": 5858,
      "searching": 5859,
      "deadline": 5860,
      "adams": 5861,
      "concerns": 5862,
      "defeated": 5863,
      "responsibility": 5864,
      "stanisław": 5865,
      "grown": 5866,
      "ashbee": 5867,
      "offerings": 5868,
      "sexuality": 5869,
      "purchase": 5870,
      "vessel": 5871,
      "moralitas": 5872,
      "beliefs": 5873,
      "macarthur": 5874,
      "urban": 5875,
      "banned": 5876,
      "category": 5877,
      "hindi": 5878,
      "illustrated": 5879,
      "ghost": 5880,
      "happened": 5881,
      "structure": 5882,
      "structures": 5883,
      "legislation": 5884,
      "alleg": 5885,
      "prohibited": 5886,
      "platinum": 5887,
      "normal": 5888,
      "hereford": 5889,
      "anthrop": 5890,
      "demonstrated": 5891,
      "baby": 5892,
      "granted": 5893,
      "romantic": 5894,
      "brigade": 5895,
      "fresh": 5896,
      "jarvis": 5897,
      "martin": 5898,
      "eliminated": 5899,
      "pursue": 5900,
      "coty": 5901,
      "tellicherry": 5902,
      "wrong": 5903,
      "wounded": 5904,
      "##aurus": 5905,
      "behavi": 5906,
      "dorothy": 5907,
      "roughly": 5908,
      "anupong": 5909,
      "chaos": 5910,
      "abandoned": 5911,
      "repeated": 5912,
      "mehbooba": 5913,
      "skills": 5914,
      "adaptation": 5915,
      "essential": 5916,
      "crowd": 5917,
      "dvd": 5918,
      "jacqu": 5919,
      "tournament": 5920,
      "flanked": 5921,
      "expedition": 5922,
      "garden": 5923,
      "underwent": 5924,
      "circumstances": 5925,
      "poehler": 5926,
      "linga": 5927,
      "liberty": 5928,
      "tropical": 5929,
      "resistance": 5930,
      "conspir": 5931,
      "brutal": 5932,
      "scheduled": 5933,
      "hundred": 5934,
      "kailash": 5935,
      "kavkaz": 5936,
      "ocean": 5937,
      "vishnu": 5938,
      "yellow": 5939,
      "annexed": 5940,
      "34": 5941,
      "46": 5942,
      "55": 5943,
      "5th": 5944,
      "63": 5945,
      "89": 5946,
      "82": 5947,
      "8th": 5948,
      "93": 5949,
      "96": 5950,
      "bit": 5951,
      "bce": 5952,
      "bought": 5953,
      "ci": 5954,
      "cities": 5955,
      "ceas": 5956,
      "cards": 5957,
      "creek": 5958,
      "caught": 5959,
      "covers": 5960,
      "da": 5961,
      "daco": 5962,
      "eric": 5963,
      "fan": 5964,
      "fold": 5965,
      "freed": 5966,
      "fasc": 5967,
      "gle": 5968,
      "gift": 5969,
      "hud": 5970,
      "hath": 5971,
      "hull": 5972,
      "hitch": 5973,
      "habit": 5974,
      "jers": 5975,
      "jones": 5976,
      "kate": 5977,
      "kore": 5978,
      "kaz": 5979,
      "kurf": 5980,
      "lod": 5981,
      "lord": 5982,
      "lov": 5983,
      "lock": 5984,
      "lighter": 5985,
      "mom": 5986,
      "maps": 5987,
      "mounted": 5988,
      "nations": 5989,
      "nile": 5990,
      "pier": 5991,
      "rot": 5992,
      "row": 5993,
      "sz": 5994,
      "sle": 5995,
      "sab": 5996,
      "sak": 5997,
      "sect": 5998,
      "sie": 5999,
      "sets": 6000,
      "sides": 6001,
      "ta": 6002,
      "tet": 6003,
      "tub": 6004,
      "tide": 6005,
      "tact": 6006,
      "tone": 6007,
      "tail": 6008,
      "tiss": 6009,
      "taught": 6010,
      "veter": 6011,
      "veh": 6012,
      "wł": 6013,
      "wed": 6014,
      "wild": 6015,
      "wick": 6016,
      "yield": 6017,
      "yank": 6018,
      "æst": 6019,
      "##oom": 6020,
      "##zes": 6021,
      "##zew": 6022,
      "##ean": 6023,
      "##ko": 6024,
      "##iar": 6025,
      "##ners": 6026,
      "##nall": 6027,
      "##rus": 6028,
      "##rations": 6029,
      "##ract": 6030,
      "##rays": 6031,
      "##rised": 6032,
      "##raying": 6033,
      "##mus": 6034,
      "##uccess": 6035,
      "##ugg": 6036,
      "##cas": 6037,
      "##veland": 6038,
      "##yan": 6039,
      "##ych": 6040,
      "##hm": 6041,
      "##hetic": 6042,
      "##hurst": 6043,
      "##lim": 6044,
      "##lets": 6045,
      "##bur": 6046,
      "##bow": 6047,
      "##bury": 6048,
      "##pent": 6049,
      "##greg": 6050,
      "##fir": 6051,
      "##fers": 6052,
      "##fect": 6053,
      "##fort": 6054,
      "##fire": 6055,
      "##80": 6056,
      "thin": 6057,
      "thread": 6058,
      "##orated": 6059,
      "##orian": 6060,
      "##orarily": 6061,
      "##ese": 6062,
      "##areness": 6063,
      "inning": 6064,
      "##ites": 6065,
      "##itude": 6066,
      "##itabh": 6067,
      "##anol": 6068,
      "##alised": 6069,
      "##asy": 6070,
      "##iced": 6071,
      "##roit": 6072,
      "##rose": 6073,
      "##ilized": 6074,
      "##ola": 6075,
      "##olph": 6076,
      "##struct": 6077,
      "##adic": 6078,
      "##aduri": 6079,
      "wasn": 6080,
      "##aments": 6081,
      "##oma": 6082,
      "onto": 6083,
      "forth": 6084,
      "stu": 6085,
      "stony": 6086,
      "stayed": 6087,
      "##acu": 6088,
      "##ivals": 6089,
      "##terial": 6090,
      "##cher": 6091,
      "bear": 6092,
      "beam": 6093,
      "##otion": 6094,
      "##otyp": 6095,
      "shif": 6096,
      "##emark": 6097,
      "##umn": 6098,
      "##ulted": 6099,
      "##use": 6100,
      "confl": 6101,
      "cho": 6102,
      "che": 6103,
      "chal": 6104,
      "chec": 6105,
      "chos": 6106,
      "##agu": 6107,
      "comic": 6108,
      "supre": 6109,
      "prol": 6110,
      "arthur": 6111,
      "arena": 6112,
      "arterial": 6113,
      "##rap": 6114,
      "neut": 6115,
      "neither": 6116,
      "orchest": 6117,
      "exclud": 6118,
      "##opl": 6119,
      "##oper": 6120,
      "##opal": 6121,
      "lee": 6122,
      "leop": 6123,
      "##ardo": 6124,
      "trick": 6125,
      "spector": 6126,
      "##iance": 6127,
      "##ears": 6128,
      "##udad": 6129,
      "priest": 6130,
      "allen": 6131,
      "##ours": 6132,
      "##acks": 6133,
      "##ella": 6134,
      "##anto": 6135,
      "worn": 6136,
      "worsh": 6137,
      "scat": 6138,
      "scar": 6139,
      "contained": 6140,
      "boat": 6141,
      "bobc": 6142,
      "aboard": 6143,
      "amph": 6144,
      "amitabh": 6145,
      "cargo": 6146,
      "resol": 6147,
      "resemble": 6148,
      "##phs": 6149,
      "airworth": 6150,
      "##ffen": 6151,
      "##izing": 6152,
      "parties": 6153,
      "ups": 6154,
      "upgr": 6155,
      "secured": 6156,
      "flu": 6157,
      "deck": 6158,
      "decline": 6159,
      "decisions": 6160,
      "formal": 6161,
      "##ibly": 6162,
      "regurg": 6163,
      "otherwise": 6164,
      "evil": 6165,
      "evacu": 6166,
      "mints": 6167,
      "asserted": 6168,
      "basanti": 6169,
      "interim": 6170,
      "interests": 6171,
      "intermedi": 6172,
      "interchange": 6173,
      "charges": 6174,
      "teammates": 6175,
      "awareness": 6176,
      "genre": 6177,
      "genres": 6178,
      "consc": 6179,
      "nothing": 6180,
      "someone": 6181,
      "retained": 6182,
      "retiring": 6183,
      "fourteenth": 6184,
      "maid": 6185,
      "cann": 6186,
      "towns": 6187,
      "phyl": 6188,
      "armament": 6189,
      "##nington": 6190,
      "starring": 6191,
      "writings": 6192,
      "howson": 6193,
      "supposed": 6194,
      "signs": 6195,
      "operate": 6196,
      "##rosaurus": 6197,
      "1989": 6198,
      "southeast": 6199,
      "guild": 6200,
      "studying": 6201,
      "##teb": 6202,
      "1947": 6203,
      "transl": 6204,
      "transform": 6205,
      "discour": 6206,
      "slab": 6207,
      "classical": 6208,
      "weak": 6209,
      "appears": 6210,
      "popul": 6211,
      "1921": 6212,
      "##anks": 6213,
      "termed": 6214,
      "constantly": 6215,
      "##roll": 6216,
      "collect": 6217,
      "150": 6218,
      "demo": 6219,
      "demand": 6220,
      "simult": 6221,
      "showing": 6222,
      "junta": 6223,
      "occasion": 6224,
      "string": 6225,
      "difference": 6226,
      "morgan": 6227,
      "1959": 6228,
      "weekly": 6229,
      "hym": 6230,
      "propos": 6231,
      "synonym": 6232,
      "geffen": 6233,
      "130": 6234,
      "patri": 6235,
      "1970": 6236,
      "clubs": 6237,
      "bulloch": 6238,
      "opposed": 6239,
      "trademark": 6240,
      "##othe": 6241,
      "totten": 6242,
      "listing": 6243,
      "running": 6244,
      "fleetwood": 6245,
      "corruption": 6246,
      "protected": 6247,
      "aeropl": 6248,
      "sitting": 6249,
      "joining": 6250,
      "midfield": 6251,
      "promote": 6252,
      "promotional": 6253,
      "frig": 6254,
      "1964": 6255,
      "debate": 6256,
      "visit": 6257,
      "1863": 6258,
      "statues": 6259,
      "epith": 6260,
      "replacing": 6261,
      "labrosaurus": 6262,
      "entering": 6263,
      "versions": 6264,
      "battlefield": 6265,
      "circuit": 6266,
      "convey": 6267,
      "jews": 6268,
      "solely": 6269,
      "commercials": 6270,
      "sung": 6271,
      "crimin": 6272,
      "admitted": 6273,
      "##ombe": 6274,
      "detroit": 6275,
      "silent": 6276,
      "##ynski": 6277,
      "##herent": 6278,
      "facing": 6279,
      "temporarily": 6280,
      "strongly": 6281,
      "submitted": 6282,
      "personality": 6283,
      "drinking": 6284,
      "funds": 6285,
      "fundament": 6286,
      "stream": 6287,
      "hygroscopic": 6288,
      "claiming": 6289,
      "treatment": 6290,
      "panthe": 6291,
      "richards": 6292,
      "seeing": 6293,
      "applications": 6294,
      "improve": 6295,
      "honorary": 6296,
      "legacy": 6297,
      "dougl": 6298,
      "focused": 6299,
      "moon": 6300,
      "reader": 6301,
      "fragments": 6302,
      "revolutionary": 6303,
      "pitcher": 6304,
      "pitched": 6305,
      "ancest": 6306,
      "causing": 6307,
      "printing": 6308,
      "credit": 6309,
      "crews": 6310,
      "eyes": 6311,
      "malini": 6312,
      "verteb": 6313,
      "1853": 6314,
      "autom": 6315,
      "bhaduri": 6316,
      "petrie": 6317,
      "ylides": 6318,
      "predomin": 6319,
      "predecess": 6320,
      "ensure": 6321,
      "attempting": 6322,
      "instrument": 6323,
      "episodes": 6324,
      "renew": 6325,
      "wider": 6326,
      "##ehyd": 6327,
      "escape": 6328,
      "giant": 6329,
      "talent": 6330,
      "##body": 6331,
      "architecture": 6332,
      "vener": 6333,
      "negative": 6334,
      "flowers": 6335,
      "currently": 6336,
      "ultimate": 6337,
      "ceremon": 6338,
      "dunnington": 6339,
      "grosser": 6340,
      "grossing": 6341,
      "nazis": 6342,
      "stopped": 6343,
      "newspapers": 6344,
      "independence": 6345,
      "maximus": 6346,
      "croatian": 6347,
      "japanese": 6348,
      "##autla": 6349,
      "sculptures": 6350,
      "pleas": 6351,
      "sources": 6352,
      "challenge": 6353,
      "gallian": 6354,
      "hornets": 6355,
      "painted": 6356,
      "problem": 6357,
      "unsuccess": 6358,
      "clean": 6359,
      "cleveland": 6360,
      "konig": 6361,
      "dubious": 6362,
      "alleged": 6363,
      "reconstruction": 6364,
      "scientific": 6365,
      "gregorian": 6366,
      "dialogues": 6367,
      "alternative": 6368,
      "celebrity": 6369,
      "false": 6370,
      "oversaw": 6371,
      "bobby": 6372,
      "accomplished": 6373,
      "swallowing": 6374,
      "documentary": 6375,
      "accompanied": 6376,
      "pistons": 6377,
      "thriller": 6378,
      "apparent": 6379,
      "disappoin": 6380,
      "registered": 6381,
      "highlight": 6382,
      "funerary": 6383,
      "agricultural": 6384,
      "battlecruisers": 6385,
      "joseph": 6386,
      "paintings": 6387,
      "rodman": 6388,
      "amendment": 6389,
      "attracted": 6390,
      "delivery": 6391,
      "restrictions": 6392,
      "substrate": 6393,
      "colonel": 6394,
      "cuautla": 6395,
      "recommended": 6396,
      "distinguished": 6397,
      "passengers": 6398,
      "rapidly": 6399,
      "caval": 6400,
      "eagle": 6401,
      "atenism": 6402,
      "isolated": 6403,
      "chestn": 6404,
      "arabic": 6405,
      "praska": 6406,
      "producers": 6407,
      "rafael": 6408,
      "stephen": 6409,
      "administration": 6410,
      "ottawa": 6411,
      "vatican": 6412,
      "##jeev": 6413,
      "percussion": 6414,
      "prehistoric": 6415,
      "interpreted": 6416,
      "exposure": 6417,
      "headquarters": 6418,
      "convinced": 6419,
      "crescent": 6420,
      "elder": 6421,
      "ireland": 6422,
      "split": 6423,
      "priests": 6424,
      "interpret": 6425,
      "divinities": 6426,
      "skeleton": 6427,
      "confiscated": 6428,
      "coulson": 6429,
      "casualties": 6430,
      "behaviour": 6431,
      "conspirators": 6432,
      "ciudad": 6433,
      "hudson": 6434,
      "hathor": 6435,
      "hitchcock": 6436,
      "jersey": 6437,
      "kurfurst": 6438,
      "æsthetic": 6439,
      "chosen": 6440,
      "airworthiness": 6441,
      "douglas": 6442,
      "unsuccessful": 6443,
      "3d": 6444,
      "72": 6445,
      "bes": 6446,
      "bul": 6447,
      "bests": 6448,
      "brick": 6449,
      "bapt": 6450,
      "cell": 6451,
      "cran": 6452,
      "catch": 6453,
      "dh": 6454,
      "dog": 6455,
      "dors": 6456,
      "denn": 6457,
      "fast": 6458,
      "fine": 6459,
      "fash": 6460,
      "fuel": 6461,
      "gate": 6462,
      "ho": 6463,
      "hi": 6464,
      "hom": 6465,
      "haw": 6466,
      "ihl": 6467,
      "jag": 6468,
      "jup": 6469,
      "jump": 6470,
      "kil": 6471,
      "keeper": 6472,
      "lomb": 6473,
      "lanka": 6474,
      "ml": 6475,
      "mig": 6476,
      "mumm": 6477,
      "nach": 6478,
      "nike": 6479,
      "ol": 6480,
      "pt": 6481,
      "ps": 6482,
      "pu": 6483,
      "pine": 6484,
      "pure": 6485,
      "page": 6486,
      "pull": 6487,
      "pitt": 6488,
      "ray": 6489,
      "rib": 6490,
      "race": 6491,
      "rivers": 6492,
      "rounds": 6493,
      "racing": 6494,
      "rovers": 6495,
      "roster": 6496,
      "ryan": 6497,
      "sic": 6498,
      "sens": 6499,
      "sole": 6500,
      "tum": 6501,
      "tall": 6502,
      "util": 6503,
      "wad": 6504,
      "wings": 6505,
      "yard": 6506,
      "##aels": 6507,
      "##tigall": 6508,
      "##tnall": 6509,
      "##oo": 6510,
      "##sk": 6511,
      "##zz": 6512,
      "##eor": 6513,
      "##wa": 6514,
      "##wing": 6515,
      "##iences": 6516,
      "##nie": 6517,
      "##rich": 6518,
      "##rant": 6519,
      "##mat": 6520,
      "##ming": 6521,
      "##math": 6522,
      "##mosph": 6523,
      "##ule": 6524,
      "##cor": 6525,
      "##cou": 6526,
      "##cret": 6527,
      "##cements": 6528,
      "##vation": 6529,
      "##varn": 6530,
      "##yst": 6531,
      "##yard": 6532,
      "##yond": 6533,
      "##lers": 6534,
      "##lake": 6535,
      "##bre": 6536,
      "##bel": 6537,
      "##bid": 6538,
      "##bound": 6539,
      "##gn": 6540,
      "##gur": 6541,
      "##jad": 6542,
      "##22": 6543,
      "therop": 6544,
      "##erning": 6545,
      "##inz": 6546,
      "##inc": 6547,
      "##ining": 6548,
      "##inet": 6549,
      "##inery": 6550,
      "##inently": 6551,
      "##eding": 6552,
      "##onic": 6553,
      "##onent": 6554,
      "##oration": 6555,
      "##orate": 6556,
      "##orters": 6557,
      "##orma": 6558,
      "##aten": 6559,
      "##atisf": 6560,
      "##esters": 6561,
      "##ari": 6562,
      "##enue": 6563,
      "##itr": 6564,
      "##itively": 6565,
      "##isk": 6566,
      "topped": 6567,
      "tooth": 6568,
      "toler": 6569,
      "##icip": 6570,
      "##icient": 6571,
      "##rogen": 6572,
      "##rect": 6573,
      "##elve": 6574,
      "##iled": 6575,
      "##iles": 6576,
      "##illy": 6577,
      "##entire": 6578,
      "##stone": 6579,
      "##urre": 6580,
      "forever": 6581,
      "stro": 6582,
      "stern": 6583,
      "##ira": 6584,
      "##irid": 6585,
      "reed": 6586,
      "reich": 6587,
      "##lyn": 6588,
      "##lying": 6589,
      "alt": 6590,
      "ald": 6591,
      "##imony": 6592,
      "##imeter": 6593,
      "##idium": 6594,
      "##ayan": 6595,
      "##char": 6596,
      "##chant": 6597,
      "##chester": 6598,
      "beating": 6599,
      "beau": 6600,
      "beyond": 6601,
      "##oto": 6602,
      "anime": 6603,
      "heat": 6604,
      "##utation": 6605,
      "##empl": 6606,
      "##uments": 6607,
      "atrox": 6608,
      "atmosph": 6609,
      "conqu": 6610,
      "conform": 6611,
      "consequ": 6612,
      "19th": 6613,
      "chat": 6614,
      "chop": 6615,
      "seem": 6616,
      "suvarn": 6617,
      "prove": 6618,
      "proof": 6619,
      "##ppy": 6620,
      "##essions": 6621,
      "##raham": 6622,
      "##ishvara": 6623,
      "plates": 6624,
      "##eston": 6625,
      "##ordinated": 6626,
      "##rian": 6627,
      "##uner": 6628,
      "##ighters": 6629,
      "##ifically": 6630,
      "##alling": 6631,
      "##allel": 6632,
      "lege": 6633,
      "##season": 6634,
      "##berg": 6635,
      "##illes": 6636,
      "##abhum": 6637,
      "##arded": 6638,
      "unn": 6639,
      "unif": 6640,
      "unrest": 6641,
      "try": 6642,
      "trying": 6643,
      "spend": 6644,
      "space": 6645,
      "##apa": 6646,
      "##apes": 6647,
      "##arten": 6648,
      "notably": 6649,
      "energy": 6650,
      "clust": 6651,
      "twelve": 6652,
      "2000s": 6653,
      "feud": 6654,
      "##astopol": 6655,
      "pola": 6656,
      "##usted": 6657,
      "perce": 6658,
      "perfect": 6659,
      "aftermath": 6660,
      "plays": 6661,
      "adri": 6662,
      "newsted": 6663,
      "timor": 6664,
      "abund": 6665,
      "mans": 6666,
      "amounts": 6667,
      "amjad": 6668,
      "carb": 6669,
      "carson": 6670,
      "descend": 6671,
      "agree": 6672,
      "##ranean": 6673,
      "imag": 6674,
      "##oking": 6675,
      "disg": 6676,
      "reputation": 6677,
      "filming": 6678,
      "muslim": 6679,
      "finance": 6680,
      "securing": 6681,
      "flot": 6682,
      "flash": 6683,
      "understanding": 6684,
      "decomm": 6685,
      "forming": 6686,
      "regiment": 6687,
      "blown": 6688,
      "blaz": 6689,
      "miner": 6690,
      "assess": 6691,
      "warm": 6692,
      "warned": 6693,
      "warne": 6694,
      "interned": 6695,
      "outl": 6696,
      "outages": 6697,
      "##ricted": 6698,
      "attrib": 6699,
      "attached": 6700,
      "speculation": 6701,
      "endors": 6702,
      "produces": 6703,
      "knocked": 6704,
      "maury": 6705,
      "subs": 6706,
      "##onega": 6707,
      "phen": 6708,
      "phase": 6709,
      "phosph": 6710,
      "##icki": 6711,
      "impression": 6712,
      "numism": 6713,
      "marc": 6714,
      "mario": 6715,
      "symp": 6716,
      "sydney": 6717,
      "empt": 6718,
      "emily": 6719,
      "installed": 6720,
      "betaine": 6721,
      "songwrit": 6722,
      "starts": 6723,
      "yorkshire": 6724,
      "preserved": 6725,
      "preservation": 6726,
      "soil": 6727,
      "soft": 6728,
      "soorma": 6729,
      "peaking": 6730,
      "##iewicz": 6731,
      "leadership": 6732,
      "meteor": 6733,
      "supporters": 6734,
      "signal": 6735,
      "singing": 6736,
      "defenders": 6737,
      "elite": 6738,
      "elbow": 6739,
      "operated": 6740,
      "parod": 6741,
      "sau": 6742,
      "1983": 6743,
      "##ropol": 6744,
      "studied": 6745,
      "express": 6746,
      "exposed": 6747,
      "expensive": 6748,
      "engage": 6749,
      "engines": 6750,
      "1946": 6751,
      "prompted": 6752,
      "incident": 6753,
      "marks": 6754,
      "rockef": 6755,
      "##ysław": 6756,
      "gray": 6757,
      "receive": 6758,
      "criteria": 6759,
      "maintain": 6760,
      "orders": 6761,
      "humor": 6762,
      "1933": 6763,
      "1934": 6764,
      "1932": 6765,
      "designs": 6766,
      "returns": 6767,
      "construct": 6768,
      "continuous": 6769,
      "barra": 6770,
      "posters": 6771,
      "posthum": 6772,
      "steel": 6773,
      "steals": 6774,
      "steps": 6775,
      "successive": 6776,
      "prevented": 6777,
      "weehaw": 6778,
      "annivers": 6779,
      "##utionary": 6780,
      "##elsen": 6781,
      "coined": 6782,
      "morel": 6783,
      "1957": 6784,
      "organic": 6785,
      "organisation": 6786,
      "considers": 6787,
      "110": 6788,
      "syncret": 6789,
      "179": 6790,
      "sevastopol": 6791,
      "##ographer": 6792,
      "younger": 6793,
      "performer": 6794,
      "effective": 6795,
      "associations": 6796,
      "opposing": 6797,
      "triple": 6798,
      "trioxide": 6799,
      "approved": 6800,
      "passes": 6801,
      "passage": 6802,
      "listen": 6803,
      "calc": 6804,
      "calam": 6805,
      "calif": 6806,
      "advent": 6807,
      "authors": 6808,
      "juarez": 6809,
      "sounding": 6810,
      "islands": 6811,
      "protect": 6812,
      "accordingly": 6813,
      "landsc": 6814,
      "edge": 6815,
      "realm": 6816,
      "realized": 6817,
      "alien": 6818,
      "1968": 6819,
      "1960": 6820,
      "communication": 6821,
      "hollywood": 6822,
      "statue": 6823,
      "epic": 6824,
      "turning": 6825,
      "females": 6826,
      "##hael": 6827,
      "convoy": 6828,
      "deaths": 6829,
      "curt": 6830,
      "selection": 6831,
      "possibility": 6832,
      "possession": 6833,
      "experim": 6834,
      "earthen": 6835,
      "##etta": 6836,
      "##ettes": 6837,
      "explos": 6838,
      "explains": 6839,
      "commonly": 6840,
      "internal": 6841,
      "historians": 6842,
      "merge": 6843,
      "merry": 6844,
      "shoulder": 6845,
      "columbia": 6846,
      "##ometric": 6847,
      "appoint": 6848,
      "roads": 6849,
      "cuts": 6850,
      "michaels": 6851,
      "sanct": 6852,
      "victim": 6853,
      "departure": 6854,
      "electron": 6855,
      "civilian": 6856,
      "1909": 6857,
      "1905": 6858,
      "1902": 6859,
      "adding": 6860,
      "connection": 6861,
      "striking": 6862,
      "felix": 6863,
      "sulfonium": 6864,
      "traits": 6865,
      "colleagues": 6866,
      "violation": 6867,
      "seeking": 6868,
      "journey": 6869,
      "informed": 6870,
      "blocks": 6871,
      "failing": 6872,
      "failure": 6873,
      "1879": 6874,
      "moore": 6875,
      "trend": 6876,
      "ready": 6877,
      "ruined": 6878,
      "transportation": 6879,
      "44b": 6880,
      "mcentire": 6881,
      "probability": 6882,
      "garuda": 6883,
      "russell": 6884,
      "couple": 6885,
      "motif": 6886,
      "##where": 6887,
      "approaching": 6888,
      "credits": 6889,
      "machinery": 6890,
      "championships": 6891,
      "factors": 6892,
      "malone": 6893,
      "##iii": 6894,
      "doesn": 6895,
      "autumn": 6896,
      "substant": 6897,
      "physic": 6898,
      "methods": 6899,
      "duty": 6900,
      "duties": 6901,
      "fiction": 6902,
      "gambling": 6903,
      "argues": 6904,
      "focusing": 6905,
      "escaped": 6906,
      "chapter": 6907,
      "engineering": 6908,
      "capture": 6909,
      "encoun": 6910,
      "drove": 6911,
      "dropped": 6912,
      "measuring": 6913,
      "antiquarian": 6914,
      "economy": 6915,
      "raphael": 6916,
      "vancou": 6917,
      "stopping": 6918,
      "banks": 6919,
      "nucle": 6920,
      "reflecting": 6921,
      "attendants": 6922,
      "discussion": 6923,
      "pakistani": 6924,
      "athl": 6925,
      "aimed": 6926,
      "kinderg": 6927,
      "libraries": 6928,
      "composer": 6929,
      "blew": 6930,
      "budd": 6931,
      "beaten": 6932,
      "##going": 6933,
      "ghett": 6934,
      "konkan": 6935,
      "virt": 6936,
      "virgin": 6937,
      "wreath": 6938,
      "wilh": 6939,
      "withdrew": 6940,
      "dismissed": 6941,
      "window": 6942,
      "slowly": 6943,
      "frequent": 6944,
      "wait": 6945,
      "scientists": 6946,
      "normally": 6947,
      "weapon": 6948,
      "considerable": 6949,
      "poorly": 6950,
      "determine": 6951,
      "determined": 6952,
      "pushed": 6953,
      "pushing": 6954,
      "tiger": 6955,
      "learned": 6956,
      "emotional": 6957,
      "eleven": 6958,
      "mobile": 6959,
      "sarah": 6960,
      "watching": 6961,
      "accomplish": 6962,
      "concentration": 6963,
      "dreamworks": 6964,
      "surrendered": 6965,
      "branched": 6966,
      "layers": 6967,
      "omn": 6968,
      "waters": 6969,
      "reforms": 6970,
      "sundance": 6971,
      "spirits": 6972,
      "apparently": 6973,
      "funeral": 6974,
      "cyclone": 6975,
      "reinforcements": 6976,
      "agriculture": 6977,
      "battlecruiser": 6978,
      "nielsen": 6979,
      "segment": 6980,
      "flintlock": 6981,
      "mahe": 6982,
      "supplies": 6983,
      "bringing": 6984,
      "microlight": 6985,
      "microlights": 6986,
      "nickn": 6987,
      "thousands": 6988,
      "settled": 6989,
      "licensing": 6990,
      "premiere": 6991,
      "briefly": 6992,
      "dreadnought": 6993,
      "kaiser": 6994,
      "vicinity": 6995,
      "rendition": 6996,
      "anchor": 6997,
      "advertis": 6998,
      "confirmed": 6999,
      "ukrainian": 7000,
      "manifestations": 7001,
      "gusts": 7002,
      "hartford": 7003,
      "ratings": 7004,
      "touch": 7005,
      "beautiful": 7006,
      "##oselective": 7007,
      "exclusively": 7008,
      "spanish": 7009,
      "agreement": 7010,
      "occasions": 7011,
      "responded": 7012,
      "conversely": 7013,
      "mechanism": 7014,
      "corresponding": 7015,
      "hanneman": 7016,
      "tattnall": 7017,
      "task": 7018,
      "assault": 7019,
      "reversibility": 7020,
      "##ropriate": 7021,
      "guidance": 7022,
      "engraver": 7023,
      "politicians": 7024,
      "affairs": 7025,
      "dahlonega": 7026,
      "kevin": 7027,
      "mallory": 7028,
      "porfir": 7029,
      "pillars": 7030,
      "pettit": 7031,
      "tools": 7032,
      "enclosed": 7033,
      "commodore": 7034,
      "epoxides": 7035,
      "sacrifice": 7036,
      "gleba": 7037,
      "lodge": 7038,
      "tubes": 7039,
      "##music": 7040,
      "##burgh": 7041,
      "conflict": 7042,
      "supreme": 7043,
      "bobcats": 7044,
      "conscious": 7045,
      "simultaneously": 7046,
      "occasionally": 7047,
      "fundamental": 7048,
      "fashion": 7049,
      "nachtigall": 7050,
      "theropod": 7051,
      "suvarnabhum": 7052,
      "legend": 7053,
      "decommission": 7054,
      "rockefeller": 7055,
      "weehawken": 7056,
      "landscape": 7057,
      "vancouver": 7058,
      "kindergarten": 7059,
      "virginia": 7060,
      "suvarnabhumi": 7061,
      "09": 7062,
      "2s": 7063,
      "2nd": 7064,
      "4th": 7065,
      "59": 7066,
      "7th": 7067,
      "87": 7068,
      "83": 7069,
      "85": 7070,
      "99": 7071,
      "900": 7072,
      "bore": 7073,
      "bure": 7074,
      "bold": 7075,
      "bry": 7076,
      "bells": 7077,
      "ce": 7078,
      "cd": 7079,
      "cess": 7080,
      "cous": 7081,
      "cris": 7082,
      "camb": 7083,
      "cults": 7084,
      "din": 7085,
      "dom": 7086,
      "dri": 7087,
      "dave": 7088,
      "draf": 7089,
      "dressed": 7090,
      "dna": 7091,
      "dwar": 7092,
      "dipl": 7093,
      "ec": 7094,
      "fant": 7095,
      "fib": 7096,
      "fert": 7097,
      "gil": 7098,
      "gam": 7099,
      "gary": 7100,
      "ghar": 7101,
      "hell": 7102,
      "hire": 7103,
      "hamp": 7104,
      "ja": 7105,
      "jr": 7106,
      "jut": 7107,
      "jimm": 7108,
      "ki": 7109,
      "kor": 7110,
      "ket": 7111,
      "keen": 7112,
      "kelly": 7113,
      "lt": 7114,
      "lan": 7115,
      "lion": 7116,
      "lith": 7117,
      "laugh": 7118,
      "lester": 7119,
      "liqu": 7120,
      "mist": 7121,
      "mitch": 7122,
      "mosh": 7123,
      "nd": 7124,
      "nub": 7125,
      "ntr": 7126,
      "nelly": 7127,
      "opt": 7128,
      "py": 7129,
      "pul": 7130,
      "pap": 7131,
      "pounds": 7132,
      "rating": 7133,
      "rare": 7134,
      "rpg": 7135,
      "sq": 7136,
      "sin": 7137,
      "som": 7138,
      "sank": 7139,
      "sars": 7140,
      "tan": 7141,
      "tam": 7142,
      "tart": 7143,
      "tying": 7144,
      "tests": 7145,
      "vo": 7146,
      "vent": 7147,
      "vul": 7148,
      "vert": 7149,
      "veg": 7150,
      "vint": 7151,
      "vote": 7152,
      "wish": 7153,
      "xiii": 7154,
      "yug": 7155,
      "µg": 7156,
      "μm": 7157,
      "##ek": 7158,
      "##eed": 7159,
      "##ext": 7160,
      "##watch": 7161,
      "##keeper": 7162,
      "##iot": 7163,
      "##iens": 7164,
      "##iating": 7165,
      "##iya": 7166,
      "##nic": 7167,
      "##rat": 7168,
      "##rise": 7169,
      "##rarian": 7170,
      "##mar": 7171,
      "##mid": 7172,
      "##mina": 7173,
      "##cle": 7174,
      "##cope": 7175,
      "##cceed": 7176,
      "##ven": 7177,
      "##ym": 7178,
      "##yer": 7179,
      "##hak": 7180,
      "##hire": 7181,
      "##lan": 7182,
      "##lore": 7183,
      "##bles": 7184,
      "##pan": 7185,
      "##pass": 7186,
      "##da": 7187,
      "##dd": 7188,
      "##dress": 7189,
      "##gency": 7190,
      "thor": 7191,
      "thames": 7192,
      "thomp": 7193,
      "##inal": 7194,
      "##oring": 7195,
      "##ato": 7196,
      "##atile": 7197,
      "##aris": 7198,
      "ing": 7199,
      "inherent": 7200,
      "##ito": 7201,
      "##anay": 7202,
      "##alion": 7203,
      "##ingly": 7204,
      "andhak": 7205,
      "tomas": 7206,
      "todd": 7207,
      "##icate": 7208,
      "##room": 7209,
      "##rous": 7210,
      "##rey": 7211,
      "##oul": 7212,
      "##elm": 7213,
      "##elten": 7214,
      "##ilation": 7215,
      "##ilton": 7216,
      "##enton": 7217,
      "##ada": 7218,
      "##adow": 7219,
      "##adsen": 7220,
      "##omer": 7221,
      "##omor": 7222,
      "##omech": 7223,
      "ongoing": 7224,
      "##urer": 7225,
      "##urra": 7226,
      "##urally": 7227,
      "##urday": 7228,
      "forbes": 7229,
      "forbid": 7230,
      "sting": 7231,
      "stim": 7232,
      "stab": 7233,
      "stup": 7234,
      "stret": 7235,
      "stages": 7236,
      "stability": 7237,
      "##acity": 7238,
      "why": 7239,
      "reuter": 7240,
      "altered": 7241,
      "almina": 7242,
      "##ivia": 7243,
      "##ider": 7244,
      "##cho": 7245,
      "##chang": 7246,
      "##oting": 7247,
      "##otrop": 7248,
      "##utt": 7249,
      "##emen": 7250,
      "##umption": 7251,
      "##ulg": 7252,
      "atum": 7253,
      "conclusion": 7254,
      "congreg": 7255,
      "1900": 7256,
      "isra": 7257,
      "isles": 7258,
      "chul": 7259,
      "chees": 7260,
      "chelten": 7261,
      "##oslav": 7262,
      "##ava": 7263,
      "##aven": 7264,
      "##agon": 7265,
      "##agen": 7266,
      "##agara": 7267,
      "sud": 7268,
      "succeed": 7269,
      "arn": 7270,
      "ard": 7271,
      "arist": 7272,
      "plus": 7273,
      "plant": 7274,
      "placing": 7275,
      "##ocity": 7276,
      "neigh": 7277,
      "##ighed": 7278,
      "ores": 7279,
      "existed": 7280,
      "exception": 7281,
      "##ichi": 7282,
      "##opher": 7283,
      "leices": 7284,
      "leaf": 7285,
      "##sex": 7286,
      "##illa": 7287,
      "##aburra": 7288,
      "unf": 7289,
      "##aki": 7290,
      "##akers": 7291,
      "spur": 7292,
      "##aph": 7293,
      "##apuri": 7294,
      "##iant": 7295,
      "##ieth": 7296,
      "##ieval": 7297,
      "cler": 7298,
      "clar": 7299,
      "clay": 7300,
      "alloy": 7301,
      "allosaur": 7302,
      "allmusic": 7303,
      "##mented": 7304,
      "##ellion": 7305,
      "##antour": 7306,
      "##asting": 7307,
      "relocated": 7308,
      "pole": 7309,
      "scouting": 7310,
      "scapa": 7311,
      "timber": 7312,
      "contribution": 7313,
      "context": 7314,
      "##mann": 7315,
      "abraham": 7316,
      "##athered": 7317,
      "##cles": 7318,
      "mangal": 7319,
      "carpent": 7320,
      "intent": 7321,
      "##endar": 7322,
      "goes": 7323,
      "goeb": 7324,
      "##oughts": 7325,
      "appeals": 7326,
      "reserve": 7327,
      "agrarian": 7328,
      "teen": 7329,
      "offers": 7330,
      "offsh": 7331,
      "##phae": 7332,
      "airline": 7333,
      "airplay": 7334,
      "impl": 7335,
      "##okaburra": 7336,
      "filmfare": 7337,
      "##izes": 7338,
      "partition": 7339,
      "meg": 7340,
      "finds": 7341,
      "secure": 7342,
      "overc": 7343,
      "##rons": 7344,
      "flown": 7345,
      "understand": 7346,
      "decreas": 7347,
      "pregn": 7348,
      "regulated": 7349,
      "comprising": 7350,
      "bloom": 7351,
      "coy": 7352,
      "eve": 7353,
      "mind": 7354,
      "basal": 7355,
      "basid": 7356,
      "remove": 7357,
      "remuner": 7358,
      "monten": 7359,
      "monothe": 7360,
      "specifically": 7361,
      "noises": 7362,
      "retard": 7363,
      "##ossible": 7364,
      "accounts": 7365,
      "schmid": 7366,
      "revival": 7367,
      "revenge": 7368,
      "subjects": 7369,
      "##ribed": 7370,
      "##awat": 7371,
      "impress": 7372,
      "impossible": 7373,
      "devon": 7374,
      "devout": 7375,
      "devotion": 7376,
      "depending": 7377,
      "generated": 7378,
      "cole": 7379,
      "##ieties": 7380,
      "##iewski": 7381,
      "leaders": 7382,
      "brobb": 7383,
      "metropol": 7384,
      "artif": 7385,
      "artistic": 7386,
      "artwork": 7387,
      "defended": 7388,
      "divor": 7389,
      "elected": 7390,
      "obstruct": 7391,
      "belg": 7392,
      "doz": 7393,
      "larry": 7394,
      "operating": 7395,
      "parach": 7396,
      "parallel": 7397,
      "guide": 7398,
      "expans": 7399,
      "engag": 7400,
      "loos": 7401,
      "promise": 7402,
      "prominently": 7403,
      "promulg": 7404,
      "##ornia": 7405,
      "transcend": 7406,
      "discern": 7407,
      "moves": 7408,
      "weight": 7409,
      "webb": 7410,
      "##inda": 7411,
      "descript": 7412,
      "couldn": 7413,
      "apg": 7414,
      "locations": 7415,
      "mainst": 7416,
      "capacity": 7417,
      "thoughts": 7418,
      "1930s": 7419,
      "millenn": 7420,
      "barn": 7421,
      "barry": 7422,
      "102": 7423,
      "raid": 7424,
      "raise": 7425,
      "quant": 7426,
      "157": 7427,
      "myres": 7428,
      "myster": 7429,
      "mycel": 7430,
      "##atherine": 7431,
      "postc": 7432,
      "simon": 7433,
      "sixteen": 7434,
      "showed": 7435,
      "headdress": 7436,
      "medal": 7437,
      "mediter": 7438,
      "medieval": 7439,
      "##ertain": 7440,
      "120": 7441,
      "disturb": 7442,
      "strained": 7443,
      "strateg": 7444,
      "persons": 7445,
      "personally": 7446,
      "personified": 7447,
      "avoid": 7448,
      "missile": 7449,
      "1956": 7450,
      "1955": 7451,
      "excavate": 7452,
      "hyphae": 7453,
      "considering": 7454,
      "##ographical": 7455,
      "youngest": 7456,
      "austria": 7457,
      "patrol": 7458,
      "believing": 7459,
      "characterised": 7460,
      "useful": 7461,
      "1971": 7462,
      "province": 7463,
      "trium": 7464,
      "approached": 7465,
      "entitled": 7466,
      "confused": 7467,
      "correct": 7468,
      "courty": 7469,
      "##boat": 7470,
      "##boards": 7471,
      "protesters": 7472,
      "landed": 7473,
      "landown": 7474,
      "restricted": 7475,
      "swan": 7476,
      "completion": 7477,
      "commerce": 7478,
      "##omena": 7479,
      "limantour": 7480,
      "promoting": 7481,
      "1969": 7482,
      "holy": 7483,
      "romano": 7484,
      "visible": 7485,
      "authored": 7486,
      "authorized": 7487,
      "replace": 7488,
      "column": 7489,
      "involves": 7490,
      "walter": 7491,
      "allows": 7492,
      "circular": 7493,
      "circulated": 7494,
      "circulate": 7495,
      "##rington": 7496,
      "convent": 7497,
      "##aticus": 7498,
      "battalion": 7499,
      "comedian": 7500,
      "begun": 7501,
      "catal": 7502,
      "cruel": 7503,
      "senate": 7504,
      "radha": 7505,
      "stores": 7506,
      "stories": 7507,
      "hunwick": 7508,
      "sunk": 7509,
      "covering": 7510,
      "presidential": 7511,
      "household": 7512,
      "criticized": 7513,
      "oxy": 7514,
      "storyline": 7515,
      "merchant": 7516,
      "dealership": 7517,
      "bush": 7518,
      "busque": 7519,
      "##ynastic": 7520,
      "speak": 7521,
      "fewest": 7522,
      "traditions": 7523,
      "faces": 7524,
      "facade": 7525,
      "stronger": 7526,
      "lesser": 7527,
      "1907": 7528,
      "addington": 7529,
      "materials": 7530,
      "drunk": 7531,
      "perspective": 7532,
      "connect": 7533,
      "connecting": 7534,
      "competed": 7535,
      "putting": 7536,
      "pottery": 7537,
      "striker": 7538,
      "claims": 7539,
      "favour": 7540,
      "hills": 7541,
      "matt": 7542,
      "identity": 7543,
      "horse": 7544,
      "trail": 7545,
      "##ontin": 7546,
      "combat": 7547,
      "combination": 7548,
      "improvements": 7549,
      "cautionary": 7550,
      "massive": 7551,
      "refus": 7552,
      "403": 7553,
      "ballistic": 7554,
      "breakout": 7555,
      "hostile": 7556,
      "volumes": 7557,
      "1874": 7558,
      "methyl": 7559,
      "companion": 7560,
      "companies": 7561,
      "treated": 7562,
      "readily": 7563,
      "ruth": 7564,
      "insisted": 7565,
      "policies": 7566,
      "biomech": 7567,
      "multi": 7568,
      "pitching": 7569,
      "ruler": 7570,
      "ruling": 7571,
      "ranking": 7572,
      "viewed": 7573,
      "animated": 7574,
      "duat": 7575,
      "garn": 7576,
      "saturday": 7577,
      "walls": 7578,
      "chambered": 7579,
      "printed": 7580,
      "affil": 7581,
      "photography": 7582,
      "motor": 7583,
      "motion": 7584,
      "motiv": 7585,
      "ramgar": 7586,
      "techniqu": 7587,
      "infr": 7588,
      "infinity": 7589,
      "aspect": 7590,
      "occurs": 7591,
      "cerat": 7592,
      "qualified": 7593,
      "closure": 7594,
      "ritual": 7595,
      "commenting": 7596,
      "intellect": 7597,
      "1890": 7598,
      "1854": 7599,
      "meetings": 7600,
      "literary": 7601,
      "favorable": 7602,
      "bhopal": 7603,
      "predynastic": 7604,
      "instrumental": 7605,
      "methodologies": 7606,
      "introduction": 7607,
      "bowie": 7608,
      "donated": 7609,
      "rebounds": 7610,
      "rebellion": 7611,
      "premises": 7612,
      "lifet": 7613,
      "lifted": 7614,
      "converting": 7615,
      "separated": 7616,
      "cabinet": 7617,
      "dropping": 7618,
      "fitwatch": 7619,
      "liked": 7620,
      "payne": 7621,
      "measures": 7622,
      "achieve": 7623,
      "repairs": 7624,
      "williams": 7625,
      "##iusz": 7626,
      "polythe": 7627,
      "teaching": 7628,
      "attendant": 7629,
      "discussed": 7630,
      "cinemas": 7631,
      "derived": 7632,
      "kerb": 7633,
      "##khen": 7634,
      "exhibited": 7635,
      "composition": 7636,
      "igual": 7637,
      "please": 7638,
      "emergency": 7639,
      "categories": 7640,
      "linked": 7641,
      "indicate": 7642,
      "indicates": 7643,
      "1806": 7644,
      "illustr": 7645,
      "badly": 7646,
      "brian": 7647,
      "myself": 7648,
      "wilm": 7649,
      "##kowski": 7650,
      "##load": 7651,
      "andrews": 7652,
      "##rophic": 7653,
      "##rophag": 7654,
      "rejoin": 7655,
      "references": 7656,
      "dismember": 7657,
      "seventeen": 7658,
      "cosmos": 7659,
      "ninet": 7660,
      "sailed": 7661,
      "sailors": 7662,
      "tribute": 7663,
      "emphasised": 7664,
      "bridgeport": 7665,
      "gregory": 7666,
      "struggle": 7667,
      "folklore": 7668,
      "rolling": 7669,
      "deployed": 7670,
      "deployment": 7671,
      "##opolis": 7672,
      "surpass": 7673,
      "emotion": 7674,
      "belonged": 7675,
      "belonging": 7676,
      "substituted": 7677,
      "innings": 7678,
      "enemies": 7679,
      "clothes": 7680,
      "displayed": 7681,
      "preparation": 7682,
      "schedule": 7683,
      "concentrated": 7684,
      "swallowed": 7685,
      "taxonomy": 7686,
      "accompanying": 7687,
      "drums": 7688,
      "mutual": 7689,
      "piston": 7690,
      "stibine": 7691,
      "sundial": 7692,
      "regulatory": 7693,
      "embarked": 7694,
      "eliminate": 7695,
      "azirid": 7696,
      "customers": 7697,
      "housed": 7698,
      "houses": 7699,
      "rector": 7700,
      "ambient": 7701,
      "constitution": 7702,
      "delivered": 7703,
      "encouraged": 7704,
      "mesolithic": 7705,
      "rudolph": 7706,
      "sortie": 7707,
      "thousand": 7708,
      "##estyle": 7709,
      "intersection": 7710,
      "glasses": 7711,
      "premiered": 7712,
      "dreadnoughts": 7713,
      "bonus": 7714,
      "drugs": 7715,
      "ethnic": 7716,
      "hamilton": 7717,
      "kookaburra": 7718,
      "railroad": 7719,
      "trouble": 7720,
      "stalin": 7721,
      "shutout": 7722,
      "ornament": 7723,
      "percentage": 7724,
      "aggressive": 7725,
      "filmmaker": 7726,
      "northwest": 7727,
      "incorporated": 7728,
      "rhymes": 7729,
      "rhythm": 7730,
      "challenges": 7731,
      "investigation": 7732,
      "torture": 7733,
      "sharp": 7734,
      "enantioselective": 7735,
      "preceding": 7736,
      "minimal": 7737,
      "deprecating": 7738,
      "professionally": 7739,
      "diagnosed": 7740,
      "pharaohs": 7741,
      "ridot": 7742,
      "rubin": 7743,
      "alexander": 7744,
      "controversy": 7745,
      "rescue": 7746,
      "barracks": 7747,
      "corporation": 7748,
      "princip": 7749,
      "absorbed": 7750,
      "odoratus": 7751,
      "digital": 7752,
      "hypoth": 7753,
      "lemon": 7754,
      "witness": 7755,
      "##trak": 7756,
      "##stitutional": 7757,
      "asiaticus": 7758,
      "procured": 7759,
      "unconstitutional": 7760,
      "enjoyed": 7761,
      "scrut": 7762,
      "discipline": 7763,
      "jewelry": 7764,
      "astronomical": 7765,
      "casemate": 7766,
      "freedom": 7767,
      "kazimierz": 7768,
      "siege": 7769,
      "tissue": 7770,
      "wickford": 7771,
      "##zewski": 7772,
      "stuart": 7773,
      "##otype": 7774,
      "neutral": 7775,
      "leopold": 7776,
      "worshipped": 7777,
      "scattered": 7778,
      "resolue": 7779,
      "upset": 7780,
      "intermediate": 7781,
      "maidan": 7782,
      "phylogen": 7783,
      "hymns": 7784,
      "proposal": 7785,
      "midfielder": 7786,
      "criminal": 7787,
      "vertebrae": 7788,
      "ceremonies": 7789,
      "chestnuts": 7790,
      "bestselling": 7791,
      "lombardo": 7792,
      "mlb": 7793,
      "##urrection": 7794,
      "chopra": 7795,
      "feudal": 7796,
      "mauryas": 7797,
      "phenomena": 7798,
      "phosphorus": 7799,
      "sympath": 7800,
      "meteorological": 7801,
      "posthumously": 7802,
      "anniversary": 7803,
      "morelos": 7804,
      "calculated": 7805,
      "california": 7806,
      "athletic": 7807,
      "ghettos": 7808,
      "virtually": 7809,
      "wilhelm": 7810,
      "advertisement": 7811,
      "bureau": 7812,
      "dinosaur": 7813,
      "dwarf": 7814,
      "gharapuri": 7815,
      "hampshire": 7816,
      "jutland": 7817,
      "jimmadsen": 7818,
      "sarsens": 7819,
      "vintage": 7820,
      "yugoslav": 7821,
      "thorough": 7822,
      "thompson": 7823,
      "stupa": 7824,
      "stretch": 7825,
      "israel": 7826,
      "cheese": 7827,
      "cheltenham": 7828,
      "aristocr": 7829,
      "mangalore": 7830,
      "offshore": 7831,
      "monteneg": 7832,
      "schmidt": 7833,
      "brobbel": 7834,
      "metropolitan": 7835,
      "mysterious": 7836,
      "mediterranean": 7837,
      "strategic": 7838,
      "ramgarh": 7839,
      "techniques": 7840,
      "jimmadseni": 7841,
      "02": 7842,
      "2o": 7843,
      "67": 7844,
      "66": 7845,
      "65": 7846,
      "61": 7847,
      "74": 7848,
      "98": 7849,
      "9th": 7850,
      "ae": 7851,
      "aes": 7852,
      "ahead": 7853,
      "arose": 7854,
      "bern": 7855,
      "benn": 7856,
      "bald": 7857,
      "c6": 7858,
      "cad": 7859,
      "cul": 7860,
      "cra": 7861,
      "cass": 7862,
      "caf": 7863,
      "dur": 7864,
      "dost": 7865,
      "dock": 7866,
      "dens": 7867,
      "dress": 7868,
      "drop": 7869,
      "dime": 7870,
      "digg": 7871,
      "dwell": 7872,
      "dagen": 7873,
      "et": 7874,
      "ety": 7875,
      "fo": 7876,
      "fro": 7877,
      "fuj": 7878,
      "fried": 7879,
      "fitted": 7880,
      "font": 7881,
      "foster": 7882,
      "gig": 7883,
      "gast": 7884,
      "gone": 7885,
      "gaining": 7886,
      "graph": 7887,
      "gathered": 7888,
      "hab": 7889,
      "hague": 7890,
      "haz": 7891,
      "hoard": 7892,
      "il": 7893,
      "jet": 7894,
      "jim": 7895,
      "jum": 7896,
      "jess": 7897,
      "jets": 7898,
      "jokes": 7899,
      "kw": 7900,
      "kir": 7901,
      "kid": 7902,
      "kron": 7903,
      "kenn": 7904,
      "kurt": 7905,
      "lor": 7906,
      "lies": 7907,
      "lose": 7908,
      "lake": 7909,
      "lyn": 7910,
      "laver": 7911,
      "lumber": 7912,
      "mama": 7913,
      "mtv": 7914,
      "nit": 7915,
      "nom": 7916,
      "nich": 7917,
      "nah": 7918,
      "otr": 7919,
      "ovation": 7920,
      "pent": 7921,
      "pup": 7922,
      "porn": 7923,
      "patch": 7924,
      "raw": 7925,
      "sale": 7926,
      "ts": 7927,
      "tu": 7928,
      "tin": 7929,
      "tag": 7930,
      "ties": 7931,
      "tast": 7932,
      "tamp": 7933,
      "torn": 7934,
      "tina": 7935,
      "tiny": 7936,
      "tells": 7937,
      "tuck": 7938,
      "vel": 7939,
      "vern": 7940,
      "vuth": 7941,
      "wore": 7942,
      "wants": 7943,
      "##aqu": 7944,
      "##tics": 7945,
      "##oj": 7946,
      "##oil": 7947,
      "##oant": 7948,
      "##oons": 7949,
      "##sak": 7950,
      "##zer": 7951,
      "##ein": 7952,
      "##wig": 7953,
      "##iy": 7954,
      "##iac": 7955,
      "##iary": 7956,
      "##ients": 7957,
      "##no": 7958,
      "##nite": 7959,
      "##nicki": 7960,
      "##niewski": 7961,
      "##rig": 7962,
      "##rand": 7963,
      "##rors": 7964,
      "##raged": 7965,
      "##rze": 7966,
      "##mark": 7967,
      "##mely": 7968,
      "##ua": 7969,
      "##under": 7970,
      "##uky": 7971,
      "##uki": 7972,
      "##col": 7973,
      "##vi": 7974,
      "##vin": 7975,
      "##vings": 7976,
      "##ycl": 7977,
      "##ht": 7978,
      "##hen": 7979,
      "##hran": 7980,
      "##hma": 7981,
      "##hyd": 7982,
      "##hroom": 7983,
      "##lc": 7984,
      "##low": 7985,
      "##bing": 7986,
      "##bra": 7987,
      "##bridge": 7988,
      "##pi": 7989,
      "##pm": 7990,
      "##poin": 7991,
      "##ported": 7992,
      "##do": 7993,
      "##die": 7994,
      "##dale": 7995,
      "##gow": 7996,
      "##full": 7997,
      "##50": 7998,
      "##jected": 7999,
      "##jowa": 8000,
      "##ον": 8001,
      "theories": 8002,
      "##eras": 8003,
      "##erver": 8004,
      "##erias": 8005,
      "##inus": 8006,
      "##inson": 8007,
      "##inisc": 8008,
      "##oney": 8009,
      "##orial": 8010,
      "##orge": 8011,
      "##atible": 8012,
      "##esis": 8013,
      "##aron": 8014,
      "##arat": 8015,
      "##arth": 8016,
      "inau": 8017,
      "##enar": 8018,
      "##enient": 8019,
      "##itely": 8020,
      "##anus": 8021,
      "##ancy": 8022,
      "##anagara": 8023,
      "##alers": 8024,
      "##alyp": 8025,
      "##isi": 8026,
      "##iscl": 8027,
      "##asp": 8028,
      "##asgow": 8029,
      "andrze": 8030,
      "toured": 8031,
      "##icity": 8032,
      "##reh": 8033,
      "##rees": 8034,
      "##ream": 8035,
      "##rell": 8036,
      "##ecular": 8037,
      "##olf": 8038,
      "##olution": 8039,
      "##entieth": 8040,
      "##stood": 8041,
      "##stein": 8042,
      "##throp": 8043,
      "##thyl": 8044,
      "##ady": 8045,
      "##adysław": 8046,
      "##amil": 8047,
      "##amium": 8048,
      "##omic": 8049,
      "##omach": 8050,
      "ontar": 8051,
      "##urs": 8052,
      "##etics": 8053,
      "stay": 8054,
      "stell": 8055,
      "stock": 8056,
      "stamp": 8057,
      "staying": 8058,
      "stomach": 8059,
      "##ires": 8060,
      "##irical": 8061,
      "asia": 8062,
      "asking": 8063,
      "whate": 8064,
      "whalers": 8065,
      "reun": 8066,
      "alf": 8067,
      "albert": 8068,
      "aligned": 8069,
      "alignment": 8070,
      "##iveness": 8071,
      "##imoto": 8072,
      "##leans": 8073,
      "##idg": 8074,
      "##idas": 8075,
      "##cha": 8076,
      "##cht": 8077,
      "##che": 8078,
      "##ched": 8079,
      "bears": 8080,
      "beats": 8081,
      "ank": 8082,
      "##owicz": 8083,
      "shift": 8084,
      "shirt": 8085,
      "##ersed": 8086,
      "hear": 8087,
      "##utch": 8088,
      "##ema": 8089,
      "##emet": 8090,
      "##ules": 8091,
      "##ulamium": 8092,
      "isot": 8093,
      "chak": 8094,
      "chure": 8095,
      "chances": 8096,
      "chester": 8097,
      "chorus": 8098,
      "##osene": 8099,
      "##agl": 8100,
      "##agur": 8101,
      "seize": 8102,
      "sega": 8103,
      "##odz": 8104,
      "##oded": 8105,
      "dean": 8106,
      "comfort": 8107,
      "suitable": 8108,
      "procl": 8109,
      "##ppen": 8110,
      "plate": 8111,
      "##ocalyp": 8112,
      "nee": 8113,
      "neil": 8114,
      "##rik": 8115,
      "##uns": 8116,
      "##unction": 8117,
      "orleans": 8118,
      "exter": 8119,
      "exile": 8120,
      "exists": 8121,
      "##ifa": 8122,
      "##opes": 8123,
      "##opular": 8124,
      "unw": 8125,
      "unst": 8126,
      "unoff": 8127,
      "unha": 8128,
      "##akh": 8129,
      "spor": 8130,
      "spines": 8131,
      "spots": 8132,
      "spher": 8133,
      "spending": 8134,
      "recall": 8135,
      "recip": 8136,
      "##aples": 8137,
      "hadji": 8138,
      "##ogly": 8139,
      "##artet": 8140,
      "##iah": 8141,
      "##iph": 8142,
      "prince": 8143,
      "##oven": 8144,
      "##ovic": 8145,
      "closing": 8146,
      "alloys": 8147,
      "allenton": 8148,
      "allotrop": 8149,
      "##ourt": 8150,
      "##ources": 8151,
      "##ello": 8152,
      "twentieth": 8153,
      "worthing": 8154,
      "feeding": 8155,
      "relie": 8156,
      "relating": 8157,
      "relative": 8158,
      "releg": 8159,
      "##quay": 8160,
      "perception": 8161,
      "afterward": 8162,
      "afterwards": 8163,
      "science": 8164,
      "scrap": 8165,
      "abd": 8166,
      "abol": 8167,
      "mann": 8168,
      "manner": 8169,
      "amn": 8170,
      "ample": 8171,
      "carr": 8172,
      "carvings": 8173,
      "intense": 8174,
      "gobre": 8175,
      "commem": 8176,
      "indus": 8177,
      "indire": 8178,
      "desper": 8179,
      "residents": 8180,
      "resources": 8181,
      "##phis": 8182,
      "filed": 8183,
      "filkins": 8184,
      "imam": 8185,
      "183": 8186,
      "18th": 8187,
      "disl": 8188,
      "repet": 8189,
      "reporter": 8190,
      "albion": 8191,
      "uss": 8192,
      "##iza": 8193,
      "##izer": 8194,
      "mushroom": 8195,
      "uprising": 8196,
      "recordings": 8197,
      "earning": 8198,
      "finest": 8199,
      "financed": 8200,
      "overth": 8201,
      "overpass": 8202,
      "fled": 8203,
      "flesh": 8204,
      "decorated": 8205,
      "prefer": 8206,
      "regim": 8207,
      "compelled": 8208,
      "compreh": 8209,
      "blow": 8210,
      "blog": 8211,
      "##ease": 8212,
      "##eastern": 8213,
      "coff": 8214,
      "cobra": 8215,
      "minerv": 8216,
      "remind": 8217,
      "reminisc": 8218,
      "interior": 8219,
      "interchang": 8220,
      "charitable": 8221,
      "attending": 8222,
      "genu": 8223,
      "consort": 8224,
      "##ensis": 8225,
      "##ensions": 8226,
      "##enska": 8227,
      "acted": 8228,
      "acres": 8229,
      "ackn": 8230,
      "bunder": 8231,
      "buff": 8232,
      "roy": 8233,
      "acceler": 8234,
      "accidents": 8235,
      "##aceous": 8236,
      "product": 8237,
      "publishing": 8238,
      "reverse": 8239,
      "revenue": 8240,
      "suburb": 8241,
      "##awit": 8242,
      "armia": 8243,
      "impressed": 8244,
      "centers": 8245,
      "centered": 8246,
      "##ailed": 8247,
      "sym": 8248,
      "embod": 8249,
      "devolved": 8250,
      "##issipp": 8251,
      "depression": 8252,
      "starter": 8253,
      "genera": 8254,
      "sox": 8255,
      "peak": 8256,
      "metric": 8257,
      "artef": 8258,
      "northward": 8259,
      "supplement": 8260,
      "##onset": 8261,
      "defend": 8262,
      "defined": 8263,
      "varied": 8264,
      "ell": 8265,
      "elabor": 8266,
      "obl": 8267,
      "obtain": 8268,
      "numbered": 8269,
      "parcel": 8270,
      "egyptologist": 8271,
      "joh": 8272,
      "southend": 8273,
      "guards": 8274,
      "studios": 8275,
      "expect": 8276,
      "expression": 8277,
      "##inska": 8278,
      "christopher": 8279,
      "invent": 8280,
      "##orns": 8281,
      "incomp": 8282,
      "incompl": 8283,
      "rocks": 8284,
      "transported": 8285,
      "movies": 8286,
      "weighed": 8287,
      "descent": 8288,
      "brad": 8289,
      "brush": 8290,
      "##rency": 8291,
      "estanol": 8292,
      "publicity": 8293,
      "critically": 8294,
      "pointed": 8295,
      "maintaining": 8296,
      "ownership": 8297,
      "##kyl": 8298,
      "caps": 8299,
      "1927": 8300,
      "1922": 8301,
      "##ahan": 8302,
      "origins": 8303,
      "terror": 8304,
      "originated": 8305,
      "collins": 8306,
      "portions": 8307,
      "portray": 8308,
      "portraying": 8309,
      "barb": 8310,
      "##aucas": 8311,
      "quartet": 8312,
      "quonset": 8313,
      "151": 8314,
      "positively": 8315,
      "describe": 8316,
      "describes": 8317,
      "myst": 8318,
      "demanded": 8319,
      "postwar": 8320,
      "simple": 8321,
      "sixty": 8322,
      "##fully": 8323,
      "succession": 8324,
      "johnny": 8325,
      "downed": 8326,
      "download": 8327,
      "idol": 8328,
      "medical": 8329,
      "12th": 8330,
      "distant": 8331,
      "distributed": 8332,
      "childhood": 8333,
      "annually": 8334,
      "avo": 8335,
      "glasgow": 8336,
      "##ashed": 8337,
      "differed": 8338,
      "openly": 8339,
      "missiles": 8340,
      "mississipp": 8341,
      "1958": 8342,
      "complaint": 8343,
      "excavated": 8344,
      "heavier": 8345,
      "propeller": 8346,
      "flex": 8347,
      "178": 8348,
      "17th": 8349,
      "augmented": 8350,
      "delays": 8351,
      "delhi": 8352,
      "easily": 8353,
      "characteristic": 8354,
      "1977": 8355,
      "activists": 8356,
      "reviewer": 8357,
      "augustus": 8358,
      "concerning": 8359,
      "destination": 8360,
      "modified": 8361,
      "profit": 8362,
      "profile": 8363,
      "provision": 8364,
      "providing": 8365,
      "trading": 8366,
      "teleg": 8367,
      "triana": 8368,
      "periodic": 8369,
      "periodically": 8370,
      "approval": 8371,
      "##erves": 8372,
      "salt": 8373,
      "goalkeeper": 8374,
      "calendar": 8375,
      "confusion": 8376,
      "advice": 8377,
      "militia": 8378,
      "##shaven": 8379,
      "naturally": 8380,
      "sounds": 8381,
      "protecting": 8382,
      "presses": 8383,
      "pressing": 8384,
      "aerob": 8385,
      "swe": 8386,
      "sweep": 8387,
      "establishing": 8388,
      "bandmates": 8389,
      "edward": 8390,
      "eddie": 8391,
      "lowest": 8392,
      "midst": 8393,
      "sb2": 8394,
      "sbcl": 8395,
      "politiqu": 8396,
      "initiated": 8397,
      "churches": 8398,
      "presentation": 8399,
      "furthermore": 8400,
      "puri": 8401,
      "1967": 8402,
      "1962": 8403,
      "helps": 8404,
      "lineup": 8405,
      "1864": 8406,
      "1860": 8407,
      "replied": 8408,
      "columns": 8409,
      "labelled": 8410,
      "wald": 8411,
      "##obe": 8412,
      "##obi": 8413,
      "femin": 8414,
      "masters": 8415,
      "convention": 8416,
      "solar": 8417,
      "vienn": 8418,
      "##oxonium": 8419,
      "amongst": 8420,
      "comedic": 8421,
      "equated": 8422,
      "240": 8423,
      "cruise": 8424,
      "certification": 8425,
      "certifications": 8426,
      "senjo": 8427,
      "error": 8428,
      "##araja": 8429,
      "hunter": 8430,
      "memphis": 8431,
      "possibly": 8432,
      "torquay": 8433,
      "strait": 8434,
      "expert": 8435,
      "experiment": 8436,
      "crimes": 8437,
      "housefull": 8438,
      "exploded": 8439,
      "canadiens": 8440,
      "fifty": 8441,
      "oxides": 8442,
      "oxidation": 8443,
      "storyt": 8444,
      "storylines": 8445,
      "frontier": 8446,
      "##isticated": 8447,
      "fernando": 8448,
      "sanjeev": 8449,
      "everyone": 8450,
      "civilization": 8451,
      "killing": 8452,
      "driv": 8453,
      "dratch": 8454,
      "persist": 8455,
      "summary": 8456,
      "connections": 8457,
      "streets": 8458,
      "illino": 8459,
      "potentially": 8460,
      "maturity": 8461,
      "broadly": 8462,
      "identify": 8463,
      "panels": 8464,
      "sulfides": 8465,
      "sulfoxonium": 8466,
      "##ontium": 8467,
      "anglo": 8468,
      "violated": 8469,
      "copy": 8470,
      "hoping": 8471,
      "honour": 8472,
      "honors": 8473,
      "mixing": 8474,
      "##ficial": 8475,
      "needs": 8476,
      "goods": 8477,
      "1887": 8478,
      "1885": 8479,
      "1884": 8480,
      "1880": 8481,
      "balloon": 8482,
      "grows": 8483,
      "turb": 8484,
      "volley": 8485,
      "1878": 8486,
      "intervention": 8487,
      "moor": 8488,
      "reading": 8489,
      "superv": 8490,
      "superior": 8491,
      "arkadelphia": 8492,
      "drawing": 8493,
      "fields": 8494,
      "praise": 8495,
      "villain": 8496,
      "policing": 8497,
      "declaring": 8498,
      "davies": 8499,
      "mcgur": 8500,
      "commissioner": 8501,
      "commissioning": 8502,
      "350": 8503,
      "shootout": 8504,
      "envision": 8505,
      "hungary": 8506,
      "garrison": 8507,
      "satirical": 8508,
      "processions": 8509,
      "employing": 8510,
      "bombers": 8511,
      "ramanagara": 8512,
      "technology": 8513,
      "technique": 8514,
      "lacks": 8515,
      "languages": 8516,
      "arrival": 8517,
      "unless": 8518,
      "diaster": 8519,
      "palace": 8520,
      "verulamium": 8521,
      "##ommun": 8522,
      "1898": 8523,
      "literal": 8524,
      "autobi": 8525,
      "camden": 8526,
      "cameras": 8527,
      "dancing": 8528,
      "ideology": 8529,
      "fungi": 8530,
      "entirely": 8531,
      "benz": 8532,
      "renov": 8533,
      "treasure": 8534,
      "theatre": 8535,
      "removal": 8536,
      "gradually": 8537,
      "reduction": 8538,
      "francisc": 8539,
      "situations": 8540,
      "detailed": 8541,
      "260": 8542,
      "crosses": 8543,
      "donation": 8544,
      "escorted": 8545,
      "fallen": 8546,
      "scream": 8547,
      "mexican": 8548,
      "premier": 8549,
      "lifestyle": 8550,
      "microscopic": 8551,
      "convert": 8552,
      "properties": 8553,
      "travelled": 8554,
      "programme": 8555,
      "celtics": 8556,
      "payments": 8557,
      "##ophil": 8558,
      "1844": 8559,
      "charleston": 8560,
      "accessible": 8561,
      "safe": 8562,
      "laborers": 8563,
      "memorable": 8564,
      "costume": 8565,
      "dunn": 8566,
      "judg": 8567,
      "judge": 8568,
      "keith": 8569,
      "krajowa": 8570,
      "quarry": 8571,
      "clearly": 8572,
      "reflect": 8573,
      "reflected": 8574,
      "colorado": 8575,
      "jerry": 8576,
      "kerosene": 8577,
      "dissanay": 8578,
      "greenaway": 8579,
      "76ers": 8580,
      "baham": 8581,
      "bahrain": 8582,
      "keyboards": 8583,
      "pleased": 8584,
      "raven": 8585,
      "adopt": 8586,
      "acquire": 8587,
      "categor": 8588,
      "daughters": 8589,
      "gallia": 8590,
      "horns": 8591,
      "hindman": 8592,
      "linking": 8593,
      "rarity": 8594,
      "indicating": 8595,
      "pennsylvanian": 8596,
      "balagu": 8597,
      "draped": 8598,
      "diamond": 8599,
      "festivals": 8600,
      "happy": 8601,
      "keeping": 8602,
      "keepers": 8603,
      "pictures": 8604,
      "tendagur": 8605,
      "assembly": 8606,
      "metallica": 8607,
      "graduating": 8608,
      "odd": 8609,
      "waist": 8610,
      "platform": 8611,
      "emphasis": 8612,
      "emphasized": 8613,
      "struggled": 8614,
      "struggling": 8615,
      "dialogue": 8616,
      "punish": 8617,
      "wanting": 8618,
      "learning": 8619,
      "surprising": 8620,
      "opinions": 8621,
      "elevated": 8622,
      "extremely": 8623,
      "substitute": 8624,
      "breaking": 8625,
      "luis": 8626,
      "molecular": 8627,
      "wyoming": 8628,
      "wearing": 8629,
      "innoc": 8630,
      "uncertain": 8631,
      "clothing": 8632,
      "preparing": 8633,
      "mariah": 8634,
      "patrons": 8635,
      "farmland": 8636,
      "screenplay": 8637,
      "censored": 8638,
      "censorship": 8639,
      "miracle": 8640,
      "omaha": 8641,
      "thrash": 8642,
      "stibnite": 8643,
      "shaft": 8644,
      "spirit": 8645,
      "spectrum": 8646,
      "disappear": 8647,
      "seriously": 8648,
      "marketing": 8649,
      "jointly": 8650,
      "suspected": 8651,
      "reinforce": 8652,
      "bonding": 8653,
      "tuning": 8654,
      "inhabit": 8655,
      "concealed": 8656,
      "concepts": 8657,
      "segontium": 8658,
      "amendments": 8659,
      "attract": 8660,
      "hydrogen": 8661,
      "behavior": 8662,
      "progressive": 8663,
      "turkey": 8664,
      "encouraging": 8665,
      "sequel": 8666,
      "sequence": 8667,
      "antoni": 8668,
      "antonio": 8669,
      "remixed": 8670,
      "substrates": 8671,
      "licensed": 8672,
      "cartrid": 8673,
      "brahma": 8674,
      "cubs": 8675,
      "hierogly": 8676,
      "message": 8677,
      "oste": 8678,
      "ronald": 8679,
      "sophisticated": 8680,
      "utah": 8681,
      "prospect": 8682,
      "adjusted": 8683,
      "resignation": 8684,
      "minimum": 8685,
      "brandon": 8686,
      "melodram": 8687,
      "bronze": 8688,
      "banner": 8689,
      "bannawit": 8690,
      "dynam": 8691,
      "munitions": 8692,
      "pitlake": 8693,
      "wisniewski": 8694,
      "shinawat": 8695,
      "##umbered": 8696,
      "sponsored": 8697,
      "undertake": 8698,
      "remembered": 8699,
      "implemented": 8700,
      "defenseman": 8701,
      "helicopter": 8702,
      "helicopters": 8703,
      "limitations": 8704,
      "framework": 8705,
      "catalyst": 8706,
      "catalytic": 8707,
      "athletes": 8708,
      "olympic": 8709,
      "olympics": 8710,
      "dangerous": 8711,
      "erected": 8712,
      "gasar": 8713,
      "oriented": 8714,
      "riga": 8715,
      "whitish": 8716,
      "unpopular": 8717,
      "scotland": 8718,
      "demolition": 8719,
      "deliberate": 8720,
      "requirements": 8721,
      "temperature": 8722,
      "jacqueline": 8723,
      "brutality": 8724,
      "dawn": 8725,
      "koreanus": 8726,
      "moment": 8727,
      "rotation": 8728,
      "sabres": 8729,
      "sakimoto": 8730,
      "veteran": 8731,
      "władysław": 8732,
      "chaluky": 8733,
      "prolific": 8734,
      "##operidium": 8735,
      "upgrade": 8736,
      "regurgitation": 8737,
      "populace": 8738,
      "patriotic": 8739,
      "aeroplane": 8740,
      "frigate": 8741,
      "conveyed": 8742,
      "pantheon": 8743,
      "predecessors": 8744,
      "instrumentation": 8745,
      "renewed": 8746,
      "##ehyde": 8747,
      "pleasure": 8748,
      "dorset": 8749,
      "dennis": 8750,
      "hawkes": 8751,
      "jupiter": 8752,
      "kilomet": 8753,
      "psych": 8754,
      "pupp": 8755,
      "pageant": 8756,
      "stroke": 8757,
      "##ayanam": 8758,
      "uniform": 8759,
      "clusters": 8760,
      "perceived": 8761,
      "abundance": 8762,
      "mansfield": 8763,
      "flotilla": 8764,
      "blazers": 8765,
      "mineral": 8766,
      "outlined": 8767,
      "saurophag": 8768,
      "calamity": 8769,
      "curtis": 8770,
      "motifs": 8771,
      "substantial": 8772,
      "nucleophil": 8773,
      "buddhist": 8774,
      "omnisc": 8775,
      "decommissioned": 8776,
      "cessna": 8777,
      "crisis": 8778,
      "cambridge": 8779,
      "fantasy": 8780,
      "moshenska": 8781,
      "forbidden": 8782,
      "congregation": 8783,
      "leicester": 8784,
      "leafs": 8785,
      "carpenter": 8786,
      "decrease": 8787,
      "coyotes": 8788,
      "basidia": 8789,
      "expansion": 8790,
      "promulgated": 8791,
      "descriptions": 8792,
      "mainstream": 8793,
      "millennium": 8794,
      "triumph": 8795,
      "cruelty": 8796,
      "oxygen": 8797,
      "bhopali": 8798,
      "wilmington": 8799,
      "aziridines": 8800,
      "scrutiny": 8801,
      "sympathetic": 8802,
      "wilhelmshaven": 8803,
      "aesop": 8804,
      "bennett": 8805,
      "dagenham": 8806,
      "etym": 8807,
      "laverton": 8808,
      "nahant": 8809,
      "otranto": 8810,
      "taste": 8811,
      "tampa": 8812,
      "velocity": 8813,
      "andrzej": 8814,
      "ontario": 8815,
      "whatever": 8816,
      "##ocalypse": 8817,
      "unoffic": 8818,
      "gobrecht": 8819,
      "indirect": 8820,
      "preferring": 8821,
      "minerva": 8822,
      "reminiscent": 8823,
      "acknow": 8824,
      "artefacts": 8825,
      "incomplete": 8826,
      "mississippi": 8827,
      "politiquerias": 8828,
      "illinois": 8829,
      "mcgurk": 8830,
      "diastere": 8831,
      "balaguer": 8832,
      "cartridges": 8833,
      "shinawatra": 8834,
      "03": 8835,
      "04": 8836,
      "4o": 8837,
      "68": 8838,
      "aunt": 8839,
      "akhen": 8840,
      "bord": 8841,
      "bell": 8842,
      "bub": 8843,
      "bath": 8844,
      "bark": 8845,
      "bres": 8846,
      "bigg": 8847,
      "bipl": 8848,
      "billy": 8849,
      "cis": 8850,
      "cec": 8851,
      "cly": 8852,
      "cow": 8853,
      "cun": 8854,
      "cure": 8855,
      "craft": 8856,
      "crop": 8857,
      "cash": 8858,
      "cemet": 8859,
      "dw": 8860,
      "dent": 8861,
      "dim": 8862,
      "diet": 8863,
      "ek": 8864,
      "ecc": 8865,
      "eros": 8866,
      "erod": 8867,
      "fu": 8868,
      "furn": 8869,
      "food": 8870,
      "fighters": 8871,
      "gal": 8872,
      "gand": 8873,
      "gain": 8874,
      "gri": 8875,
      "gale": 8876,
      "gets": 8877,
      "gau": 8878,
      "glyn": 8879,
      "hou": 8880,
      "het": 8881,
      "hog": 8882,
      "hub": 8883,
      "hans": 8884,
      "hole": 8885,
      "hai": 8886,
      "hms": 8887,
      "hara": 8888,
      "ic": 8889,
      "ica": 8890,
      "iifa": 8891,
      "jaw": 8892,
      "jenn": 8893,
      "jaya": 8894,
      "jorge": 8895,
      "kle": 8896,
      "kot": 8897,
      "kap": 8898,
      "kub": 8899,
      "kee": 8900,
      "korn": 8901,
      "kobe": 8902,
      "lw": 8903,
      "li": 8904,
      "les": 8905,
      "las": 8906,
      "liv": 8907,
      "lig": 8908,
      "lud": 8909,
      "liz": 8910,
      "lamp": 8911,
      "lists": 8912,
      "lank": 8913,
      "lanes": 8914,
      "lanc": 8915,
      "mick": 8916,
      "mouse": 8917,
      "mallow": 8918,
      "nh": 8919,
      "nag": 8920,
      "nour": 8921,
      "nass": 8922,
      "nuj": 8923,
      "nca": 8924,
      "oy": 8925,
      "oath": 8926,
      "odess": 8927,
      "ola": 8928,
      "oval": 8929,
      "owing": 8930,
      "pel": 8931,
      "pec": 8932,
      "pad": 8933,
      "ply": 8934,
      "pond": 8935,
      "pose": 8936,
      "pace": 8937,
      "pool": 8938,
      "pover": 8939,
      "rent": 8940,
      "rak": 8941,
      "rog": 8942,
      "rach": 8943,
      "rome": 8944,
      "risk": 8945,
      "sult": 8946,
      "sony": 8947,
      "sang": 8948,
      "sections": 8949,
      "session": 8950,
      "sessions": 8951,
      "tent": 8952,
      "tong": 8953,
      "tap": 8954,
      "tear": 8955,
      "tended": 8956,
      "tested": 8957,
      "traw": 8958,
      "telling": 8959,
      "uph": 8960,
      "vast": 8961,
      "vick": 8962,
      "ww": 8963,
      "wir": 8964,
      "wim": 8965,
      "wake": 8966,
      "ya": 8967,
      "yam": 8968,
      "yout": 8969,
      "zen": 8970,
      "zel": 8971,
      "zeal": 8972,
      "のウ": 8973,
      "##aan": 8974,
      "##ailles": 8975,
      "##taceous": 8976,
      "##oarch": 8977,
      "##sw": 8978,
      "##ses": 8979,
      "##ships": 8980,
      "##zo": 8981,
      "##zan": 8982,
      "##zky": 8983,
      "##ea": 8984,
      "##eit": 8985,
      "##eur": 8986,
      "##eke": 8987,
      "##west": 8988,
      "##water": 8989,
      "##weal": 8990,
      "##kl": 8991,
      "##kal": 8992,
      "##kill": 8993,
      "##ien": 8994,
      "##nat": 8995,
      "##nal": 8996,
      "##nish": 8997,
      "##night": 8998,
      "##nik": 8999,
      "##nead": 9000,
      "##rz": 9001,
      "##rh": 9002,
      "##rin": 9003,
      "##rent": 9004,
      "##run": 9005,
      "##rings": 9006,
      "##mal": 9007,
      "##mith": 9008,
      "##mate": 9009,
      "##mons": 9010,
      "##uan": 9011,
      "##uly": 9012,
      "##uild": 9013,
      "##uang": 9014,
      "##uah": 9015,
      "##cities": 9016,
      "##cised": 9017,
      "##cement": 9018,
      "##cially": 9019,
      "##csen": 9020,
      "##coming": 9021,
      "##capes": 9022,
      "##xus": 9023,
      "##yg": 9024,
      "##yers": 9025,
      "##h5": 9026,
      "##hot": 9027,
      "##here": 9028,
      "##hear": 9029,
      "##house": 9030,
      "##lance": 9031,
      "##lau": 9032,
      "##laces": 9033,
      "##bour": 9034,
      "##burg": 9035,
      "##pe": 9036,
      "##pear": 9037,
      "##power": 9038,
      "##pool": 9039,
      "##poned": 9040,
      "##de": 9041,
      "##ded": 9042,
      "##dec": 9043,
      "##dell": 9044,
      "##deep": 9045,
      "##gon": 9046,
      "##gent": 9047,
      "##gear": 9048,
      "##gost": 9049,
      "##gets": 9050,
      "##gren": 9051,
      "##gau": 9052,
      "##guns": 9053,
      "##3sb": 9054,
      "##fis": 9055,
      "##feld": 9056,
      "##friend": 9057,
      "##function": 9058,
      "##ju": 9059,
      "##jan": 9060,
      "##jid": 9061,
      "##τι": 9062,
      "##ァル": 9063,
      "##キュ": 9064,
      "##リア": 9065,
      "thist": 9066,
      "thorns": 9067,
      "thebes": 9068,
      "##erable": 9069,
      "##ercised": 9070,
      "##inating": 9071,
      "##ona": 9072,
      "##onal": 9073,
      "##onton": 9074,
      "##atan": 9075,
      "##atist": 9076,
      "##atics": 9077,
      "##atures": 9078,
      "##escope": 9079,
      "##arves": 9080,
      "inhib": 9081,
      "inclusion": 9082,
      "##encing": 9083,
      "##iti": 9084,
      "##itis": 9085,
      "##itating": 9086,
      "##itarian": 9087,
      "##itoba": 9088,
      "##ancing": 9089,
      "##anjo": 9090,
      "##alato": 9091,
      "##isations": 9092,
      "##isons": 9093,
      "##asters": 9094,
      "topp": 9095,
      "##icing": 9096,
      "##icating": 9097,
      "##rown": 9098,
      "##rooted": 9099,
      "##rocities": 9100,
      "##ioners": 9101,
      "##elor": 9102,
      "##elle": 9103,
      "##ilised": 9104,
      "##ecution": 9105,
      "##enti": 9106,
      "##entful": 9107,
      "##stri": 9108,
      "##stant": 9109,
      "##stock": 9110,
      "##stown": 9111,
      "##thoff": 9112,
      "##thrie": 9113,
      "##adi": 9114,
      "##ador": 9115,
      "##adito": 9116,
      "##amor": 9117,
      "##omal": 9118,
      "##omore": 9119,
      "##omeric": 9120,
      "##ura": 9121,
      "##eters": 9122,
      "##etzky": 9123,
      "forec": 9124,
      "forested": 9125,
      "foreh": 9126,
      "stere": 9127,
      "stip": 9128,
      "stained": 9129,
      "stood": 9130,
      "stimm": 9131,
      "staples": 9132,
      "##irk": 9133,
      "##iri": 9134,
[...]
