[UNK]
[PAD]
[CLS]
[SEP]
[MASK]
!
"
#
$
%
&
'
(
)
*
+
,
-
.
/
0
1
2
3
4
5
6
7
8
9
:
;
<
=
?
@
[
]
^
a
b
c
d
e
f
g
h
i
j
k
l
m
n
o
p
q
r
s
t
u
v
w
x
y
z
~
£
°
²
µ
º
×
ß
æ
đ
ł
ɪ
α
β
γ
δ
ε
η
θ
ι
μ
ν
ο
ρ
ς
σ
τ
υ
χ
а
в
з
и
к
н
р
с
ы
ا
ت
ث
د
س
م
ي
ก
ค
ง
ช
ซ
ญ
ฐ
ณ
ด
ต
บ
ป
พ
ภ
ม
ย
ร
ล
ว
ศ
ษ
ส
ห
อ
า
เ
แ
ไ
–
—
‘
’
“
”
†
‡
…
⁄
₤
₹
→
−
い
う
か
き
く
し
た
つ
な
の
め
も
ら
ァ
ア
ウ
キ
ュ
リ
ル
乙
光
名
君
命
咲
場
女
戦
灯
瘡
花
誓
誰
赤
運
銃
願
３
##a
##t
##o
##s
##z
##e
##w
##k
##i
##n
##r
##m
##u
##c
##x
##v
##y
##7
##h
##l
##b
##p
##d
##つ
##か
##g
##3
##f
##ł
##9
##8
##6
##5
##1
##4
##j
##q
##0
##ν
##τ
##ι
##μ
##ο
##ς
##ภ
##า
##ด
##2
##đ
##ร
##な
##き
##β
##พ
##ล
##ย
##ณ
##ม
##ต
##α
##ウ
##ァ
##ル
##キ
##ュ
##リ
##ア
##р
##а
##с
##н
##ы
##и
##ث
##م
##د
##เ
##ป
##อ
##ก
##ว
##ษ
##ฐ
##し
##も
##в
##к
##з
##γ
##ρ
##た
##め
##の
##ค
##ซ
##ي
##س
##ت
##ง
##ไ
##ช
##θ
##η
##ε
##ɪ
##แ
##ß
##º
##ら
##３
##χ
th
the
##er
##in
##ed
##on
##nd
##or
##at
##es
##ar
in
##en
of
##it
##an
##al
##is
##ing
##as
and
to
##ic
##ro
##ion
##re
##ou
##el
##il
##ec
##ol
##ent
##st
##th
##ad
was
##am
##om
on
##ur
##et
for
st
##ac
##ir
as
wh
re
##ly
al
##ith
##iv
##im
##le
##id
##ig
##ay
##ter
with
##ation
##ch
be
that
##ot
an
##ow
sh
##ers
he
##ut
##em
##um
##ul
##us
at
##ts
by
con
19
is
ch
##os
his
##av
##ver
##ere
##rom
##ag
##ce
##and
##ain
se
##ted
##od
de
##ies
20
com
su
pro
##pp
it
##ess
ar
were
from
##ct
##ra
##ish
pl
##oc
##ist
##est
ne
##ord
##ri
##un
##igh
or
ex
##if
##ich
##all
##op
le
##se
##ate
##ber
##ated
##ill
##ab
##ame
##ard
##gh
un
##ak
##ld
tr
sp
##ong
##ity
rec
##ap
had
##ther
##ian
##ear
##ud
##og
##rit
##rou
which
##ore
##ect
##art
are
##ia
##ort
##ial
##ive
##ost
##ip
pr
##ue
##ov
not
en
##ie
cl
all
af
##our
##pt
##ack
##ment
##ru
##ell
##ary
tw
##ant
##ave
200
her
wor
fe
this
##so
##ast
##out
##cc
##ine
also
rel
fir
##ical
their
pol
##qu
##ust
##ge
per
##pl
after
##ach
play
sc
##ure
##ight
##ub
##oll
##ign
ad
she
##ition
##ide
new
tim
cont
##wn
##ome
first
bo
##ous
one
##man
ab
201
##ath
##cl
##ould
man
am
two
car
int
##end
go
##ason
##ater
##ass
comm
its
year
##ough
##oin
ind
app
but
des
res
##ond
##ire
##oun
ag
has
##du
##ound
##ations
##uring
te
##00
##ree
off
##ph
##ark
##ran
air
##ans
fil
im
##per
##ok
who
##old
##nder
18
they
have
##ory
##ock
been
dis
##ely
god
rep
film
##ff
##own
##ual
alb
us
##ember
season
##iz
bec
##ence
album
mus
part
me
up
##act
##ities
##ile
record
##olog
ear
fin
sec
time
##ade
##ions
over
##ron
fl
under
##age
##ry
##ult
##ced
act
during
##ited
##ents
dec
##clud
ser
##ft
##ied
form
pre
##ib
reg
other
comp
##ordan
bl
##eas
co
jordan
ev
min
ass
ant
bas
war
rem
inter
char
##for
out
##ite
mon
team
more
##ric
them
##ose
aw
includ
brit
most
##ey
##ance
att
##ubl
199
him
game
##round
arch
##les
##fer
gen
##gan
whe
##ious
spec
##ice
##ik
work
nor
##ae
##ee
cons
##ens
##urn
into
high
##ces
##ors
##rough
no
some
##res
##ild
ac
releas
bu
##eler
end
ret
##reat
ro
##ork
four
##ally
##oss
##able
##ings
acc
##als
##ace
##ular
produ
wheeler
##ony
##ction
second
kn
sch
there
only
ma
publ
##eld
when
rev
##ved
##ull
sub
would
##ix
##rib
can
three
##one
town
##aeolog
ph
##aw
##hip
##ick
while
archaeolog
##ered
arm
imp
cent
again
##ail
##ates
num
mar
sur
win
##een
##ames
later
sy
##ished
em
sou
##land
inst
dev
bet
being
##ational
through
##erson
these
gods
long
may
##tle
music
sm
##ters
##iss
ger
many
song
dep
british
##ning
##ress
##ards
star
gener
german
writ
such
col
##ollow
follow
york
sever
pres
##eer
##red
##ang
about
so
hist
au
made
##fore
where
##ake
how
##son
##gy
##ict
antim
##air
pe
##iet
##iew
dire
##ays
ship
lead
bro
met
than
art
##raft
##form
nov
polish
north
000
##rist
supp
bat
sign
##ons
##up
world
sing
def
var
##ween
##though
although
before
##send
##ike
between
div
townsend
el
##ower
##ised
##ount
ob
##led
bel
do
lar
oper
then
##ros
##ague
both
number
##tern
years
##hn
##ily
##ained
several
egy
par
##ten
egypt
back
jo
sa
##ern
##amp
198
##rop
used
south
antimony
fur
gu
##ating
stud
191
exp
eng
early
##te
##ood
##ins
##ived
christ
lo
well
inv
##ists
##row
194
prom
##sp
##orn
##elf
##aus
##ield
##ral
##ale
##ected
became
lit
##ba
##dition
inc
league
val
state
##ific
mark
rock
##ool
began
trans
disc
sl
##ys
##ets
##ever
class
direct
mov
we
##fl
##eric
##ind
##its
desc
offic
dif
##other
##ball
##ute
appear
could
##az
br
gr
gold
##ren
scor
charac
cre
est
pop
##ject
rece
fey
public
##emb
released
against
crit
poin
##osed
united
ap
loc
main
known
best
found
own
##ision
##ics
##ife
##ty
ord
##oot
##ky
##ures
career
call
cap
192
gover
##ized
school
city
hum
##craft
##ank
##ise
##amed
americ
red
##ah
##ery
##reas
##ired
orig
however
ter
though
193
feat
design
aircraft
return
##io
including
govern
like
##ional
##ury
##aining
mil
op
##ier
##rum
##ck
const
near
mill
set
##ve
##rol
##elop
##ided
history
origin
coll
port
##ting
##ism
plan
##ccess
contin
bar
##mas
##roup
following
10
##au
##iation
##atch
##aking
series
develop
gre
ra
##way
##ues
##ines
deities
doll
national
##ole
group
qu
##ton
##ued
exc
egyptian
15
games
pos
##yp
##gg
##ured
##ural
##ement
book
describ
each
fran
home
my
##aged
##ather
small
dem
post
sim
six
##ful
##orted
ste
##ivers
show
head
##osa
success
repres
species
build
general
dollar
ga
gun
jun
##omin
##emp
peop
john
down
id
med
occ
soc
##ects
november
christmas
##oy
thir
any
##ially
##athan
hal
ii
##ert
##ince
tow
top
##eter
states
along
##aves
played
prev
##ross
12
dist
fam
five
ross
same
squ
##ime
##raph
resp
##ause
people
ele
great
nathan
wee
##ew
##ium
str
child
cult
jan
king
oct
rout
##uj
##ides
ann
##rang
maj
little
person
will
##ution
2013
said
million
av
did
day
##ev
##ground
##els
another
30
count
gl
power
##ash
command
differ
coin
##are
open
mor
vide
west
##ative
##ently
iss
##pped
partic
received
called
represent
miss
##iva
addition
##iety
dam
giv
named
##ober
##ned
##ril
##ility
##urch
195
compl
left
##ible
excav
week
october
hy
mu
nba
##ai
##ilt
##oman
shiva
heav
prop
organ
##ruction
##ually
consid
route
11
fle
##hl
project
##ments
serv
syn
17
hel
hand
youn
##field
infl
##aced
sev
##illo
univers
##ograph
##ended
india
award
aug
april
described
young
ge
place
truj
single
major
13
aust
del
eas
foot
pat
sk
since
##0s
stru
ext
2007
belie
character
trujillo
mad
use
##side
##ones
##orts
197
club
third
took
activ
even
american
##ris
##und
perform
release
review
august
bull
east
eff
life
##ki
##cted
##xt
##ots
conc
##ified
contr
december
assoc
included
increas
squad
dest
eu
fun
just
mod
opp
##uary
##isted
short
prof
##ection
##ove
larg
government
video
ever
sap
typ
##til
##iod
those
##enn
prov
trad
##ption
because
human
tel
tri
##over
##ead
##con
##cial
##ange
##read
within
2006
##ically
player
position
around
name
##oth
anderson
stand
##uss
track
period
appro
based
army
june
half
nav
pass
site
you
##ient
##erv
##ase
tot
##ret
ent
control
ships
list
run
sal
won
##eum
##ina
##ane
##reak
##ively
##ains
sept
##abl
goal
monum
fleet
cal
light
##port
##ined
##ident
conf
##aving
##raf
adv
museum
accord
auth
director
milit
influ
saprang
september
cor
cour
ju
now
uk
##sh
##bo
##ately
##ared
away
built
##osaur
previous
nat
sound
wro
##ention
##ado
island
prot
press
building
family
europ
according
aer
fly
fig
land
pil
rest
role
sw
sit
##sen
##mb
##ink
##roy
##ley
sugg
black
produced
throughout
establ
complet
much
band
ed
jack
join
##off
##ram
##ann
times
commer
final
instit
obs
order
january
wrote
low
mid
mag
sb
##ested
##ister
##omen
react
until
area
polit
perfor
##ached
desp
military
performan
25
due
led
lim
lond
##yal
##gal
init
beh
##ulf
church
##ria
month
published
archaeology
archaeological
present
support
further
promot
original
different
london
bill
came
fr
make
pur
##ford
##ene
often
##ouse
what
real
ali
196
deb
##thern
2010
commun
help
squadron
14
cir
hol
held
line
old
roman
vis
##co
stated
2011
indian
186
march
operations
points
europe
##tado
##eal
##ble
##graf
stat
##uted
##pping
relig
awards
furtado
markgraf
scored
##embers
author
ep
if
la
right
way
##aim
##olay
repl
sholay
prim
noted
recorded
underground
colum
invol
particular
given
despite
lab
turn
wal
##ob
inch
##eng
sty
requ
##ages
next
##ried
enter
allow
result
##ront
songs
signed
bod
fem
late
last
mas
members
vers
##ms
##med
##ying
##itch
##amb
chart
blue
production
import
surv
battle
local
society
circ
free
##ring
##ha
##ars
##ilar
##adem
conv
seen
##ights
anti
base
academ
valky
16
eat
father
jew
km
match
sol
vi
women
##tain
##ox
##ner
##bru
##atic
##ences
##ices
##ott
death
among
batt
large
moved
returned
tower
profess
commercial
21
camp
hock
##yl
##ator
##atory
##stem
comed
never
febru
similar
february
cur
cup
equ
nhl
##self
beg
##raw
lev
2009
2008
former
system
considered
24
cat
cru
cert
ft
live
pri
sen
tro
tak
water
##af
##ez
##dom
##ances
forces
##cept
players
2012
britain
divine
construction
university
##osaurus
hockey
er
eight
having
rad
sel
sold
##ka
##ara
stor
start
police
goals
bulls
valkyria
eaton
hun
mem
poss
tor
##ep
##cy
##cer
stra
sun
arsen
exper
##oviet
reported
earth
cover
##ission
president
various
popular
cr
house
soviet
##iam
##ero
##rew
##enth
##thers
##ett
##ayer
##umm
expl
adm
2014
common
##duc
coach
intern
himself
##ferred
royal
canad
phil
##hips
histor
metal
critic
kingdom
country
cou
den
fif
fru
gir
ox
po
pi
tit
##sc
##ski
##ke
##ll
##par
##ests
##thing
still
story
##ploy
##ounds
films
##uals
##ensive
continued
excavation
contract
girl
cold
educ
front
mer
sent
take
voc
##ats
insp
##omb
without
should
##ulation
##used
deal
##istic
clark
##arker
central
century
football
destroy
columb
bus
cull
det
fair
mater
sil
##ward
##ves
##yn
##line
##ps
##ged
##ored
##estern
##arian
##omet
stones
##ives
##ival
##iving
come
##sequ
spe
few
appoin
upon
records
road
instead
point
occup
children
association
tradition
july
flying
days
far
fern
hour
men
night
pa
##her
##ling
##ds
##ata
##ison
force
leading
##augh
developed
telev
behind
fernand
100
age
civ
cut
fac
hold
mich
san
side
temp
vict
##eg
##ket
##xim
##hib
##ened
##enced
##icles
once
chron
##ief
##ples
playoff
manag
##ize
become
albums
earl
attack
special
across
depart
elect
scoring
guns
strong
every
clarkson
civil
caves
fire
kill
less
##ael
##ination
##eder
##arch
##ital
##ithic
##ivid
shot
190
training
priv
##anta
poland
add
individ
recording
subm
written
personal
commander
eastern
struck
activities
jackets
performance
important
cullen
material
23
barker
dr
fren
pers
sn
summ
ten
western
##app
##ving
##aries
##itted
station
stone
conn
##ogue
compet
event
events
writing
signific
iii
austral
cave
creat
fund
put
##work
##by
##iness
stre
##iver
##aying
sex
prog
ital
relations
indust
basket
discover
successful
hyg
madero
style
female
television
french
born
gave
hit
ill
james
pot
##cess
##han
##ham
##jects
##que
##iny
##str
stri
reached
##ither
##lear
##odrom
##bert
union
claim
allosaurus
##ourn
playing
operation
characters
believed
aerodrom
arsenal
50
fel
fav
hill
mat
making
tem
treat
##ior
##uc
##iting
tomb
##ico
##imes
##iding
suff
##ians
##igned
secret
regular
remained
##rict
revol
subsequ
broad
thought
ident
damage
institute
comedy
coldrum
fernandez
bur
hor
lat
others
pan
son
save
sulf
tra
wra
##ef
##ness
##bar
##ont
##isc
##iser
##idence
ang
##ush
comb
##riend
##aps
##play
carol
finished
regime
##ference
phot
started
colle
created
barrow
aviation
coins
navy
total
monument
observ
viol
columbus
appointed
private
cro
cop
domin
hop
mm
rich
wife
##aff
##ne
##reed
##ecut
shown
see
##ode
least
##ably
##aper
feet
appl
action
decided
archaeologist
impro
novel
development
performed
type
political
version
chronicles
basketball
wrapped
aver
ca
hon
journ
ll
loss
mass
mix
nec
went
##ken
##ience
##fic
inform
ref
shr
##ander
need
leg
##ells
##elling
2015
good
188
block
mint
remains
cultural
established
joined
reaction
purp
academy
professional
40
ball
break
dar
dou
fail
grow
har
hall
host
iron
ly
nar
tur
uran
vol
wol
##ship
##pted
##get
##ators
too
##ican
atl
##aint
##unch
##ops
recog
##ought
187
mean
meth
compan
interv
##ressed
followed
officers
appeared
damaged
holid
jewish
begin
fruit
piec
recogn
22
foc
friend
lost
mo
member
tre
very
##ked
##iers
##iber
##day
##int
##itt
##ants
##eless
##ament
##oming
staff
##aces
read
##utes
##osing
super
ark
##ape
##ective
using
finals
formed
region
minute
outside
schools
heavy
seven
##board
limited
community
international
cm
draft
draw
field
hard
lad
nomin
pra
ru
round
vill
word
##eb
##wood
##iated
##my
##dess
thak
ins
##olithic
##omp
white
##abbar
polic
decl
minor
attemp
southern
transport
official
estim
culture
figure
religious
body
battles
level
taken
michael
earlier
significant
urania
44
dav
either
fell
get
mc
pen
rh
range
##cing
##bc
##bon
##der
##ising
tour
##echn
##enty
##etic
##pper
##ortun
closed
##elled
2003
2005
2004
above
commission
resul
##ization
include
schol
center
soon
loose
america
frag
debut
primary
prior
education
revolution
##ecutive
35
ast
bi
cast
case
mult
past
pitch
rul
rank
saves
view
##ax
##ways
##me
toge
##urst
##idge
anc
anim
shoot
condu
##romet
prob
trade
env
close
republ
regard
works
##rought
officer
critical
located
originally
issue
service
synag
court
pilot
initially
storm
hung
girls
department
submar
holiday
together
31
brought
caus
du
full
gar
russ
river
sat
somet
ul
wall
##sel
##nes
##har
inj
##itive
##icated
##amber
reag
champ
chamber
process
##ishing
exist
##abor
##earch
prin
aff
able
intro
research
image
megal
##ology
evidence
specim
##eep
reveal
surround
employ
devin
germany
territ
designed
announ
nature
suggested
billboard
coup
business
silver
australia
hygromet
photograph
synagogue
hygrometric
45
bru
bomb
gabbar
love
mot
pick
ram
self
taking
techn
##tr
##wh
##ks
##rated
##vat
##ped
##inent
inf
##ential
asp
placed
##ope
perm
goddess
report
coast
highway
winning
##angu
guard
look
slayer
diffic
appearance
features
occur
geor
shortly
larger
approach
monuments
blackie
completed
involved
particularly
survey
troops
strapping
felt
wolf
hygrometricus
##vati
difficult
aud
cer
coun
cred
died
lack
langu
mach
names
pow
qual
tar
##vers
##gas
things
##ering
##ency
##anted
##elph
##adelph
whom
##ements
##ulated
conference
chang
##agre
sea
deity
arr
##istics
unl
clos
2002
served
##ibility
worked
fourth
vargas
parvati
studio
crew
feature
greater
books
myth
increasing
modern
fifth
snl
street
journal
llosa
beginning
champions
##adelphia
28
500
cas
di
ey
fer
fact
lic
mal
nine
pal
rit
ver
##ex
##ii
##ler
##lish
##bers
thus
##ories
##ald
##ilities
##omm
anal
comment
##akes
twenty
intell
189
185
meet
flight
assass
remain
charles
teams
archit
highest
division
does
students
england
liter
nearly
egyptians
shows
social
eleph
greatest
avail
additional
opportun
largely
campa
certain
summer
industry
favor
subsequently
carolina
arkans
republic
sometimes
bruins
aut
bh
cam
dan
dia
era
feder
law
mv
might
pet
sac
wood
wanted
yl
##ipp
##ras
##ma
##most
##ug
##ges
##anes
##isters
##ington
##oles
##acy
##iral
##empt
##ago
neolithic
##ector
##ecting
pred
pract
ens
fired
##ender
agreed
compounds
remaining
mont
attempt
1994
northern
know
subst
phys
winds
instrum
background
english
appearances
featured
ide
elements
opening
issued
weeks
synth
fung
entire
figures
pilots
helped
epis
selected
method
introdu
announced
campaign
arkansas
diaz
29
ben
bow
dut
fict
ground
gamb
nation
park
ren
rif
saw
treas
upper
wid
wander
zagre
##eh
##king
thai
theat
##inct
##ana
##ises
##ication
##icago
##olic
##stand
forced
reason
##oted
chicago
search
dead
arg
##istan
##ections
##ruct
twins
2001
adam
abs
carbon
##ending
office
seasons
forms
minutes
remov
1998
working
numbers
smith
depic
germans
writer
study
grad
redu
collabor
franc
represented
propag
proposed
concern
situ
midd
european
inches
##medi
canada
detail
temple
relationship
temples
college
dominican
focus
david
federal
zagreb
26
60
ach
bost
cy
cross
don
esc
fre
fall
fits
gian
kar
mother
non
tal
wing
##oid
##band
##bod
##onment
##ature
##ased
##ech
##ented
wasp
##etch
stans
reb
condition
chap
chief
##ify
scre
adap
mex
earned
formation
prem
interest
theme
producer
generally
broken
defe
divided
##ample
engine
capt
miles
dollars
media
respons
opened
awarded
magaz
promoted
religion
baseball
radio
possible
individuals
eventually
atlanta
interview
wanderers
propagand
stansfield
27
burn
cath
fa
got
lif
mic
mel
sam
size
veer
##tim
##ze
##iel
##ny
##ray
##ca
##van
##ław
threat
##onse
##orary
##arily
##omes
stan
##acre
conver
##ceed
separ
proper
exit
example
##ateg
trav
enc
##itions
board
carried
tex
##ological
finally
##ibr
assist
wars
money
retired
##ributed
arms
armed
guit
##ification
1939
raaf
response
##ography
madison
reviews
philadelphia
playoffs
manager
program
aerodromes
company
envir
language
architect
available
middle
veeru
cin
cel
cab
dro
date
econ
fit
gro
hur
jul
kings
lik
pay
sister
sisters
ven
zr
##la
##don
##gress
##itors
##ental
ash
##imin
##tered
##iest
neg
exam
##alled
##oph
##ructed
scul
##ounts
offer
184
meas
overall
flow
charl
##rick
themes
consecutive
access
metres
supported
variety
saf
transferred
grand
creation
captain
term
terms
planning
quick
frank
demon
respect
particip
heaven
hands
##rison
controlled
influenced
natural
suggest
establish
labor
allowing
antiqu
curr
memor
paul
killed
necess
shrine
lyric
estimated
ancient
hungarian
ultim
cerem
mvp
achie
boston
magazine
environment
econom
36
cost
corn
dun
deter
fut
gross
ir
jud
ke
kra
let
mi
net
naz
rap
tree
van
##oon
##ns
##ration
##rain
##uous
##uck
##cent
##por
##ores
##anced
##asion
##ilis
##ille
sto
##acing
always
##usion
leon
afric
newsp
itself
indep
repair
find
flower
acting
mostly
1999
1996
consisted
ending
depict
artists
below
parts
1918
critics
governor
continue
quar
medway
william
austro
provided
naval
turned
required
vocals
fairies
italian
##inyi
attempted
conducted
##selves
intellig
propaganda
zrinyi
independ
80
bank
clear
esp
face
fox
jai
nuc
pak
penn
ton
test
tied
tax
vice
##ius
##cop
##bs
##bal
##ports
##erved
##alth
##real
##outh
##ster
refl
##iths
##cepted
plans
##ability
unit
poly
scene
newly
teach
##reek
flo
actress
##ricane
themselves
attend
attention
1997
genus
highly
ended
room
robert
maxim
archaeologists
symb
color
batter
1988
1985
loan
discuss
move
##emble
ordered
planned
groups
excavations
increase
course
sites
months
launch
replaced
wales
master
soldiers
torped
admiral
destroyed
sexual
treaty
secretary
croat
copies
information
probably
caused
analys
fungus
cinem
hurricane
lyrics
pakistan
torpedo
42
88
ath
aim
aot
bir
der
ded
es
fight
jer
jap
ker
kind
libr
mort
mount
male
pair
purch
sem
vess
wide
woman
yet
zap
##aut
##oice
##zy
##east
##win
##kh
##yd
##lin
##less
##pre
##ga
##gr
thom
##ester
##isers
wash
almost
##igg
##aging
##rae
plain
##ript
exeter
exhib
##allow
true
spring
notes
related
perman
##ously
offered
##arked
airport
airports
diss
becoming
prep
compos
assigned
1991
1990
specific
accepted
wins
longacre
door
1986
1943
grew
green
franch
towards
alongside
distinct
moral
services
belief
effect
tracks
previously
magn
initial
authorities
allowed
bodies
solo
title
vocal
inspired
hours
suffered
caa
double
piece
battleships
resulted
scholars
revealed
aspects
championship
synthes
francis
mexico
guitar
sculpt
76
ble
bud
bah
dre
dict
hus
hired
ig
je
key
lower
listed
mac
ple
paper
rav
rather
sour
ur
wides
##to
##tained
##zog
##zher
##ker
##ique
##mp
##ple
##gen
think
told
##ica
##eling
##ompl
##urg
##urity
fort
asked
whose
referred
beat
##eman
conclud
chall
##oses
places
##anti
adop
timbal
amun
goat
going
committ
flood
comple
blood
1995
consist
acqu
married
surf
emer
##ression
leader
1984
marked
##azz
owned
humans
constructed
issues
increased
approxim
influence
performances
entered
mask
erzher
starting
speed
victor
competition
latin
failed
fragilis
reagents
megaliths
surrounding
introduced
removed
catholic
texts
thomas
franchise
husband
timbaland
committee
erzherzog
38
70
ban
bass
bene
categ
daugh
gall
horn
hind
link
os
our
pain
rar
roles
sus
sky
saying
tale
tenn
##teen
##syl
##iqu
##xis
##pg
##den
##go
##era
##enes
##ense
##enge
##iter
##olk
streak
reach
##ership
##utions
##ems
##ument
##ully
proble
##ocr
except
uns
spent
##aped
##iple
worship
indic
immedi
180
minister
attended
1993
higher
##ribution
armor
brown
singh
##roscop
studies
engaged
1944
prominent
smaller
johnson
county
glid
standards
entran
influences
soundtr
label
entertain
freeway
matches
illust
claimed
purpose
narr
trees
praised
thakur
fellow
shooting
regarded
injury
assassination
idea
fictional
##standing
future
pennsyl
zapata
approximately
soundtrack
pennsylvan
300
75
90
bal
bol
bad
bay
bri
cle
cos
dra
doc
dance
done
dram
diam
fest
gh
hen
happ
kon
keep
living
must
mys
pict
que
rain
rang
rays
sav
tend
tons
vir
via
wre
wil
##kow
##na
##lo
##bb
##pread
##din
thail
##esh
##aring
##aria
##isl
##isf
andrew
##roph
##reg
stage
##iring
rej
rein
refer
##lywood
##ids
withd
##ote
health
##emed
chem
chair
change
##anded
projects
units
##antic
##astrum
poles
carey
intended
##phy
dism
reports
decision
compared
assemb
max
subject
surre
wind
sms
write
writers
antimon
metall
defin
invited
slow
capital
featuring
positive
france
sixth
representative
missing
sevent
seventh
geastrum
majority
struct
characteristics
standing
standard
passed
supporting
cruiser
canadian
occupied
traditional
added
creator
discovery
identified
legisl
friends
policy
eye
opportunities
montreal
episode
gambia
gradu
situation
frequ
intelligence
symbol
permanent
widespread
cosm
thailand
bott
core
dub
edition
fans
fix
jazz
khan
lines
mur
makes
nin
nam
od
ran
sail
trib
und
wa
##tt
##sb
##sin
##war
##ney
##uter
##val
##let
##be
##eness
##isation
##ingu
##ecially
##the
##urt
##acted
whole
alle
##iment
##ume
prohib
plat
##order
spores
recon
enough
worst
scient
news
box
##irement
##phas
airsp
uses
regional
interact
1992
norm
secondary
cancer
emp
emphas
better
generation
directed
artist
objects
1911
christian
1940
##bai
directly
weap
bridge
owner
greg
annual
heavily
consider
strugg
associated
##ready
advanced
experi
poor
occupation
management
discovered
specimen
territory
occurred
audience
rituals
ylide
carbonaria
giants
assistant
quickly
determ
especially
analysis
francisco
husbandman
tennant
airspace
600
95
bc
bran
dial
fame
folk
give
hers
here
ice
kim
mum
mention
nbc
pun
push
rum
roll
sipp
tig
want
##ta
##oh
##of
##ees
##eign
##eenth
##ih
##iate
##ya
##hum
##gs
thick
##erous
##oned
##orth
##atively
inside
##anc
##aster
##asted
today
##icle
##thur
##ades
##ety
##acts
altern
already
##change
anth
shell
##umed
##usz
deploy
proceed
##istry
##ift
##opol
lear
train
spot
##ogen
##ipl
allied
scott
agric
airfield
party
meant
active
actions
basis
charts
produce
impact
marsh
surp
emot
brook
singles
belong
expressed
1941
officially
pope
population
1929
opin
raised
square
elev
element
missed
giving
pattern
extre
activity
effort
destruction
confeder
promotion
trophy
earthst
historical
funding
potential
aerodrome
horus
latter
angel
combined
observatory
mixed
darwin
growth
submarine
submarines
counter
target
increasingly
ferdin
commented
favorite
substit
physical
treasury
details
captured
celeb
demonstr
respectively
memorial
ultimately
ceremony
launched
complex
entrance
sippy
ferdinand
33
86
bre
bab
cit
cand
cited
cause
drew
fal
fear
gran
hin
hot
hair
lu
leng
layer
losing
mol
mary
mob
nash
oro
oil
overs
rom
sar
says
wy
wear
wiz
watch
your
##och
##za
##zco
##kn
##iations
##ipped
##men
##mates
##cil
##vis
##bor
##fall
##inity
inn
##itz
##aly
##ama
ones
##uri
rear
reign
##ivity
##idents
##ayed
concept
##osp
deep
##ession
arres
##ription
##ateur
unc
unique
##aked
recre
noting
enem
cloth
##eller
twice
bob
ability
amateur
carry
images
disp
display
usually
musical
finish
flights
prepar
whether
retirement
accomp
accompl
sched
maat
maria
stars
brother
singer
defensive
doing
1914
invasion
1942
value
transfer
classic
brig
create
publication
ordn
1926
1937
designated
settle
collection
quest
district
1954
organized
organization
patron
##rising
performing
concent
contrast
typically
provide
##ervation
sales
goalt
museums
pressure
landing
swallow
complete
magic
presented
1861
covered
farm
##aught
victory
italy
tombs
panel
losses
refused
purposes
words
thaksin
astrae
ranked
george
literature
elephanta
reduced
concerned
screen
necessary
environmental
kept
nazi
newspaper
nuclear
taxon
floor
prepared
dream
concluded
immediately
##roscopic
document
surrender
bottom
branch
mumbai
length
orozco
wizards
accompan
39
400
cens
croy
dail
drum
dread
fres
fully
greek
hu
jar
kh
kit
kurst
lay
lot
los
mir
mut
mand
mart
om
pist
say
selling
saint
sector
tv
wat
##aud
##ries
##mun
##hist
##head
##lec
##back
##gar
##jo
thr
##ino
##ini
##inated
inner
##itor
##road
##rec
##theless
forward
stib
reform
##lement
sha
share
##erse
##ump
isis
##osph
seas
coming
sund
##rie
##iff
leaving
##illery
##abled
##aker
spir
spect
spread
##overs
note
enl
feast
relief
contemp
2016
appar
disapp
##izations
means
serious
prec
regul
register
cool
includes
highl
noise
something
accept
##awa
##icks
emb
whereas
artillery
elimin
expected
valid
market
classes
gram
reception
nearby
prevent
glob
skull
funer
largest
types
telec
passing
##shire
jackson
joint
institutions
observed
lowe
purs
1961
battlec
equip
titled
elections
individual
stationed
strike
sulfide
applied
average
village
penal
rhode
commissioned
multiple
specimens
permitted
instruments
cycl
defeat
warsaw
cabral
julian
examples
participated
establishment
current
economic
quarter
teachers
dedicated
semi
dictator
jeff
flooding
surface
benef
daughter
susp
pennsylvania
drama
henry
reinfor
chairman
herself
agricult
citiz
candid
ordnance
goaltender
astraeus
croydon
daily
kurstin
battlecru
37
48
az
ba
bond
bone
cot
cust
dah
fred
faced
hip
hous
hang
jose
lou
lie
mason
mouth
ni
pound
peter
paint
ppg
rod
sought
tess
tun
tell
tade
von
wr
wound
ways
ye
##aur
##tic
##ties
##oen
##oba
##sky
##ror
##ridge
##uel
##cel
##vement
##hi
##haps
##ls
##laim
##bes
##break
##ja
##onium
##atus
##atives
inh
##ena
##itation
##itable
##ales
tom
touring
##icz
##olia
##aded
##omy
##ette
foreign
stating
really
##chan
##ota
##otte
conce
chris
##vert
##cend
##ands
seg
deg
deemed
arrang
plot
##rial
orland
leave
legal
##abit
spore
sports
rect
##ude
areas
clock
2000
perhaps
script
amb
amend
##enders
agency
offs
##ffic
flint
fletch
actually
assists
basic
attr
##eeper
acid
acts
seconds
mah
phoen
longer
##terson
peace
northeast
suppl
parish
1913
1915
description
bring
grant
golden
publications
returning
constit
portico
ideas
thirty
morning
hyd
serving
deliv
patrick
patterson
extended
effects
oppos
salary
caliber
restrict
edm
behav
billion
debuted
visited
primarily
involving
academic
sense
memory
straight
experience
historic
progress
successfully
violence
richard
improved
hosted
turk
meaning
fruitbod
pieces
declared
russian
credited
powered
quality
changed
arrived
elephant
camera
daniel
depicts
depicted
chapel
adapted
microl
threatened
stanley
converted
property
encour
likely
1849
charlotte
safety
africa
independent
croatia
birth
japan
library
magnolia
synthesis
maskray
narrative
diameter
murder
empire
experienced
airfields
angeles
hindu
contemporary
equipment
tadeusz
orlando
phoenix
32
47
41
54
52
94
ber
bor
bach
bang
card
dor
dry
data
dhar
fat
fing
fill
ha
jam
lin
lives
mes
mcc
nick
peng
pigg
rud
rough
rights
sand
sri
sort
section
##tar
##oard
##oys
##wall
##kov
##rd
##rical
##uf
##uing
##cock
##haw
##lor
##ban
##ging
##gth
thous
##onents
##orpor
##ita
##itage
##ancial
##asc
##rets
##elly
##struction
##omers
stren
##imer
##otes
anup
shared
shells
shape
shaped
##ula
##ults
congress
cha
##agn
sequ
20th
proved
##ocated
##esty
##rif
##riage
orb
unus
##aken
##pton
##antly
heritage
scale
scope
scenes
containing
aband
##clus
mane
manif
managed
amount
appeal
resemb
##ounted
imper
##oked
repe
becomes
partly
meh
finishing
financial
security
overt
flor
underne
ministry
anton
remix
inters
charge
acclaim
##onym
therefore
substr
phara
winner
emmy
musician
colon
supply
##ledge
job
1987
guest
1910
invest
movement
location
mainly
calling
1920
1930
sett
demons
posted
steve
famil
greatly
glass
gliding
mission
missions
1952
easa
skill
sketch
extra
extensive
1975
function
traded
lightning
advance
protest
1862
statute
authority
importance
nevertheless
levels
cruisers
takes
denomin
##ivalent
facilities
connected
creating
buried
observations
turrets
meanwh
recognized
nominated
nominations
declined
officials
results
animal
employed
bombard
unlike
journalists
licens
palin
remainder
dutch
widely
absence
conditions
adapt
premi
responsible
separate
network
ess
mortimer
vessels
washington
sculpture
ign
adopted
victoria
entertainment
brief
festival
mysore
picture
seventeenth
##urti
earthstar
arrested
dreadn
penalty
tessa
fletcher
pengu
piggott
strength
underneath
meanwhile
69
64
77
ak
bon
bones
cu
cart
crow
dv
dies
dru
eth
gulf
ham
homes
hosp
iv
jon
jac
ka
ko
kent
kras
log
lect
lane
lasted
mis
mound
mph
native
pac
ros
rail
riding
sir
sons
trou
vic
vaud
##tv
##eth
##wise
##worth
##kan
##kins
##nel
##mer
##mes
##bed
##gia
theater
##erted
##inist
##arted
##itan
##aled
##isions
tourn
##rox
stal
store
##iris
##iration
asian
rend
##imm
##ida
##aykov
anch
sho
shut
shore
height
chann
chamb
chaykov
##osh
##aver
##ception
##ung
##ighter
orn
exec
##opy
##sey
##illance
trust
sport
recent
recover
recomm
##apers
##oster
prison
##ruption
twin
##antry
worth
percent
score
##ightly
advert
content
boy
boys
care
carter
carved
##ends
aggress
##ocked
displ
filmm
filmed
upd
earn
flank
actors
composed
assumed
outstanding
##resp
buck
rob
accused
armored
marriage
musicians
depos
starred
broke
northw
object
obtained
exped
loyal
promisc
incorpor
valley
##ifications
directors
1923
1925
##anka
1931
##veillance
collected
continues
simp
step
steam
represents
anything
toward
distingu
famous
willing
morrison
videos
organizations
model
trip
##cont
passeng
confir
corps
ukrain
##inking
##annah
styles
request
circle
similarly
equivalent
historian
criticism
paid
holds
holding
relationships
subsequent
traffic
crown
honor
neck
shrines
rule
attempts
significantly
getting
rhy
scholar
duo
existing
existence
technical
goddesses
guardian
looking
machine
changes
licence
meeting
practices
knowledge
reasons
karl
##nyi
achieved
cornwall
rapid
leonard
repaired
depicting
batteries
cinema
fighting
jerzy
purchased
source
challeng
consisting
osiris
problems
bollywood
queen
rangers
savannah
wreck
corey
fixed
nameless
mentioned
opinion
confederate
settlement
grammy
fruitbodies
bachchan
dharm
unusual
manifest
investig
penguins
hospital
vaudev
chaykovsky
1st
43
51
800
bra
brist
cav
cub
dark
dating
eag
fate
fab
gard
gust
gang
gather
hay
hart
hier
icon
ken
kal
mec
mess
mine
mike
na
nut
nha
ost
oak
pack
path
ron
rat
rate
rick
sell
soph
tort
table
ut
vai
voted
voice
yog
zone
µm
##we
##writ
##wide
##wick
##ios
##rid
##rate
##mond
##uk
##uit
##uff
##cast
##ville
##hood
##lock
##bras
##ding
##dney
##gl
##ger
##gery
##joy
throw
##erate
##erick
##orus
##esco
##ening
tou
##eland
##iling
##olved
##thi
##thm
##oms
##urb
##urf
##uries
##eton
##etts
forest
stable
##acles
##acement
##aya
##chest
beaut
ancon
##owski
shar
shots
##uten
##umes
##uls
##ulate
aten
isol
chest
chance
china
choice
##osel
##agues
seated
##odes
prosp
arab
##ighth
exclus
##ifying
unkn
unesco
span
recently
recalled
##apt
##iano
pras
notable
enanti
allies
feel
##astic
##outing
##quar
##ustin
adj
contain
manuf
intention
indicated
resign
resigned
agre
agustin
disabled
partial
##ologies
flame
underw
actor
serve
preced
regulation
minim
minnes
remarked
themed
attributed
gameplay
releases
account
produc
producing
knew
scheer
surgery
winter
instance
smo
deprec
##ressing
severe
presence
article
defender
else
election
doct
1917
1919
expanded
##teenth
movie
webs
appearing
brand
founded
foundation
capable
1920s
##ierz
setting
portug
planet
raf
##uese
democr
steph
buildings
occas
distribution
respond
personnel
didn
powerful
commanding
representing
additionally
1950
organised
universe
skin
1973
1970s
concert
trials
##ussion
corresp
suggests
reactor
older
visual
statistics
turns
resulting
circum
convers
##oxide
profession
certified
senators
toront
crime
crash
soviets
administ
criticised
denied
poe
titles
destroyers
speaking
sanford
attacks
everything
industrial
hoped
averaged
blockade
narrow
animals
territories
council
closely
myths
diagn
opportunity
sacred
renamed
rifle
rifles
collaboration
melod
measure
suggesting
tonnes
maximum
blend
budget
emerged
rarely
reaching
rainfall
rejected
chemical
ninth
interaction
weapons
rumors
proceeded
extreme
mandatory
telecom
citizens
candidate
frederick
lieuten
fingal
imperial
pharaoh
denomination
krasnyi
channel
update
promiscuous
bristol
mechan
ancona
manufact
minnesota
portuguese
correspond
toronto
00
57
56
62
79
71
92
aa
aid
axis
big
bron
bann
bbc
citing
cns
dyn
hann
kum
ling
lived
liber
m1
mun
map
mile
mck
mounts
nights
oly
option
ott
pit
rac
rid
rub
rose
rise
rival
rush
sad
tat
tas
tip
trop
ve
vac
vision
vatic
wis
zilt
##eals
##wis
##well
##wards
##kes
##kok
##ias
##more
##ux
##uth
##cz
##hold
##bee
##bled
##pr
##pective
##gin
##fan
##fare
##jee
thing
##erry
##ergy
##erve
##inum
##insey
##ora
##orm
##orter
##arn
##isław
##icted
##icop
##icide
##ications
##rovers
##rel
##outs
##ece
##ston
##stained
##ete
forty
stop
strict
aside
rever
alone
alex
##imurti
##idation
##tery
beach
shin
heart
##uts
##uting
##umber
##usetts
##avk
##aine
seat
comes
sustained
items
arts
arih
##ctions
nebras
##ighted
executive
lewis
##iller
unable
trinsey
trimurti
spons
recru
##ogie
prime
##ovil
relatively
perc
##achan
##achusetts
contact
controvers
boats
boogie
##clad
##clusion
amy
amid
ammun
carving
##endra
resc
resist
agent
offensive
imm
##oke
##okes
##ologist
flat
flag
undert
decade
decades
prehist
regions
compar
evans
assa
remember
interested
interpre
outbreak
monitors
consp
consists
somewh
ends
roots
knots
revers
subcont
##away
implement
centre
numerous
surveillance
longest
peaked
brothers
defence
defens
joe
##ropri
guid
student
expos
engr
slightly
moving
brut
cape
1924
1938
1936
##ismo
barr
stefan
heads
headquar
distance
strachan
countries
differences
1950s
serves
helicop
geopy
deleg
easter
1976
evening
efforts
positions
entry
runs
salv
confront
corpor
protests
aerial
completely
institution
politic
politics
limit
frame
communities
visitors
laid
replacement
convin
cataly
prize
select
explained
fifa
oxford
educational
fairy
comeback
speech
persu
australian
##works
matter
suffering
broadway
broadcast
burial
sonthi
##apsed
violent
richmond
application
averaging
massachusetts
ironclad
volume
recognised
nomination
battleship
rules
conduct
russia
satisf
reagent
princ
affair
megalithic
picked
infantry
coastal
georgia
difficulty
powers
##anese
practice
ensemble
theaters
argued
absor
collaborated
burned
faith
travel
architectural
negot
laboratory
antiquaries
irreg
krakow
letter
african
battery
athlet
baht
ravana
acquired
glider
gliders
drawn
withdraw
assembled
metallic
definition
graduated
frequently
odor
tigers
recreational
enemy
carrying
schedul
question
enlisted
globe
benefit
dahl
louis
yeovil
degree
arranged
opposite
edmund
bangkok
maneater
florida
families
bombardment
pacific
chambers
executed
simply
cornwallis
dharmendra
vaudeville
unknown
smooth
website
lieutenant
kumar
m18
mckay
olymp
ziltoid
arihant
nebraska
ammunition
somewhat
subcontinent
geopyxis
irregular
3rd
49
53
700
84
97
91
bed
bound
border
cry
cres
cells
dil
dig
dated
dust
dang
ere
eld
eighth
fish
fought
gas
gained
hits
hyp
hund
ire
jason
kg
kick
kail
kev
kavk
lem
luc
mall
moth
none
oh
oce
ori
outer
por
pill
ports
pett
punch
puck
ring
rig
rural
rash
rca
ucl
vish
wit
yell
##tra
##taining
##ska
##wich
##kin
##nu
##rest
##rity
##min
##mon
##mouth
##uable
##can
##vara
##vements
##lav
##lines
##pts
##ji
##erg
##eria
##inary
##inations
##oral
##oric
##arthur
##itas
##itated
##itled
##ala
tool
##rot
##rod
##rog
##oud
##eline
##ils
##ecess
##entially
##sted
##stit
##station
##stances
##ading
##omical
##eted
##aco
##acle
##irt
asi
asc
whit
reference
##imierz
##igall
beings
##otic
##owa
shop
heard
##uty
##utional
chose
seems
suicide
proc
##unt
##unk
exchange
##iful
##icherry
##illing
##abh
unp
uncon
trained
spl
##uda
##ogues
##ips
pries
encl
enjoy
clim
##rupt
hero
feeling
playstation
scr
scot
##ignment
adult
contrib
contains
contributed
abilities
abroad
amaz
intens
commod
indu
aground
text
##okie
disorder
partially
format
formally
blues
coal
basement
remark
interp
aware
1990s
conservation
##orship
buy
rookie
fourteen
knicks
publish
centuries
soul
##lands
instruct
##issed
depth
departed
deputy
follows
severely
direction
leads
signing
worldwide
defense
variation
divin
diverse
1982
1980s
1916
1912
1949
1948
1945
valuable
discip
grade
scorer
receiving
apart
maintained
owners
1928
##aha
collections
collapsed
portion
continental
developing
describing
demol
headed
successor
annular
annex
##arez
gives
weekend
##hler
universal
universities
deliber
footage
skel
believe
1972
moderate
opponents
tried
##othy
periods
youth
##aneously
confisc
##booba
protection
bands
sbf
reactions
status
epox
involvement
walk
require
requested
survived
surviving
circulation
jewel
solid
camps
begins
systems
senior
arsenic
coaching
coul
oxide
inspiration
earliest
attacked
electric
##archy
1908
significance
temper
sulfur
anger
combinations
barrows
needed
1889
growing
atlantic
recognition
villa
estimates
penet
astron
biography
castle
ruled
views
regarding
injured
princess
affected
surrounded
photographs
permission
machismo
closer
cases
casem
casual
assassins
sacrif
wooden
bowman
theatrical
searching
deadline
adams
concerns
defeated
responsibility
stanisław
grown
ashbee
offerings
sexuality
purchase
vessel
moralitas
beliefs
macarthur
urban
banned
category
hindi
illustrated
ghost
happened
structure
structures
legislation
alleg
prohibited
platinum
normal
hereford
anthrop
demonstrated
baby
granted
romantic
brigade
fresh
jarvis
martin
eliminated
pursue
coty
tellicherry
wrong
wounded
##aurus
behavi
dorothy
roughly
anupong
chaos
abandoned
repeated
mehbooba
skills
adaptation
essential
crowd
dvd
jacqu
tournament
flanked
expedition
garden
underwent
circumstances
poehler
linga
liberty
tropical
resistance
conspir
brutal
scheduled
hundred
kailash
kavkaz
ocean
vishnu
yellow
annexed
34
46
55
5th
63
89
82
8th
93
96
bit
bce
bought
ci
cities
ceas
cards
creek
caught
covers
da
daco
eric
fan
fold
freed
fasc
gle
gift
hud
hath
hull
hitch
habit
jers
jones
kate
kore
kaz
kurf
lod
lord
lov
lock
lighter
mom
maps
mounted
nations
nile
pier
rot
row
sz
sle
sab
sak
sect
sie
sets
sides
ta
tet
tub
tide
tact
tone
tail
tiss
taught
veter
veh
wł
wed
wild
wick
yield
yank
æst
##oom
##zes
##zew
##ean
##ko
##iar
##ners
##nall
##rus
##rations
##ract
##rays
##rised
##raying
##mus
##uccess
##ugg
##cas
##veland
##yan
##ych
##hm
##hetic
##hurst
##lim
##lets
##bur
##bow
##bury
##pent
##greg
##fir
##fers
##fect
##fort
##fire
##80
thin
thread
##orated
##orian
##orarily
##ese
##areness
inning
##ites
##itude
##itabh
##anol
##alised
##asy
##iced
##roit
##rose
##ilized
##ola
##olph
##struct
##adic
##aduri
wasn
##aments
##oma
onto
forth
stu
stony
stayed
##acu
##ivals
##terial
##cher
bear
beam
##otion
##otyp
shif
##emark
##umn
##ulted
##use
confl
cho
che
chal
chec
chos
##agu
comic
supre
prol
arthur
arena
arterial
##rap
neut
neither
orchest
exclud
##opl
##oper
##opal
lee
leop
##ardo
trick
spector
##iance
##ears
##udad
priest
allen
##ours
##acks
##ella
##anto
worn
worsh
scat
scar
contained
boat
bobc
aboard
amph
amitabh
cargo
resol
resemble
##phs
airworth
##ffen
##izing
parties
ups
upgr
secured
flu
deck
decline
decisions
formal
##ibly
regurg
otherwise
evil
evacu
mints
asserted
basanti
interim
interests
intermedi
interchange
charges
teammates
awareness
genre
genres
consc
nothing
someone
retained
retiring
fourteenth
maid
cann
towns
phyl
armament
##nington
starring
writings
howson
supposed
signs
operate
##rosaurus
1989
southeast
guild
studying
##teb
1947
transl
transform
discour
slab
classical
weak
appears
popul
1921
##anks
termed
constantly
##roll
collect
150
demo
demand
simult
showing
junta
occasion
string
difference
morgan
1959
weekly
hym
propos
synonym
geffen
130
patri
1970
clubs
bulloch
opposed
trademark
##othe
totten
listing
running
fleetwood
corruption
protected
aeropl
sitting
joining
midfield
promote
promotional
frig
1964
debate
visit
1863
statues
epith
replacing
labrosaurus
entering
versions
battlefield
circuit
convey
jews
solely
commercials
sung
crimin
admitted
##ombe
detroit
silent
##ynski
##herent
facing
temporarily
strongly
submitted
personality
drinking
funds
fundament
stream
hygroscopic
claiming
treatment
panthe
richards
seeing
applications
improve
honorary
legacy
dougl
focused
moon
reader
fragments
revolutionary
pitcher
pitched
ancest
causing
printing
credit
crews
eyes
malini
verteb
1853
autom
bhaduri
petrie
ylides
predomin
predecess
ensure
attempting
instrument
episodes
renew
wider
##ehyd
escape
giant
talent
##body
architecture
vener
negative
flowers
currently
ultimate
ceremon
dunnington
grosser
grossing
nazis
stopped
newspapers
independence
maximus
croatian
japanese
##autla
sculptures
pleas
sources
challenge
gallian
hornets
painted
problem
unsuccess
clean
cleveland
konig
dubious
alleged
reconstruction
scientific
gregorian
dialogues
alternative
celebrity
false
oversaw
bobby
accomplished
swallowing
documentary
accompanied
pistons
thriller
apparent
disappoin
registered
highlight
funerary
agricultural
battlecruisers
joseph
paintings
rodman
amendment
attracted
delivery
restrictions
substrate
colonel
cuautla
recommended
distinguished
passengers
rapidly
caval
eagle
atenism
isolated
chestn
arabic
praska
producers
rafael
stephen
administration
ottawa
vatican
##jeev
percussion
prehistoric
interpreted
exposure
headquarters
convinced
crescent
elder
ireland
split
priests
interpret
divinities
skeleton
confiscated
coulson
casualties
behaviour
conspirators
ciudad
hudson
hathor
hitchcock
jersey
kurfurst
æsthetic
chosen
airworthiness
douglas
unsuccessful
3d
72
bes
bul
bests
brick
bapt
cell
cran
catch
dh
dog
dors
denn
fast
fine
fash
fuel
gate
ho
hi
hom
haw
ihl
jag
jup
jump
kil
keeper
lomb
lanka
ml
mig
mumm
nach
nike
ol
pt
ps
pu
pine
pure
page
pull
pitt
ray
rib
race
rivers
rounds
racing
rovers
roster
ryan
sic
sens
sole
tum
tall
util
wad
wings
yard
##aels
##tigall
##tnall
##oo
##sk
##zz
##eor
##wa
##wing
##iences
##nie
##rich
##rant
##mat
##ming
##math
##mosph
##ule
##cor
##cou
##cret
##cements
##vation
##varn
##yst
##yard
##yond
##lers
##lake
##bre
##bel
##bid
##bound
##gn
##gur
##jad
##22
therop
##erning
##inz
##inc
##ining
##inet
##inery
##inently
##eding
##onic
##onent
##oration
##orate
##orters
##orma
##aten
##atisf
##esters
##ari
##enue
##itr
##itively
##isk
topped
tooth
toler
##icip
##icient
##rogen
##rect
##elve
##iled
##iles
##illy
##entire
##stone
##urre
forever
stro
stern
##ira
##irid
reed
reich
##lyn
##lying
alt
ald
##imony
##imeter
##idium
##ayan
##char
##chant
##chester
beating
beau
beyond
##oto
anime
heat
##utation
##empl
##uments
atrox
atmosph
conqu
conform
consequ
19th
chat
chop
seem
suvarn
prove
proof
##ppy
##essions
##raham
##ishvara
plates
##eston
##ordinated
##rian
##uner
##ighters
##ifically
##alling
##allel
lege
##season
##berg
##illes
##abhum
##arded
unn
unif
unrest
try
trying
spend
space
##apa
##apes
##arten
notably
energy
clust
twelve
2000s
feud
##astopol
pola
##usted
perce
perfect
aftermath
plays
adri
newsted
timor
abund
mans
amounts
amjad
carb
carson
descend
agree
##ranean
imag
##oking
disg
reputation
filming
muslim
finance
securing
flot
flash
understanding
decomm
forming
regiment
blown
blaz
miner
assess
warm
warned
warne
interned
outl
outages
##ricted
attrib
attached
speculation
endors
produces
knocked
maury
subs
##onega
phen
phase
phosph
##icki
impression
numism
marc
mario
symp
sydney
empt
emily
installed
betaine
songwrit
starts
yorkshire
preserved
preservation
soil
soft
soorma
peaking
##iewicz
leadership
meteor
supporters
signal
singing
defenders
elite
elbow
operated
parod
sau
1983
##ropol
studied
express
exposed
expensive
engage
engines
1946
prompted
incident
marks
rockef
##ysław
gray
receive
criteria
maintain
orders
humor
1933
1934
1932
designs
returns
construct
continuous
barra
posters
posthum
steel
steals
steps
successive
prevented
weehaw
annivers
##utionary
##elsen
coined
morel
1957
organic
organisation
considers
110
syncret
179
sevastopol
##ographer
younger
performer
effective
associations
opposing
triple
trioxide
approved
passes
passage
listen
calc
calam
calif
advent
authors
juarez
sounding
islands
protect
accordingly
landsc
edge
realm
realized
alien
1968
1960
communication
hollywood
statue
epic
turning
females
##hael
convoy
deaths
curt
selection
possibility
possession
experim
earthen
##etta
##ettes
explos
explains
commonly
internal
historians
merge
merry
shoulder
columbia
##ometric
appoint
roads
cuts
michaels
sanct
victim
departure
electron
civilian
1909
1905
1902
adding
connection
striking
felix
sulfonium
traits
colleagues
violation
seeking
journey
informed
blocks
failing
failure
1879
moore
trend
ready
ruined
transportation
44b
mcentire
probability
garuda
russell
couple
motif
##where
approaching
credits
machinery
championships
factors
malone
##iii
doesn
autumn
substant
physic
methods
duty
duties
fiction
gambling
argues
focusing
escaped
chapter
engineering
capture
encoun
drove
dropped
measuring
antiquarian
economy
raphael
vancou
stopping
banks
nucle
reflecting
attendants
discussion
pakistani
athl
aimed
kinderg
libraries
composer
blew
budd
beaten
##going
ghett
konkan
virt
virgin
wreath
wilh
withdrew
dismissed
window
slowly
frequent
wait
scientists
normally
weapon
considerable
poorly
determine
determined
pushed
pushing
tiger
learned
emotional
eleven
mobile
sarah
watching
accomplish
concentration
dreamworks
surrendered
branched
layers
omn
waters
reforms
sundance
spirits
apparently
funeral
cyclone
reinforcements
agriculture
battlecruiser
nielsen
segment
flintlock
mahe
supplies
bringing
microlight
microlights
nickn
thousands
settled
licensing
premiere
briefly
dreadnought
kaiser
vicinity
rendition
anchor
advertis
confirmed
ukrainian
manifestations
gusts
hartford
ratings
touch
beautiful
##oselective
exclusively
spanish
agreement
occasions
responded
conversely
mechanism
corresponding
hanneman
tattnall
task
assault
reversibility
##ropriate
guidance
engraver
politicians
affairs
dahlonega
kevin
mallory
porfir
pillars
pettit
tools
enclosed
commodore
epoxides
sacrifice
gleba
lodge
tubes
##music
##burgh
conflict
supreme
bobcats
conscious
simultaneously
occasionally
fundamental
fashion
nachtigall
theropod
suvarnabhum
legend
decommission
rockefeller
weehawken
landscape
vancouver
kindergarten
virginia
suvarnabhumi
09
2s
2nd
4th
59
7th
87
83
85
99
900
bore
bure
bold
bry
bells
ce
cd
cess
cous
cris
camb
cults
din
dom
dri
dave
draf
dressed
dna
dwar
dipl
ec
fant
fib
fert
gil
gam
gary
ghar
hell
hire
hamp
ja
jr
jut
jimm
ki
kor
ket
keen
kelly
lt
lan
lion
lith
laugh
lester
liqu
mist
mitch
mosh
nd
nub
ntr
nelly
opt
py
pul
pap
pounds
rating
rare
rpg
sq
sin
som
sank
sars
tan
tam
tart
tying
tests
vo
vent
vul
vert
veg
vint
vote
wish
xiii
yug
µg
μm
##ek
##eed
##ext
##watch
##keeper
##iot
##iens
##iating
##iya
##nic
##rat
##rise
##rarian
##mar
##mid
##mina
##cle
##cope
##cceed
##ven
##ym
##yer
##hak
##hire
##lan
##lore
##bles
##pan
##pass
##da
##dd
##dress
##gency
thor
thames
thomp
##inal
##oring
##ato
##atile
##aris
ing
inherent
##ito
##anay
##alion
##ingly
andhak
tomas
todd
##icate
##room
##rous
##rey
##oul
##elm
##elten
##ilation
##ilton
##enton
##ada
##adow
##adsen
##omer
##omor
##omech
ongoing
##urer
##urra
##urally
##urday
forbes
forbid
sting
stim
stab
stup
stret
stages
stability
##acity
why
reuter
altered
almina
##ivia
##ider
##cho
##chang
##oting
##otrop
##utt
##emen
##umption
##ulg
atum
conclusion
congreg
1900
isra
isles
chul
chees
chelten
##oslav
##ava
##aven
##agon
##agen
##agara
sud
succeed
arn
ard
arist
plus
plant
placing
##ocity
neigh
##ighed
ores
existed
exception
##ichi
##opher
leices
leaf
##sex
##illa
##aburra
unf
##aki
##akers
spur
##aph
##apuri
##iant
##ieth
##ieval
cler
clar
clay
alloy
allosaur
allmusic
##mented
##ellion
##antour
##asting
relocated
pole
scouting
scapa
timber
contribution
context
##mann
abraham
##athered
##cles
mangal
carpent
intent
##endar
goes
goeb
##oughts
appeals
reserve
agrarian
teen
offers
offsh
##phae
airline
airplay
impl
##okaburra
filmfare
##izes
partition
meg
finds
secure
overc
##rons
flown
understand
decreas
pregn
regulated
comprising
bloom
coy
eve
mind
basal
basid
remove
remuner
monten
monothe
specifically
noises
retard
##ossible
accounts
schmid
revival
revenge
subjects
##ribed
##awat
impress
impossible
devon
devout
devotion
depending
generated
cole
##ieties
##iewski
leaders
brobb
metropol
artif
artistic
artwork
defended
divor
elected
obstruct
belg
doz
larry
operating
parach
parallel
guide
expans
engag
loos
promise
prominently
promulg
##ornia
transcend
discern
moves
weight
webb
##inda
descript
couldn
apg
locations
mainst
capacity
thoughts
1930s
millenn
barn
barry
102
raid
raise
quant
157
myres
myster
mycel
##atherine
postc
simon
sixteen
showed
headdress
medal
mediter
medieval
##ertain
120
disturb
strained
strateg
persons
personally
personified
avoid
missile
1956
1955
excavate
hyphae
considering
##ographical
youngest
austria
patrol
believing
characterised
useful
1971
province
trium
approached
entitled
confused
correct
courty
##boat
##boards
protesters
landed
landown
restricted
swan
completion
commerce
##omena
limantour
promoting
1969
holy
romano
visible
authored
authorized
replace
column
involves
walter
allows
circular
circulated
circulate
##rington
convent
##aticus
battalion
comedian
begun
catal
cruel
senate
radha
stores
stories
hunwick
sunk
covering
presidential
household
criticized
oxy
storyline
merchant
dealership
bush
busque
##ynastic
speak
fewest
traditions
faces
facade
stronger
lesser
1907
addington
materials
drunk
perspective
connect
connecting
competed
putting
pottery
striker
claims
favour
hills
matt
identity
horse
trail
##ontin
combat
combination
improvements
cautionary
massive
refus
403
ballistic
breakout
hostile
volumes
1874
methyl
companion
companies
treated
readily
ruth
insisted
policies
biomech
multi
pitching
ruler
ruling
ranking
viewed
animated
duat
garn
saturday
walls
chambered
printed
affil
photography
motor
motion
motiv
ramgar
techniqu
infr
infinity
aspect
occurs
cerat
qualified
closure
ritual
commenting
intellect
1890
1854
meetings
literary
favorable
bhopal
predynastic
instrumental
methodologies
introduction
bowie
donated
rebounds
rebellion
premises
lifet
lifted
converting
separated
cabinet
dropping
fitwatch
liked
payne
measures
achieve
repairs
williams
##iusz
polythe
teaching
attendant
discussed
cinemas
derived
kerb
##khen
exhibited
composition
igual
please
emergency
categories
linked
indicate
indicates
1806
illustr
badly
brian
myself
wilm
##kowski
##load
andrews
##rophic
##rophag
rejoin
references
dismember
seventeen
cosmos
ninet
sailed
sailors
tribute
emphasised
bridgeport
gregory
struggle
folklore
rolling
deployed
deployment
##opolis
surpass
emotion
belonged
belonging
substituted
innings
enemies
clothes
displayed
preparation
schedule
concentrated
swallowed
taxonomy
accompanying
drums
mutual
piston
stibine
sundial
regulatory
embarked
eliminate
azirid
customers
housed
houses
rector
ambient
constitution
delivered
encouraged
mesolithic
rudolph
sortie
thousand
##estyle
intersection
glasses
premiered
dreadnoughts
bonus
drugs
ethnic
hamilton
kookaburra
railroad
trouble
stalin
shutout
ornament
percentage
aggressive
filmmaker
northwest
incorporated
rhymes
rhythm
challenges
investigation
torture
sharp
enantioselective
preceding
minimal
deprecating
professionally
diagnosed
pharaohs
ridot
rubin
alexander
controversy
rescue
barracks
corporation
princip
absorbed
odoratus
digital
hypoth
lemon
witness
##trak
##stitutional
asiaticus
procured
unconstitutional
enjoyed
scrut
discipline
jewelry
astronomical
casemate
freedom
kazimierz
siege
tissue
wickford
##zewski
stuart
##otype
neutral
leopold
worshipped
scattered
resolue
upset
intermediate
maidan
phylogen
hymns
proposal
midfielder
criminal
vertebrae
ceremonies
chestnuts
bestselling
lombardo
mlb
##urrection
chopra
feudal
mauryas
phenomena
phosphorus
sympath
meteorological
posthumously
anniversary
morelos
calculated
california
athletic
ghettos
virtually
wilhelm
advertisement
bureau
dinosaur
dwarf
gharapuri
hampshire
jutland
jimmadsen
sarsens
vintage
yugoslav
thorough
thompson
stupa
stretch
israel
cheese
cheltenham
aristocr
mangalore
offshore
monteneg
schmidt
brobbel
metropolitan
mysterious
mediterranean
strategic
ramgarh
techniques
jimmadseni
02
2o
67
66
65
61
74
98
9th
ae
aes
ahead
arose
bern
benn
bald
c6
cad
cul
cra
cass
caf
dur
dost
dock
dens
dress
drop
dime
digg
dwell
dagen
et
ety
fo
fro
fuj
fried
fitted
font
foster
gig
gast
gone
gaining
graph
gathered
hab
hague
haz
hoard
il
jet
jim
jum
jess
jets
jokes
kw
kir
kid
kron
kenn
kurt
lor
lies
lose
lake
lyn
laver
lumber
mama
mtv
nit
nom
nich
nah
otr
ovation
pent
pup
porn
patch
raw
sale
ts
tu
tin
tag
ties
tast
tamp
torn
tina
tiny
tells
tuck
vel
vern
vuth
wore
wants
##aqu
##tics
##oj
##oil
##oant
##oons
##sak
##zer
##ein
##wig
##iy
##iac
##iary
##ients
##no
##nite
##nicki
##niewski
##rig
##rand
##rors
##raged
##rze
##mark
##mely
##ua
##under
##uky
##uki
##col
##vi
##vin
##vings
##ycl
##ht
##hen
##hran
##hma
##hyd
##hroom
##lc
##low
##bing
##bra
##bridge
##pi
##pm
##poin
##ported
##do
##die
##dale
##gow
##full
##50
##jected
##jowa
##ον
theories
##eras
##erver
##erias
##inus
##inson
##inisc
##oney
##orial
##orge
##atible
##esis
##aron
##arat
##arth
inau
##enar
##enient
##itely
##anus
##ancy
##anagara
##alers
##alyp
##isi
##iscl
##asp
##asgow
andrze
toured
##icity
##reh
##rees
##ream
##rell
##ecular
##olf
##olution
##entieth
##stood
##stein
##throp
##thyl
##ady
##adysław
##amil
##amium
##omic
##omach
ontar
##urs
##etics
stay
stell
stock
stamp
staying
stomach
##ires
##irical
asia
asking
whate
whalers
reun
alf
albert
aligned
alignment
##iveness
##imoto
##leans
##idg
##idas
##cha
##cht
##che
##ched
bears
beats
ank
##owicz
shift
shirt
##ersed
hear
##utch
##ema
##emet
##ules
##ulamium
isot
chak
chure
chances
chester
chorus
##osene
##agl
##agur
seize
sega
##odz
##oded
dean
comfort
suitable
procl
##ppen
plate
##ocalyp
nee
neil
##rik
##uns
##unction
orleans
exter
exile
exists
##ifa
##opes
##opular
unw
unst
unoff
unha
##akh
spor
spines
spots
spher
spending
recall
recip
##aples
hadji
##ogly
##artet
##iah
##iph
prince
##oven
##ovic
closing
alloys
allenton
allotrop
##ourt
##ources
##ello
twentieth
worthing
feeding
relie
relating
relative
releg
##quay
perception
afterward
afterwards
science
scrap
abd
abol
mann
manner
amn
ample
carr
carvings
intense
gobre
commem
indus
indire
desper
residents
resources
##phis
filed
filkins
imam
183
18th
disl
repet
reporter
albion
uss
##iza
##izer
mushroom
uprising
recordings
earning
finest
financed
overth
overpass
fled
flesh
decorated
prefer
regim
compelled
compreh
blow
blog
##ease
##eastern
coff
cobra
minerv
remind
reminisc
interior
interchang
charitable
attending
genu
consort
##ensis
##ensions
##enska
acted
acres
ackn
bunder
buff
roy
acceler
accidents
##aceous
product
publishing
reverse
revenue
suburb
##awit
armia
impressed
centers
centered
##ailed
sym
embod
devolved
##issipp
depression
starter
genera
sox
peak
metric
artef
northward
supplement
##onset
defend
defined
varied
ell
elabor
obl
obtain
numbered
parcel
egyptologist
joh
southend
guards
studios
expect
expression
##inska
christopher
invent
##orns
incomp
incompl
rocks
transported
movies
weighed
descent
brad
brush
##rency
estanol
publicity
critically
pointed
maintaining
ownership
##kyl
caps
1927
1922
##ahan
origins
terror
originated
collins
portions
portray
portraying
barb
##aucas
quartet
quonset
151
positively
describe
describes
myst
demanded
postwar
simple
sixty
##fully
succession
johnny
downed
download
idol
medical
12th
distant
distributed
childhood
annually
avo
glasgow
##ashed
differed
openly
missiles
mississipp
1958
complaint
excavated
heavier
propeller
flex
178
17th
augmented
delays
delhi
easily
characteristic
1977
activists
reviewer
augustus
concerning
destination
modified
profit
profile
provision
providing
trading
teleg
triana
periodic
periodically
approval
##erves
salt
goalkeeper
calendar
confusion
advice
militia
##shaven
naturally
sounds
protecting
presses
pressing
aerob
swe
sweep
establishing
bandmates
edward
eddie
lowest
midst
sb2
sbcl
politiqu
initiated
churches
presentation
furthermore
puri
1967
1962
helps
lineup
1864
1860
replied
columns
labelled
wald
##obe
##obi
femin
masters
convention
solar
vienn
##oxonium
amongst
comedic
equated
240
cruise
certification
certifications
senjo
error
##araja
hunter
memphis
possibly
torquay
strait
expert
experiment
crimes
housefull
exploded
canadiens
fifty
oxides
oxidation
storyt
storylines
frontier
##isticated
fernando
sanjeev
everyone
civilization
killing
driv
dratch
persist
summary
connections
streets
illino
potentially
maturity
broadly
identify
panels
sulfides
sulfoxonium
##ontium
anglo
violated
copy
hoping
honour
honors
mixing
##ficial
needs
goods
1887
1885
1884
1880
balloon
grows
turb
volley
1878
intervention
moor
reading
superv
superior
arkadelphia
drawing
fields
praise
villain
policing
declaring
davies
mcgur
commissioner
commissioning
350
shootout
envision
hungary
garrison
satirical
processions
employing
bombers
ramanagara
technology
technique
lacks
languages
arrival
unless
diaster
palace
verulamium
##ommun
1898
literal
autobi
camden
cameras
dancing
ideology
fungi
entirely
benz
renov
treasure
theatre
removal
gradually
reduction
francisc
situations
detailed
260
crosses
donation
escorted
fallen
scream
mexican
premier
lifestyle
microscopic
convert
properties
travelled
programme
celtics
payments
##ophil
1844
charleston
accessible
safe
laborers
memorable
costume
dunn
judg
judge
keith
krajowa
quarry
clearly
reflect
reflected
colorado
jerry
kerosene
dissanay
greenaway
76ers
baham
bahrain
keyboards
pleased
raven
adopt
acquire
categor
daughters
gallia
horns
hindman
linking
rarity
indicating
pennsylvanian
balagu
draped
diamond
festivals
happy
keeping
keepers
pictures
tendagur
assembly
metallica
graduating
odd
waist
platform
emphasis
emphasized
struggled
struggling
dialogue
punish
wanting
learning
surprising
opinions
elevated
extremely
substitute
breaking
luis
molecular
wyoming
wearing
innoc
uncertain
clothing
preparing
mariah
patrons
farmland
screenplay
censored
censorship
miracle
omaha
thrash
stibnite
shaft
spirit
spectrum
disappear
seriously
marketing
jointly
suspected
reinforce
bonding
tuning
inhabit
concealed
concepts
segontium
amendments
attract
hydrogen
behavior
progressive
turkey
encouraging
sequel
sequence
antoni
antonio
remixed
substrates
licensed
cartrid
brahma
cubs
hierogly
message
oste
ronald
sophisticated
utah
prospect
adjusted
resignation
minimum
brandon
melodram
bronze
banner
bannawit
dynam
munitions
pitlake
wisniewski
shinawat
##umbered
sponsored
undertake
remembered
implemented
defenseman
helicopter
helicopters
limitations
framework
catalyst
catalytic
athletes
olympic
olympics
dangerous
erected
gasar
oriented
riga
whitish
unpopular
scotland
demolition
deliberate
requirements
temperature
jacqueline
brutality
dawn
koreanus
moment
rotation
sabres
sakimoto
veteran
władysław
chaluky
prolific
##operidium
upgrade
regurgitation
populace
patriotic
aeroplane
frigate
conveyed
pantheon
predecessors
instrumentation
renewed
##ehyde
pleasure
dorset
dennis
hawkes
jupiter
kilomet
psych
pupp
pageant
stroke
##ayanam
uniform
clusters
perceived
abundance
mansfield
flotilla
blazers
mineral
outlined
saurophag
calamity
curtis
motifs
substantial
nucleophil
buddhist
omnisc
decommissioned
cessna
crisis
cambridge
fantasy
moshenska
forbidden
congregation
leicester
leafs
carpenter
decrease
coyotes
basidia
expansion
promulgated
descriptions
mainstream
millennium
triumph
cruelty
oxygen
bhopali
wilmington
aziridines
scrutiny
sympathetic
wilhelmshaven
aesop
bennett
dagenham
etym
laverton
nahant
otranto
taste
tampa
velocity
andrzej
ontario
whatever
##ocalypse
unoffic
gobrecht
indirect
preferring
minerva
reminiscent
acknow
artefacts
incomplete
mississippi
politiquerias
illinois
mcgurk
diastere
balaguer
cartridges
shinawatra
03
04
4o
68
aunt
akhen
bord
bell
bub
bath
bark
bres
bigg
bipl
billy
cis
cec
cly
cow
cun
cure
craft
crop
cash
cemet
dw
dent
dim
diet
ek
ecc
eros
erod
fu
furn
food
fighters
gal
gand
gain
gri
gale
gets
gau
glyn
hou
het
hog
hub
hans
hole
hai
hms
hara
ic
ica
iifa
jaw
jenn
jaya
jorge
kle
kot
kap
kub
kee
korn
kobe
lw
li
les
las
liv
lig
lud
liz
lamp
lists
lank
lanes
lanc
mick
mouse
mallow
nh
nag
nour
nass
nuj
nca
oy
oath
odess
ola
oval
owing
pel
pec
pad
ply
pond
pose
pace
pool
pover
rent
rak
rog
rach
rome
risk
sult
sony
sang
sections
session
sessions
tent
tong
tap
tear
tended
tested
traw
telling
uph
vast
vick
ww
wir
wim
wake
ya
yam
yout
zen
zel
zeal
のウ
##aan
##ailles
##taceous
##oarch
##sw
##ses
##ships
##zo
##zan
##zky
##ea
##eit
##eur
##eke
##west
##water
##weal
##kl
##kal
##kill
##ien
##nat
##nal
##nish
##night
##nik
##nead
##rz
##rh
##rin
##rent
##run
##rings
##mal
##mith
##mate
##mons
##uan
##uly
##uild
##uang
##uah
##cities
##cised
##cement
##cially
##csen
##coming
##capes
##xus
##yg
##yers
##h5
##hot
##here
##hear
##house
##lance
##lau
##laces
##bour
##burg
##pe
##pear
##power
##pool
##poned
##de
##ded
##dec
##dell
##deep
##gon
##gent
##gear
##gost
##gets
##gren
##gau
##guns
##3sb
##fis
##feld
##friend
##function
##ju
##jan
##jid
##τι
##ァル
##キュ
##リア
thist
thorns
thebes
##erable
##ercised
##inating
##ona
##onal
##onton
##atan
##atist
##atics
##atures
##escope
##arves
inhib
inclusion
##encing
##iti
##itis
##itating
##itarian
##itoba
##ancing
##anjo
##alato
##isations
##isons
##asters
topp
##icing
##icating
##rown
##rooted
##rocities
##ioners
##elor
##elle
##ilised
##ecution
##enti
##entful
##stri
##stant
##stock
##stown
##thoff
##thrie
##adi
##ador
##adito
##amor
##omal
##omore
##omeric
##ura
##eters
##etzky
forec
forested
foreh
stere
stip
stained
stood
stimm
staples
##irk
##iri
##irts
ask
whig
wharves
reop
reper
alive
alice
altar
alcock
alkyl
##ivo
##ivatives
##imid
##imse
##lend
##idal
##idian
##igation
bearing
##otive
anat
anson
shakes
shipped
shadow
hey
hema
##ulum
atoms
atrocities
conj
conject
isn
chord
chee
chines
chih
chivo
##osition
##aved
##verham
##agh
##agers
seed
send
seam
##odus
##odium
depl
suit
sure
pros
prote
##ppa
##ppage
araya
pled
plag
pliny
##ocar
##istence
##estic
##estone
neill
nether
##uno
orange
oracles
exact
exha
exempl
exoperidium
exercised
exodus
##oped
leo
leb
leap
leade
leone
leaked
leagues
##ategy
##illit
##illis
##ghan
unity
unev
unified
unbreak
traces
spru
spont
spouting
spoke
spokes
spalato
splend
recount
##iants
##udes
##ogram
##ectivity
##ostic
pron
pray
price
prices
prayer
print
enabl
enabled
ennead
##ieux
clin
clips
clutch
aft
##ptic
##rupted
##elli
feels
##asty
##astruct
##inea
reloc
relate
relatives
firing
poll
##quate
##uster
##pled
scan
sciences
scutt
scenar
##ube
adults
abbes
##athers
##clair
manual
maniac
manitoba
amadito
intact
intros
committed
yearwood
indra
indef
indeed
appropriate
desired
desert
agents
teget
tehran
offenders
##phic
##range
aired
airship
airships
airstri
##ansen
imbert
182
1800
##ocks
disag
disruption
godly
filmography
usa
usd
seasonal
becht
musically
uprooted
##active
finland
finnish
##rone
flaw
understood
actual
##entsia
decay
decides
deciding
decomp
##ibilities
comprom
compound
components
component
compilation
##eased
coached
coordinated
evident
evolved
mines
ministers
anticip
basil
charted
charity
charco
monk
monitor
monarchy
awa
brittle
attained
wheel
##iously
specie
##ika
norway
##aeus
consulted
##ension
somebody
acids
retain
retreat
retention
roof
accur
accus
##ctioned
knee
knaf
schem
thereaf
thereby
reveals
canaan
##aware
armlets
impot
imperson
centimeter
marian
marine
margar
surge
emi
devil
devoted
##tershire
presided
##eering
##angular
peat
metals
novels
varies
variants
operates
operational
operator
pars
paris
param
parents
sajid
southeastern
guar
guthrie
guinea
expand
expired
expelled
expressing
##inski
load
welles
invoked
##rowed
promised
##orne
income
incidents
values
marking
markers
transit
discipl
discontin
slav
slov
slope
classified
classify
web
wealth
weaker
##flu
##inder
##indisi
##itsu
differs
brimse
brindisi
cretaceous
popmat
ordinary
calls
capillit
governing
schooling
humil
redbridge
governed
likewise
nearest
##rolled
collective
portra
portable
##ismal
plane
planets
barely
10th
developments
greece
nationalist
excess
excited
158
15th
myc
smallest
demos
posting
postponed
steamed
heading
headlin
headgear
builders
gunboat
junction
junior
peoples
downs
ideal
medic
medium
socio
societies
##oyed
anyone
halides
halogen
respected
strategy
childe
kingstown
routes
annot
##ranged
majors
counties
coinage
issuing
representation
representatives
damaging
complicated
hyper
hymen
muang
propri
organising
organisations
flew
173
handling
##ographies
geological
austrian
delay
delight
delux
extent
extends
1979
actively
reviewed
reviewing
concur
contrad
increases
funn
functions
modeling
humanity
telescope
stands
standout
listening
salts
advis
adviser
advocated
advancing
corral
corrid
courses
juanes
nataraja
lands
restr
restored
restaur
swed
completing
edited
edibility
editor
commercially
sbh
250
limiting
fring
reality
1965
communist
squadrons
visits
1867
1869
1865
stats
##aimed
primaries
primitive
##engue
membership
versailles
survive
convenient
professors
equal
equally
equalised
crucial
senator
eras
errors
ergost
radetzky
selections
storrington
memo
possess
experts
crim
commonweal
philip
coupled
denote
denotes
fifteen
frustr
fruiting
oxen
pius
pippen
##parts
girlfriend
mera
meridian
merengue
dealt
dealing
destroyer
detached
occupying
paoch
televised
cutting
facility
tempo
temporary
attacking
electro
electoral
shotguns
1903
address
individually
driving
persisted
persoon
snow
tenure
westerns
competitive
competitions
eventual
funded
sexy
discovering
illness
strikes
##berties
50th
matters
suffer
regularly
identical
burton
traitor
angry
observation
cope
dominant
hope
seek
improving
massacre
blocked
blockading
mintage
402
darling
darby
darcsen
harv
harass
harbor
hostilities
lydney
volatile
wolverham
1877
1873
1870
holidays
moist
membered
draws
drawings
praising
rounded
##ebanjo
insec
minority
mcdon
revolutionaries
biographer
ranks
viewers
probable
republican
3100
satell
affect
employment
territorial
bombay
ramfis
infring
permit
looks
surveying
qualify
changing
arrest
arrive
mythic
mythology
ferox
licences
rites
verify
analyst
1895
1850
availability
danja
laws
lawyer
mvps
physically
bench
bengal
groundsel
riff
treasures
width
theatres
arguments
absol
reduce
focuses
crossed
donald
escort
fallon
falling
tales
screens
engineer
engineers
burning
burnley
microscop
sampl
separately
traveling
texas
warships
guitars
programs
juliusz
likened
ashes
ashore
ashley
negl
examining
safely
participate
achievement
corner
deterior
ir8
judged
judges
letters
vanished
stoichi
stoppage
leonidas
finding
findings
depiction
intelligentsia
reflects
floors
actresses
rooms
symbolic
discussions
422
aimee
bird
derives
derivatives
dedication
essex
kerry
mountains
washed
exhibit
exhibition
exhibits
prepare
composers
morality
effectively
scholarship
thinking
fortifications
concludes
consistent
acquis
surfaced
maskrays
385
hornung
painters
unsatisf
immediate
fictionalized
soundtracks
baltic
queens
ranging
saved
tends
referring
chemother
assembl
antimonides
metalloid
cosmetic
cosmopol
fixt
naming
##sbury
##sburg
interactions
kimball
kimmy
alternating
learn
spotted
scottie
surprise
brooks
earthstars
counterparts
targeted
maryland
sarsen
wyc
weary
yourself
unclear
dispersed
questions
magician
lottery
shawn
seaside
##iffe
precious
highlighted
acceptance
validity
global
telecommun
strikeouts
jeffrey
henryk
henryson
citizen
candidates
cotton
dahau
hanging
masonry
pounder
inhal
inhab
tommy
degrees
rectangular
parishioners
opposition
edmonton
birthday
cardiff
filled
sandler
anupama
orbit
resembles
resembling
acclaimed
sketches
functional
adaptations
essentially
ignored
lecturing
lectures
misery
roskill
troubled
shoes
sporting
recovery
recovered
worthy
displays
displaced
earnings
loyalty
distinguish
passenger
confirm
wrecks
fabric
fables
gathering
hayhurst
kalayanam
packing
sophomore
yogishvara
##uffle
throwing
tough
beauty
##ulsive
##oselectivity
prospects
exclusive
intentionally
deprecation
elsewhere
democratic
occasional
blending
manufacture
maple
racial
vacant
##prinz
##related
reverend
recruited
controversial
immig
flagship
remembering
defenses
delegated
salvage
corporate
selectivity
persuaded
satisfy
principle
traveled
negotiations
withdrawing
m1822
cryst
dilap
dangers
lucaris
rashtrak
##kinson
##rupting
amazon
amazing
inducted
remarkable
buyout
publishers
instructor
demolished
deliberately
temperate
penetrate
allegory
repeatedly
hundreds
ceased
dacoit
dacoits
fascinated
habitat
loving
sectors
taj
vehicles
wedding
yankees
yankovic
threads
choir
checked
orchestra
excluded
discouraged
slabs
epithet
epithets
predominantly
venerated
disappointing
highlighting
cavalry
cavaliers
splitting
baptismal
jagdeep
mummies
ptah
pulled
##corrh
tolerance
beauf
atmospheric
conquest
conformation
seemingly
unnamed
adriatic
numismatic
empty
songwriter
1791
explosive
appointment
sanctuary
physicist
accomplishments
nickname
porfirio
bryant
cousin
drafted
diplom
fertility
liquid
mistaken
nubia
vertical
veget
andhaka
succeeded
arniel
ardhan
pregnant
noisescapes
retardants
impressive
divorce
belgium
parachute
engagement
loosely
discerned
mycelial
postcards
disturbance
landowners
methylene
motorcy
infrastruct
ceratosaurus
lifetime
polytheistic
illustrator
dismemberment
phylogenetic
yugoslavia
aristocratic
montenegro
c6h5
dimethyl
kirn
kronprinz
lynn
pupils
##oantimony
##rigue
##rella
reunited
ankle
chakra
chesterfield
unhappy
sporadic
allotrope
worthington
relegation
amnesty
amplexus
comprehensive
accelerated
johansen
expectations
swept
waldrons
vienna
experimenting
storytelling
driven
envisioned
franciscan
judgment
dissanayake
bahamas
punishment
disappeared
hieroglyphs
osteoarch
nucleophilic
omniscient
acknowled
akhenaten
breslau
cistern
clyde
hoglan
icao
lwow
liberties
lesl
lankan
mallowan
nassau
ncaa
oyebanjo
odessa
plymouth
poverty
rachel
sultan
tongue
youtube
のウァル
##キュリア
thistles
forehead
shakespear
cheek
chinese
chihuah
netherlands
leadeth
uneventful
unbreakable
spruce
enabling
scenario
maniacs
introspective
tegetthoff
airstrips
charcoal
knafel
thereafter
margaret
discontinued
wealthy
brimsek
popmatters
hymenium
deluxe
commonwealth
paochinda
wolverhampton
mcdonald
stoichiometric
cosmopolitan
kalayanamitr
rashtrakut
##corrhiz
infrastructure
osteoarchaeolog
のウァルキュリア
05
3s
58
6th
73
81
80s
aus
agh
aided
aaron
bou
bent
bac
brom
bun
bak
bip
bury
boles
bully
cig
cod
cress
cros
cyl
craw
cyn
catherine
caucas
dol
dab
dive
die
dual
dick
dates
dorn
dys
dying
ditch
dhaw
dasy
dlc
ew
eg
ect
eub
ewing
echo
fou
fet
fra
fri
fond
fable
fals
fulf
fights
fighter
gw
gy
gin
gon
gut
gra
gest
gord
gill
gap
gently
giers
ganes
gosp
hav
hain
hod
hate
hoff
ib
ian
ist
ira
ions
ips
iata
jed
jes
jas
jur
jay
jak
jail
jabbar
javed
ku
kart
kare
katherine
lp
lon
lent
lac
lib
lively
lamb
lights
liver
mr
mg
m3
mate
mend
mik
miam
mental
mesh
nic
npp
nik
naut
nwa
nurs
nadi
oz
ore
ostr
osel
okl
pas
pion
pir
piv
pest
pong
pip
pile
pix
pale
pink
pyn
pending
pasc
ptv
papers
piano
rand
rice
rames
rational
ramp
rys
races
rented
riel
ripped
ss
sv
sł
sed
sid
sum
sard
sok
siber
somers
sinking
sodium
ty
ted
tight
tony
tick
tank
tides
tape
tanks
ust
uter
upt
umb
vf
vig
vand
vary
vague
vince
vase
vital
voting
wes
wet
wave
wool
waves
wels
woff
wann
wives
woj
yar
yards
yeh
ypm
zu
zapp
zoo
αν
กล
##ais
##aid
##aire
##tes
##tan
##town
##tke
##oor
##oes
##opp
##sa
##s3
##sity
##sulf
##zann
##ziza
##eper
##eks
##won
##wist
##wald
##wala
##wasp
##kner
##keep
##kla
##ił
##iast
##iys
##ipping
##iator
##iocar
##nar
##nam
##nery
##nants
##ride
##rence
##rating
##rero
##met
##mac
##mod
##mill
##mine
##mph
##moil
##uv
##uil
##uge
##uance
##ugal
##uaries
##ci
##cr
##cies
##cia
##cure
##cence
##cons
##czy
##comers
##xton
##vas
##vous
##vious
##yon
##hin
##hai
##hara
##henge
##hyg
##huffle
##liam
##litz
##loud
##bl
##bted
##bart
##bell
##bels
##pop
##part
##person
##pole
##dish
##dict
##gle
##gers
##gus
##gone
##gins
##grow
##gural
##gling
##giate
##34
##fu
##folk
##ła
##15
##11
##47
##40
##jou
##jam
##jda
##jea
##μον
##ος
##าณ
##ยาณ
##มต
thigh
thie
thoth
theory
##erie
##erland
##errero
##erjea
##inan
##inear
##inous
##inely
##inence
##inburgh
##initely
##ede
##edral
##onian
##onstruction
##oross
##orative
##atig
##atically
##ativity
##aration
##arey
##arishvara
##arettes
inferred
insc
inapp
##enas
##enic
##enish
##enues
##enoid
##enfeld
##itic
##itary
##ituary
##anas
##anur
##anim
##anide
##anium
##anax
##anita
##alo
##alem
##alia
##alism
##alides
##isle
##isem
##isia
##isive
##isely
##ingridge
##asa
##ases
andy
##ici
##icit
##icic
##icut
##icens
##rott
##reve
##outed
##oubted
##elines
##ila
##iland
##ilian
##ecz
##ecamb
##ecked
##olar
##olema
##olerable
##entric
##stan
##stad
##state
##thy
##thed
##thor
##thal
##thod
##ads
##adu
##aden
##adium
##adla
##adwala
##adhara
##ami
##amm
##amal
##amind
##ampton
##omed
##omkla
online
##uris
##urav
##urities
##urance
##urice
##urred
##urring
##eta
##etus
##etical
##etence
##etically
forg
forem
forts
forget
forster
ster
stations
stry
stings
stair
stint
stech
stalled
strange
stadium
##aca
##acent
##ird
##irations
##irable
whisk
reass
render
reject
reward
rework
ally
alds
##ivicic
##imited
##imination
##lew
##lef
##leaf
##idy
##idum
##idated
##idiy
##igonal
##teric
##terly
##ationally
##chon
##chief
##chelor
beav
beast
bearded
##otr
##otry
##otrophic
anion
anem
anub
answ
##owi
shed
shen
shame
shower
shorts
shops
sharing
shreve
hend
hewn
heating
heka
heinz
##emus
##umin
##ulet
##ulus
##ulatory
##ulkner
##uses
##using
##usalem
atomic
atkinson
##tsman
##tsburgh
cond
conced
isf
isab
isiah
chil
chand
chlor
##osis
##osoc
##osulf
##osław
##osiya
##avan
##vereign
##agger
##aints
seiz
seized
seats
seemed
##odic
##odosiya
deem
deals
deeper
204
comical
comments
suited
proced
proxim
aria
arik
arenas
##raid
##rahyg
##isha
##ishman
plaus
##occ
##istas
##istice
nekh
neotry
##rians
##riff
##ripts
##unc
##unes
##unte
extern
exits
exting
execut
exceed
exagger
##ifies
##ifiers
##ichlor
##oprop
lep
leak
leaves
leased
leishman
##bery
##berra
##bergen
##illand
##abal
##ables
##ardi
unt
unh
unb
unre
unsp
unpre
unbe
trash
trump
tricks
trunk
truly
trigonal
spo
spin
spar
spit
spear
spell
spraying
springs
sphere
rectil
recycl
##apy
##apat
##apis
##apse
##apult
##iana
##oge
##rities
##ectal
##ectors
##arte
##ipong
pran
prad
pridiy
notion
enth
enam
enfor
enters
enorm
enroll
enraged
clover
clergy
cloud
alliance
alludes
afc
afford
afraid
##ourse
##pta
##ptych
##acked
##antor
herding
worse
worms
fee
feodosiya
##astable
##ccio
rely
relev
##icalis
perished
##plan
##place
##ploys
##achomkla
##achuris
scra
scaled
##uble
adorn
adolf
newport
newcomers
boh
boil
boony
boards
abh
abode
abrupt
##athi
##athed
##athorn
manchester
manpower
amounted
carl
caric
integ
intimid
intolerable
##endent
##ateral
##assy
##assic
##assium
##assador
indo
indies
indones
indira
apply
apple
butt
desire
reson
resurrection
reserves
reshuffle
##onder
aged
teeth
##reeks
offseason
##arking
##rants
airmen
airlines
imca
immun
disemb
disagre
disband
disgr
disease
repro
reprised
usn
musket
partners
meat
upr
upris
##action
##acture
##actory
##actions
financ
overlo
##ronts
underto
underlying
undergone
##rying
##ulting
##cedented
decree
deceased
deconstruction
serb
serbs
pret
preferred
prewar
prefers
##ibious
regained
regga
compare
comparing
computer
compatible
bloss
blair
blaine
cook
coex
evolution
minted
minors
assured
assisted
assemble
assignment
assmann
antisem
basin
bases
basically
warts
warri
warwick
remed
remit
remembers
remnants
interrelated
charter
##forts
outgrow
monik
monte
teammate
##eya
attitude
genesis
speculated
##iko
##iked
##ikes
##ikely
##ikeya
workers
norfolk
consul
conserv
##ensch
##enski
##ensively
##urned
highland
highways
##cestershire
nob
acorn
releasing
endured
retaining
retains
retitled
roth
accomm
productions
##onyms
schwe
schadla
mail
mahar
maza
maurice
revital
subt
subsc
##rible
cannes
canuck
canberra
phone
##awer
armory
armistice
imposed
imposing
imprison
marrow
marble
margin
margins
surreal
emper
emetic
employs
install
instinct
instructed
devices
maya
smugg
germ
depot
depends
generals
germanization
colour
colours
preserve
sovereign
##iction
##airava
peers
peziza
metrod
metastable
nova
novello
novoross
northbound
supper
supports
suppressed
supporter
batters
batting
batchelor
signings
##onsi
defa
define
variations
varsity
elf
elmore
eliot
obvers
obvious
obituary
belle
operators
parent
parted
paragl
parliam
parrott
##tenance
backing
joaqu
sax
1981
southbound
southwest
guy
guess
guided
guides
guerrero
gupta
exported
expecting
engined
christgau
lover
looted
lobb
loaded
invented
1940s
promises
incred
valens
valued
valenti
transm
transition
transactions
slit
slam
slip
slower
slaugh
slider
##everance
classics
classmates
movements
weather
weaken
weiland
weird
bright
bruno
graves
grimes
grivicic
scoreless
creosaurus
estate
estranged
receives
publicly
pointer
apocalypse
locally
locals
maine
maintenance
founder
founders
capit
##amedu
rede
redist
rediff
reddish
##ahl
##ahoma
terry
terria
terrain
governors
##ierc
millimeter
##elope
collided
collecting
collingridge
collateral
portal
portland
portugal
continuing
barnes
##atched
##atches
grey
raj
rajeev
dolls
quad
quoted
##gged
franz
myers
demob
posts
postseason
simpl
simmons
stead
stepped
successors
gunfire
gunnery
junun
jungle
johns
downward
medius
##oyd
halt
halted
halina
##erta
124
distorted
respective
stray
jane
janet
anneke
annoyed
persona
30th
countless
glor
glamor
##ashtra
commands
morph
morale
morris
morecamb
westmin
particles
##nedy
1953
1951
complaints
proposing
organoantimony
117
112
11th
servants
synchest
synonyms
175
171
172
heli
handed
handker
handica
inflicted
##ographic
geography
138
austrians
deliver
delayed
delicate
easier
extr
extend
extract
extensively
believes
madh
activism
reviewers
bullet
bullets
effected
efficient
concession
concussion
contracts
destit
modest
models
modelled
oppress
opponent
oppidum
profound
profitable
saprot
typical
proven
provides
providence
humanities
trio
trial
trips
triptych
##ussy
##ussian
navies
navigation
totally
##retion
controlling
listings
runner
runways
sala
salim
calm
calle
calib
calthrop
caldec
lighting
confined
coron
juanita
##shan
##osaurian
soundsc
protective
prototype
pressur
pressures
pressured
europaeus
aero
flyers
figur
landings
landfall
restoration
swing
swans
switch
switz
##inker
blackstock
editors
edinburgh
##ramidal
##anne
##anny
observer
obscure
ordering
sb3
despatches
25th
limbs
initi
churchill
cameos
fracture
realms
realistic
1963
1960s
communicating
helping
14th
holed
visiting
indians
laa
laure
replay
walking
##obia
styl
enterpr
entertaining
resultant
masand
verses
survives
##ringi
academies
academics
160
soluble
##nerable
campbell
##atorial
comedians
curric
curve
equatorial
begrand
formerly
cattle
cattar
catapult
crust
cruising
prizes
trott
##ezvous
ernie
radial
radius
radiocar
solders
soldier
memories
torre
popularity
crush
##etto
explore
explode
explicit
admiration
commoners
internet
internationally
philos
countryside
oxid
poet
poem
pohl
poison
poppy
piotr
educated
frontal
merely
inspect
inspection
inspecting
inspirations
dealer
detected
detectors
fairb
fairly
occupational
farber
victories
chronology
chronicle
managing
specialist
specialized
departments
electorate
everyday
civilisation
kills
killer
privacy
persian
persecution
perseverance
sne
stonehenge
connects
compete
creative
sexually
industries
hitting
hitler
illusion
poti
potassium
stripped
favored
mature
treating
treatments
sufficient
revolt
broader
broadhurst
identification
burman
horiz
horthy
traum
trailing
photos
collegiate
observers
croats
hopkins
richest
applies
improvis
averages
caxton
honjou
lloyd
mixt
informal
refers
legs
legally
blocking
mintages
balloons
breakup
daro
doub
doug
harm
harrison
harrel
harbour
lymph
turret
turmoil
volcan
volunte
##getown
##atorship
1875
methanide
recognize
mohen
staffed
superwasp
hardness
ruff
ruiz
villages
villagers
insurrection
insurance
##ompass
policeman
440
mci
rhenish
tourists
fragillis
355
35th
astrahyg
biological
biotrophic
multipl
multitude
pastich
rulers
hunger
duff
garage
garcia
satire
sometime
ulnar
walled
revealing
employee
employees
announcement
photographer
photographed
photographing
photographers
bombing
picks
ramon
technically
permits
looked
occurrence
georgetown
approaches
audition
audio
audiences
machines
qualifiers
tarmac
arriving
unlocked
unlicens
unlimited
unlikely
closest
journalist
dioc
diary
ferried
fergus
factory
males
palm
1896
1892
1855
1850s
architects
literally
certainly
auton
autism
bhairava
bhringi
woods
practical
ensured
ensuing
knowing
substance
campaigns
bowl
grounds
nationally
searched
argument
collaborators
crossing
freely
karol
talk
talents
talking
winger
rebel
rebels
rebuild
chapters
premium
interesting
interviewing
propagandist
faulkner
lift
lifes
samart
samples
samuel
properly
encompass
assistance
groove
venus
venue
venge
examined
sculpted
charlie
charlton
grandson
franklin
participation
antiquity
antiquities
necessarily
necessitated
achievements
economics
367
costs
costumes
dunk
depictions
quarters
banking
clearance
espn
testing
testimony
taxi
polym
polymer
polycha
colorectal
cinemat
biringu
jerusalem
kerch
mortem
mountain
pairs
pairing
##lessness
exhibitions
permanently
dissol
dissatisf
greenwich
vocalist
syntheses
guitarist
drex
dictatorship
macmill
ravine
urgent
##pleas
complement
consistently
emerge
victorious
banerjea
beneath
painting
susan
##iterate
streaks
unsure
entrances
labeled
entertainers
illustration
balance
bolivia
baden
documents
dramatic
referenced
chemistry
surrey
antimonide
antimonium
defining
slowed
graduation
symbols
dubbed
editions
odds
tribun
undist
undoubted
waiting
prohibitions
reconcil
bridgehead
experiences
kimmer
punk
punishing
rumor
##ancies
proceedings
emotions
brooke
elemental
elementary
confederacy
potentials
counterf
counterpart
targeting
substitution
celebrities
demonstration
memorials
babe
falcon
falcons
granules
luke
molten
moltke
mobilized
mobilised
oilers
overseas
wyo
watched
##borough
arrests
recreate
preparatory
taxonom
dreams
4000
censor
drummer
fresco
fresno
huge
huerta
khenty
layered
lotus
mirabal
mutiny
martine
watson
innermost
stibium
spiracles
spreading
precip
precisely
regulations
highlights
marketed
preventing
julianne
suspend
suspended
azure
loud
niall
tune
tunisia
wright
yeah
##omycorrhiz
legality
rectory
ambassador
mahesh
supplied
supplier
constituted
constitutional
restrictive
turkish
boring
borowski
borrowed
fatal
haiti
liner
linear
lincol
mccombe
mccarey
rudnicki
orbits
orbital
orbiting
maneu
resemblance
overtime
overturned
intersects
settlers
functioning
mysorean
77th
cartoon
drug
ethos
ivor
jonathan
jacob
kohl
logo
railway
tournaments
stalk
rendezvous
anchored
shoe
ornaments
recommend
prisoners
displaying
filmmaking
filmmakers
bucket
robinson
robbery
deposit
northwestern
objective
incorporating
steamer
necklaces
scholarly
challenged
challenging
manifestation
investigations
ganges
gangadhara
hierarch
hierarchy
iconic
iconography
iconographies
kenyon
kennedy
kalachuris
messages
packed
ronnie
utterly
yogic
throws
shares
adjacent
agrees
preceded
products
doctors
doctoral
doctorate
democrats
conversion
narrower
diagnosis
melody
blends
correspondence
dynasty
municip
pittsburgh
rushie
sadistic
tipu
wisdom
##czanka
recruit
amidst
flatten
flags
comparable
comparison
comparisons
guidelines
barrage
delegation
delegates
confrontation
politician
persuas
persuade
ironclads
absorption
negotiate
athlete
questioned
dahlgren
970
beds
boundaries
lemieux
portsmouth
climate
climbing
scotia
contributions
contributing
intensified
intensify
induction
publisher
apartment
ghosts
anthropomor
freshman
wrongly
jacquetta
folded
habitats
korea
moments
piercing
szent
slender
sleep
tetanur
tactical
tactics
vehicle
włodz
wildhear
yields
yielded
##uggah
shifts
shifting
cheaper
prolong
amphibious
fluor
evacuation
evacuated
cannon
cannot
translation
translated
discourse
collectively
synonymous
aeroplanes
frigates
ancestor
automotive
predecessor
##ehydes
veneration
interpretation
interpretations
besides
bulk
bulld
baptist
hiatus
homosoc
ptolema
purely
tumor
tumulus
waddon
waddell
altman
aldehyde
atmosphere
adrien
carbenoid
descends
agreeing
disgust
attribute
attributes
subsistence
marcus
emptied
parody
grayish
constructing
syncretized
syncretism
listeners
adventure
epicloud
experiments
experimented
sanctuaries
victims
electroneg
trends
encounter
encountered
touching
consciousness
legendary
ceiling
domestic
ecology
ecaha
gilii
mitchell
mitchells
ndtv
tanzan
tartar
tartrate
voiced
vulcan
vulnerable
stingray
stimulated
stabil
chulachomkla
sudden
plantain
neighbor
unfortun
clericalis
clayton
alloying
intentions
goeben
goebbels
megamind
overcome
remuneration
remunerated
monotheism
monotheistic
artifact
artifacts
obstructions
dozen
dozens
quantities
patrols
courtyard
courtyards
conventional
catalog
speaks
connecticut
ruthless
garnered
affiliated
motivated
intellectual
rejoined
nineteenth
surpassing
emotionally
principal
hypothetical
ae2
baldev
cadet
culmin
craig
cassino
cafes
durable
dosti
dockyard
digging
etc
friedrich
graphic
habsburg
ille
jimmy
jumps
kwame
kennet
nomadic
niche
tsar
vuthiph
##piece
##point
##aratkal
inaugural
##iscliffe
alfonsi
##idgian
isotopes
proclaimed
exterior
unwilling
unstable
spherical
recalls
recipients
abdul
abolition
desperately
disliked
fledgling
regimental
coffin
reminds
interchanges
genuinely
consortium
buffalo
sympt
incompetence
bradford
barbara
mystic
avoided
telegraph
aerobatics
sb2s3
feminine
persistent
autobiography
benzald
renovation
tendagurensis
inhabitants
dynamic
chalukyan
kilometres
psychological
puppet
saurophaganax
aesopic
etymology
unofficial
diastereoselectivity
bubbles
bigger
biplane
cecil
cunning
crops
cemetery
eccentric
erosion
eroded
gandhi
houston
harappa
klein
ligament
ludwig
lancaster
mickiewicz
nhc
olaju
tentatively
uphold
wwii
zelenski
##functional
toppled
stipulated
stimmi
ansons
conjectured
exemplified
lebron
leaping
recounting
##ograms
prayers
relocation
scuttled
indefinitely
1821
disagree
bechtler
flawed
monitoring
wheelers
accuracy
scheme
impotence
impersonation
surgeons
parslow
guarant
disciplina
slovenes
webster
##fluor
capillitia
halogenated
annotata
concurrency
contradict
corridor
sweden
ergosta
memoir
crimint
frustration
moisture
insecurity
satellite
analysts
absolute
microscopically
sampling
422nd
acquisition
queensland
chemotherapy
assemblage
fixtures
wycombe
telecommunication
inhalation
crystall
beaufighters
diplomatic
ardhanarishvara
chakrabart
leslie
shakespeare
chihuahua
rashtrakutas
のウァルキュリア3
boucher
bolesław
cigarettes
cylinder
dolmen
dysfunctional
dhawan
dasyat
ectomycorrhiz
eubanks
ginczanka
gordon
giersbergen
ganesha
gospel
havilland
hoffman
istvan
iraq
ipswich
jurassic
kartikeya
kareem
miami
meshuggah
nppl
nautical
nadiadwala
ozawa
oklahoma
pivot
pongsak
pixie
pynchon
pascual
ramesh
rysher
riela
siberia
somerset
ustasa
umbrella
welsh
wofford
wannab
zuzann
zappa
กลยาณ
##iysk
##มตร
inappropriate
##aniumyl
stechowi
rendering
anubis
showering
shreveport
conceded
seizure
proximity
arikamedu
plausible
neotrygon
extingu
exaggerated
unprecedented
unbeaten
rectilinear
recycled
pridiyathorn
cloverleaf
adorned
boonyaratkal
disgrace
uprisings
undertook
reggaeton
antisemitic
outgrowth
moniker
accommod
maharashtra
canucks
imprisoned
metrodome
novorossiysk
parliament
joaquin
lobbied
slaughter
glamorous
morecambe
westminster
synchestra
handkerchief
handicapped
saprotrophic
caldecott
soundscan
switzerland
enterprise
cattaro
trottiscliffe
radiocarbon
improvisational
lymphoma
mohenjo
multiplicity
unlicensed
ferguson
polychaete
biringuccio
macmillan
undoubtedly
kimmeridgian
lincoln
municipal
włodzimierz
wildhearts
homosocial
ptolemaic
tanzania
chulachomklao
vuthiphong
olajuwon
chakrabarti
zuzanna
กลยาณมตร
boonyaratkalin
07
08
06
2so
78
980
ax
ay
ah
ail
aad
aur
aay
aap
ather
aqu
aub
ahl
ayal
astr
aids
ailing
aisle
bin
bic
bom
bot
bian
bart
bial
bast
bout
boss
bony
bail
bind
bery
breas
bio
bible
brew
bened
bunch
baker
cz
cn
cic
cac
cort
cater
cable
crum
cots
cush
czes
cetus
cahl
dat
dal
dion
dow
dum
dul
dere
dod
dish
drib
dars
dances
darker
doming
danti
dirt
dirk
danny
eso
ecl
erupting
fis
fion
fot
fost
fcl
fade
fied
fool
famed
fare
fused
fuck
fusion
faster
foul
fathers
fronts
gp
gel
gent
gus
gab
gear
gend
giz
geas
gors
gaz
gare
gains
gator
gaya
gilling
golf
greeks
hp
hf
hat
hes
hac
hap
holl
hide
hass
hence
hens
hail
hates
hake
haus
hau
heter
hilar
hana
iod
iuc
ithm
jal
jad
jog
jell
jub
jock
jha
josh
jaki
kin
kat
kan
kas
kur
kul
kru
kath
kry
komin
kris
keng
kitch
kett
kiel
kemble
kids
kaly
kamil
kahan
krz
lis
lut
lag
lour
lust
lact
lull
lone
lind
laz
lots
lying
lament
loses
lingu
lung
lips
lese
lorne
larking
mt
ms
mk
mj
m2
mit
mou
ment
mos
mav
mere
mak
mong
mud
math
mock
mice
moss
mull
mood
mounds
mgr
misf
nk
nes
ning
nig
nand
nies
nost
nant
nau
naves
nomen
naugh
ot
ow
oec
ober
oily
outh
olef
pin
ped
pon
pig
pav
pse
pore
pust
ppl
pend
pater
pans
peas
posed
piety
parker
pont
pomp
pector
pacing
pump
pissed
pinus
pussy
ri
rf
r1
r2
rer
ral
ris
ric
rou
riv
rim
rut
rite
rens
rings
rah
rogue
rape
rising
ridge
rises
rivals
si
sag
sess
sop
sia
sach
sight
sous
sib
sick
sake
sier
sink
sages
samb
santa
sander
sully
santo
socks
td
tis
tay
tut
tus
tand
trough
tally
tang
tenth
tug
tgs
tightly
tilling
tears
tlc
tensions
tension
tables
tawer
um
ud
upl
utt
ucho
vl
vin
viv
vere
vib
voy
vann
vogue
vagu
wig
wag
wies
ward
wart
wade
wished
wrist
wern
wemb
wilt
wages
witt
wishing
wakes
woo
wił
wonder
wierc
xik
yd
yed
yves
ze
zb
zim
zaw
zof
łodz
στι
เอ
##ađ
##awn
##aunch
##tor
##tion
##tre
##tus
##tment
##tical
##time
##tiary
##ois
##oad
##oac
##oine
##oaded
##sis
##sing
##sol
##saw
##smith
##zi
##zn
##zb
##zed
##zig
##zart
##zman
##zale
##zto
##zynski
##zetta
##zirk
##eat
##eim
##eav
##eous
##equate
##wor
##wan
##wal
##wil
##wim
##wess
##wart
##wold
##wson
##wau
##ware
##wski
##woven
##kom
##kers
##kee
##korn
##kets
##kau
##kew
##kless
##iat
##iak
##iable
##iates
##iators
##iagn
##iello
##iomal
##ng
##nell
##nast
##nine
##nings
##noon
##note
##rer
##rar
##rac
##rish
##rill
##rates
##rase
##rined
##rential
##rera
##mt
##mo
##mi
##mis
##mish
##mount
##matic
##miths
##minated
##muda
##uct
##ugh
##uity
##uents
##uka
##ukh
##cat
##car
##cre
##cot
##cut
##cord
##cery
##case
##cott
##caster
##cuff
##cribed
##court
##caucas
##celli
##xid
##vd
##vor
##vic
##vel
##vyd
##ye
##yf
##yane
##ythe
##yola
##ytes
##hs
##hes
##hit
##hou
##how
##hand
##hard
##hered
##halides
##heim
##hrer
##lar
##lam
##lain
##lies
##list
##light
##like
##lins
##lected
##life
##leness
##lude
##bi
##bh
##ben
##bec
##bent
##bir
##brough
##bone
##bank
##bling
##bourn
##brid
##brand
##buster
##borne
##baden
##pw
##pat
##pen
##pal
##pec
##pers
##pul
##pect
##pans
##pices
##dz
##down
##dery
##diving
##gom
##gate
##gru
##gio
##group
##gars
##gkin
##fig
##fest
##fast
##fight
##found
##fix
##fits
##firing
##łos
##łcz
##86
##8th
##60
##55
##1sb
##44
##js
##jun
##jew
##jcy
##jny
##jazz
##28
##ปย
##กว
thres
thrown
theft
##erts
##eries
##erman
##erters
##eroy
##erately
##erged
##erbai
##inn
##inas
##inals
##inction
##inative
##inha
##inrich
##oning
##onia
##onica
##onna
##onnell
##nds
##ndane
##oris
##orig
##orical
##organ
##orms
##orously
##oreline
##orussian
##atz
##atin
##atov
##atement
##atars
##esar
##eshn
##esque
##arm
##arap
##arous
##arged
ine
ink
inad
inqu
inade
infer
inland
inlet
inactive
##eny
##ener
##enol
##enet
##ench
##enich
##enous
##enyl
##encer
##enacted
##enzo
##encies
##enenfeld
##iters
##itate
##itored
##anj
##aning
##anch
##anont
##anthrop
##anche
##alit
##alis
##aling
##alas
##alent
##alus
##alore
##alie
##aline
##aloo
##aloney
##alfluor
##alanche
##isen
##isak
##ingapat
##asz
##asi
##asers
##asts
##asap
##aska
##astered
tob
toys
topping
##icus
##icult
##icious
##icable
##roch
##rock
##roken
##ioned
##ionaries
##rep
##rete
##reels
##oucestershire
##elic
##elage
##election
##elined
##eliness
##elius
##elih
##elhin
##ilung
##iliano
##eca
##ecki
##ecified
##oli
##oly
##olen
##olis
##olas
##olent
##olate
##olated
##olism
##ente
##entation
##entious
##entless
##star
##stop
##stead
##stacles
##through
##throw
##adin
##aders
##adier
wasile
waste
wassaw
##amy
##aman
##amurti
##amoto
##omh
##ometer
##ombo
##ompton
onward
##urpers
##eto
##etor
##etal
##eting
##etian
fore
fork
ford
forests
foreb
forcing
stur
stun
stake
stral
steric
staged
strang
stressed
steep
stuff
stunt
steering
staunch
stolen
##acrit
##acular
##accept
##acchar
##irational
asran
asks
whip
rey
reard
reiss
reba
reyn
reef
reacted
reilly
reorgan
reenacted
reelection
alan
alou
alter
alab
alame
aleur
aleks
alaska
aladin
##itheat
##ivated
##ivors
##imp
##imon
##imar
##imet
##imeters
##leen
##lean
##leman
##leable
##leased
##leashed
##lepool
##idly
##iders
##idity
##idial
##idae
##idency
##iga
##igan
##igible
##igators
##igenous
##ayud
##ayash
##terian
withers
##ch2
##ches
##ching
##chart
##child
##chral
##chai
##chdale
##chuang
##chitis
##chnine
bew
bees
beque
beeth
bezirk
bejew
bends
##otations
##otee
##otism
##otroph
anions
anonym
anarchy
shu
shat
shro
shel
shov
shock
shake
shield
shank
shah
shaking
shane
shrew
shallow
shorth
shorter
shirts
shipping
shoreline
heated
heath
heels
hearing
hejda
hewson
hevyd
heinrich
##utic
##utari
##emn
##emia
##emned
##eminated
##eminence
##umib
##umably
##uli
##ulous
##ulations
##ulates
##ulating
##uso
##usc
##usive
##usiast
atv
##tshire
byard
byron
conif
conclus
isle
isca
ch3
chin
chan
chav
chain
chore
chant
churn
chick
chev
cherv
chase
chef
chiral
chuck
chanc
chien
chasers
##osi
##osle
##osum
##oshib
##oshi
##oscope
##osomal
##avas
##avia
##avius
##avaca
##ereph
##agans
##agiri
##agalus
##anda
##andum
sees
seating
seism
sekh
seyd
seym
sepul
##oda
##oder
##odor
deform
deified
dekan
deuts
dehyd
203
206
202
coma
comets
sueb
sugar
sujoy
proud
prostr
projected
prowess
##ppel
##ppers
item
itunes
##essed
arc
ariz
aryl
arrison
arjun
##rawn
##raway
##rable
##raks
##ishly
##ishop
plague
plural
plots
plaqu
plunder
##oca
##ocl
##ocaly
##ocytes
##isto
##isting
##istus
##istically
##este
##estine
##estones
neon
neat
neith
nepal
##ords
##ordin
##ordial
##ordinary
##rier
##rien
##riel
##riers
##rief
##rific
##unthor
oral
orson
oracle
orthod
exqu
exited
exotic
##ifice
##ifax
##ifinals
##opers
##opard
lend
lept
lender
leaning
##sea
##atee
##berts
##ills
##illed
##illian
##illae
##illusion
##illips
##illiant
##abel
##abad
##abai
##abase
unin
unear
unused
uncont
uncles
unaware
unopp
unanim
unpleas
unorig
unaccept
unleashed
##aka
##aksh
##akula
trism
traced
tracy
trisha
trunc
trichlor
spain
spike
spiral
splin
sparked
spoil
spagh
spikes
spencer
##ongated
recl
recoll
recoin
recounts
recapt
recalling
recurring
reckless
##aparte
##theran
##iane
##iani
##ianski
##uded
##uding
##udonym
##oga
##ogs
##ogi
##ogical
##ograf
##rite
areolate
##ortion
##ials
##osts
##ostolic
##iparous
prach
prone
praying
preston
##ovac
##ovine
notor
notions
notice
notting
notification
noticed
notched
enig
enqu
ensh
enhan
enzy
enacted
enrolled
##ieys
##ieged
clause
claud
allah
allocated
affl
afaps
afghan
##acking
##ackets
##ellor
##ellation
##ellery
##ellini
twa
##antine
##antage
##antled
herbert
herne
hermes
worried
feed
fees
feas
feist
##sover
##inees
relativity
relentless
firm
polys
pollin
##quake
##queman
##usting
##ustic
##ustomed
##geant
perth
perkins
peridium
peridial
##plets
afternoon
afterlife
##achi
##aching
##achts
##achos
scop
scant
scout
scrib
scrol
scared
scales
scouts
scripts
scutari
scunthor
##ubstit
##ubstant
##ollen
##igniew
adsc
adher
adoles
adequate
sheff
sheets
##idev
##idean
newer
newfound
timeline
contest
contention
contests
contenders
contends
contempl
boom
booth
##manship
abe
abc
abys
abstr
abras
##athing
##athiane
mang
manage
manga
manusc
amine
amides
ambon
amids
amtrak
amusing
amrish
carn
carib
carats
carroll
caridean
intach
intric
intends
intrigue
##endo
##assigned
commit
commenced
indium
index
indigenous
appended
appropri
appease
apprent
desh
deshm
desirable
deserters
rests
reside
residing
residence
resumed
resumption
##ounced
##ouncing
ages
aggar
aggreg
aguil
hashm
##duke
teens
teodor
offering
##pha
##phor
##phism
##arkation
##rance
##ranted
airlin
airborne
file
filatov
imb
imine
imitation
imitated
##olds
disar
disney
disaster
disrupt
dischar
disrupted
disillusion
reply
repris
reprin
##ffir
albeit
users
usual
usage
usgs
usurpers
##izini
##izomor
muscle
muskets
partn
partner
megan
meyer
upward
upcoming
##actor
##iley
recorders
##ologists
ears
finite
finale
secular
overarch
overwe
overnight
##ronting
flav
flames
flind
flaps
undergr
undergo
serpent
serapis
sergio
seringapat
sergeant
##iedza
formats
formula
prey
preca
preeminence
##ibayash
regret
regimes
comply
compuls
comprised
compiled
comprise
##ordance
blu
blind
blamed
blitz
copper
coiff
cooper
cooking
cooney
co11
cohes
evol
evoked
mined
mining
minus
minds
minizini
assay
assign
assumption
antio
antrod
antilles
antagon
warning
warner
warship
wareh
warfare
warrant
warranted
remake
intersc
interacted
interwoven
charged
charging
outs
outwe
outsk
outraged
outfits
moreover
##eys
attorn
himal
arche
archduke
##lesbrough
gene
geneal
genius
genetically
wheat
specially
##iki
##ikistan
workgroup
norbury
consol
consent
consult
consens
consume
consumed
consumption
##enses
##orski
noble
nobel
buying
bugs
buzz
retal
retail
retells
rox
root
robe
roasted
roasting
rochdale
roberts
accum
accident
accrington
accustomed
accordance
##aceae
##onyl
knight
maus
maison
revised
revived
revision
revenues
##vedere
subgen
subordinated
subjected
subordin
canon
canary
cancel
canopy
phon
phrase
phillips
##icka
##icked
armies
imported
impending
impacts
impract
imposition
impulsive
impurities
centred
marie
marqu
marathi
marrying
marlins
surm
surrog
surayud
winston
lateral
syl
emble
emitted
emiliano
souls
instruction
installing
devised
devotee
devakula
betray
musicomh
smar
smell
smoke
smythe
##issions
##issance
##issari
deported
depended
dependent
starboard
generic
generous
generations
generates
generating
writes
colors
colton
colomb
colchester
colombo
yorker
severn
preserv
presby
preserver
presidency
presumably
##anger
sobe
soils
histotroph
auctioned
howard
##ictine
##airn
peach
peale
##ieta
shipments
shipyard
bros
meters
metaph
metatars
metacrit
thanks
artic
northampton
suppress
suppressing
batted
signature
signify
signifying
##onsist
singled
defy
defines
defaced
defending
deflected
varun
variant
varieties
variable
diving
diverted
divisions
elle
elves
elvis
elimination
elzb
elongated
obstruction
obstacles
belt
belorussian
belvedere
doors
opera
##rosse
##hne
parable
parental
paraph
backed
joy
jobs
sahai
saffir
##ernavaca
##amping
1980
southport
furiously
expose
expense
expiring
expands
expenses
##teilung
##insell
##insula
christina
christians
looming
looting
loyola
loamy
invis
invention
invitation
invaded
invinc
##rows
##rowski
prombo
promising
##spianski
litter
incontin
incurred
inconsist
valle
valeria
valerie
##ificent
##ificate
markets
rocky
rocking
rockets
transcaucas
discred
discerning
discarded
discretion
slate
slap
slant
slight
slaying
slugg
slatan
##yses
##yszto
classification
directing
wein
weaves
weighted
##flix
##fluous
offices
##azio
brion
brunt
bridg
brilliant
brackets
grave
grass
grace
grasp
grinsell
##rences
scores
crem
esters
estuary
pointing
apep
apocaly
apostolic
locate
foundations
##kyls
humidity
reduc
terrif
terrible
tertiary
feats
designer
designation
governance
milk
milian
milwau
milestones
opted
##iera
constellation
miller
setup
setlist
collision
portrays
plants
planners
continent
bars
baron
barons
barges
barrel
barometer
106
105
greco
greeted
raising
rapper
raids
raja
raita
grouped
quiet
quinn
##tones
excell
excarn
152
1580
1550
1534
1540
##ypes
##ypants
##gging
franks
franjo
demba
demands
demotion
poster
posturing
postmod
simla
stein
stepping
steven
header
gaer
gaon
gaurav
gajcy
gunners
gunfight
junker
##empo
downwards
ida
medley
anywhere
halifax
towed
towers
prevalent
129
125
123sb
distrib
distinction
famitsu
rossellini
##raphic
##ewing
strain
strings
stratig
cultures
janne
janusz
janensch
octen
routine
routines
annuals
majesty
majeste
willis
avenge
avenue
aviators
avalanche
##evo
##evy
##eves
##evolent
##elska
glad
glenn
glover
gloucestershire
powerless
commanders
coinc
coining
opener
morels
morrill
westmount
issuance
complained
complaining
complains
leftover
excavating
hyder
hybrid
hyaline
muham
mundane
muenich
##airo
propelled
propuls
proportion
organise
118
111
114
flee
##hlii
projection
170
helmed
handled
handful
handcuff
inflation
inflamm
seventy
geomet
133
139
135
134
delivers
delighted
delaware
deloris
ease
easy
eased
skies
skate
skirt
skoda
extending
madras
madonna
1978
1974
clubman
thirds
activist
activate
##rises
augusta
bullion
bullock
bullpen
eastward
effici
##xtrot
concave
concessions
concerts
concrete
contrasted
associate
associating
eugen
funny
justin
justify
modelling
modifications
moderately
shortened
shortstop
profits
typographical
provin
provoked
provisions
provoke
provoking
telug
triad
##overed
##othouse
approve
approving
totalled
##rett
entwist
entente
runoff
salta
salmon
##aneous
confident
confidence
confronting
advoc
advised
advises
advantage
authent
influx
influencing
corp
coralie
courts
jugal
nowell
##shay
##book
islanders
protagon
europan
flybe
pilgr
pilasters
pilothouse
restoring
swin
swift
swears
swollen
sitabai
##inka
blackmon
blackpool
banded
bandit
bandits
edges
edfu
edifice
##raments
finalised
finalists
obsoles
orderly
lowell
magical
sbx
255
ledger
limb
limits
##ulfide
churchyard
presenting
supportive
differentiated
1966
debris
debrief
148
140
cirrus
holes
oldest
romanian
romanesque
viscer
visuals
visitor
indiana
marched
##ealed
static
stature
statement
statistic
authorize
authorization
authorizing
authoritarian
laura
righteous
wayland
replica
replayed
primordial
labels
turner
walters
walks
walker
walrus
walpole
styled
requests
requiring
requirement
masala
versus
versatile
charting
survivors
localized
freeze
##arsu
convoys
convicted
valkyira
valkyrian
163
166
1650
eaten
jewellery
km2
solution
solvation
solitary
viable
##oxosulf
towering
professorship
hocking
curled
curls
currency
equals
equipped
##raways
levy
levelled
systematic
247
certificate
prieto
senigall
takesh
waterline
watercol
##afe
##eze
erased
errone
erlew
eighteen
radios
selective
stored
goalscor
hunt
hunan
possibilities
torso
torah
torrential
##epri
suni
suny
sunken
earthquake
coverage
popularized
##etti
explo
explan
explaining
explored
exploration
exploring
admired
##ducing
internally
philipp
philanthrop
historically
metalocalypse
criticising
coups
couriers
dense
denise
denza
fruition
oxathiane
poets
##llium
girlhood
educate
frontman
merc
merit
mercy
merged
meriani
sentences
vocally
vocational
inspector
inspiring
footballers
destroying
columbian
busy
cullompton
deton
maternal
silic
silence
silađ
##ynth
roadrun
occupy
traditionally
farther
##lington
facil
facts
facile
holdings
michigan
sanctioned
tempel
##egat
##egistus
specialists
electroph
gunsmiths
strongest
everybody
lessen
lessons
1904
privile
addressed
addressing
addicted
addiction
23rd
drive
drink
driver
persopolis
perspect
snake
snipp
summit
summoned
tense
connor
competent
creates
creature
creativity
fundra
sexes
progressed
italics
italians
frenchtown
hitoshi
illiterate
potter
potosi
strip
strips
508
favou
matted
matty
matures
mataron
matrik
tempt
##ucose
##icoe
suffers
secretly
##riction
identities
identifying
coldrums
burt
burst
burma
horace
horror
horrific
panor
sonic
trap
##efire
angle
combines
carolinan
photometric
colleges
monumental
observing
violate
crooked
copious
coptic
dominated
dominance
hopes
hopeless
seeks
improves
capped
caustic
honored
honours
massac
informacy
refere
refine
refuse
refuge
shrimp
needing
1883
1888
1881
1882
1880s
blockbuster
blockaders
reactionary
balls
ballad
breaks
breakaway
breakdown
breakthrough
doubled
fails
harper
harry
harwich
harmon
lyrical
narrated
1871
meanings
intervals
recognising
friendly
friendship
mohan
mozart
treason
trevor
readers
superhum
supervis
superficial
supernat
superfiring
superstar
superfluous
arkady
regionals
drafting
fieldwork
hardy
harding
hardly
lady
laden
prawn
rukh
insign
whitehouse
policemen
declaration
davis
mcaloney
mcelhin
penarth
peninsula
rhizomor
tours
tourist
tourism
##ortune
centerline
fragment
debuting
debutant
aston
biology
biographical
biulet
bienenfeld
casting
multif
multitr
multicult
pastor
pastels
pastoral
pitches
pitchers
animation
31st
causes
duel
duke
garland
garner
russification
ulster
##nesday
injuries
reagan
chamberlain
processes
procession
affir
introducing
megalosaurus
businesses
silverstone
bombings
motu
selfish
aspirational
reporting
occurrences
georg
difficulties
audible
lackl
lacked
lacking
powder
powdery
qualification
qualifying
tarrant
targets
tarzetta
modernized
factor
malt
malhot
malleable
ritually
verm
verdict
veronica
##ommissari
analy
1893
1899
1891
1894
1856
studentship
certainty
favoring
republicans
bhumib
bhosle
camcord
camphor
danish
lawyers
peta
petrus
sacraments
woodbury
##ugated
predate
predatory
ensuring
montri
montrose
montclair
montgom
substances
ideograms
synthpop
entirety
episodic
methodist
methodical
methodological
introduce
campaigning
290
benign
benjam
benevolent
bowers
parking
renumbered
widow
reasonable
deadpan
argent
removing
smithy
gradual
reduces
middlesbrough
26th
2686
bostock
cyril
cybel
donations
freeman
falls
karnat
karachi
talked
talks
rebound
reborn
chapels
screened
defeats
engineered
responses
responsibilities
magazines
interviews
burnt
burns
cathedral
faber
fault
lifting
micro
melted
melting
melbourn
melanch
threaten
separating
travels
travelling
##ibrill
assistants
managerial
programming
cinqueman
celtic
cabar
cabrera
drown
droplets
fitting
groin
grotus
grocery
julia
julie
kingship
venice
venues
venetian
negatively
##ophy
##ophonic
1840
grandf
terminus
frankston
frankfort
naturalized
suggestive
suggestions
antiquary
memorandum
necessity
corners
cornered
dunes
futile
irish
irving
irben
judy
judas
judic
kraut
kraus
miecz
netflix
vanoy
##ucket
independently
80th
toni
toned
taxol
reflection
polyeth
floated
attendance
attendees
maximilian
coloration
discussing
launching
masterton
masterpiece
analysed
analyses
torpedoed
423
athens
aims
dermal
jerome
kerr
kinds
mortar
paired
semic
semifinals
zapatist
##khasap
##linarian
springfield
dissolved
dissolution
disseminated
composites
greenwood
distinctive
distinctions
magna
magnificent
synthesized
bleeding
dreyf
dictionaries
jean
jeopard
keyboard
lowering
macroph
maclean
urged
urging
widescre
##toire
thinks
adopting
acquaint
victoriano
catholicism
3800
70th
banished
bassist
beneficial
gallery
hindrance
oswald
rarities
sussex
skydiving
##iterating
exceptions
exceptional
unsafe
indicator
1805
1801
1804
brownish
entertainer
illustrations
narrator
narragans
fellows
300th
750
90th
balk
balkan
bolts
bayern
baynes
cleared
draugh
ghosh
henri
henothe
happen
konstant
mustard
mustered
quebec
tendency
virus
wilson
wiltshire
##naissance
##bbing
withdrawn
changeable
dismantled
definitive
definitions
legislative
legislators
legislature
legislatures
symbolized
symbolise
symbolism
symbolically
symbolize
cosmic
cosmetics
dubium
murphy
sailing
tribes
tribut
tribulation
undes
undiscl
##bein
prohibiting
prohibitively
reconfig
reconnaissance
newsreels
boxes
consideration
considerably
struggles
determining
dialkyls
folklor
mentioning
pune
rolls
thickness
alternate
alternates
anthem
anthony
trainer
spotter
##ogenic
scottish
agricola
meantime
impacting
marshal
surprised
elevation
patterns
substituents
celebrated
celebrate
demonstrate
demonstrations
brecon
falk
feared
grants
hotel
lukew
lutheran
molly
molina
nashville
oils
oversee
romans
romance
saras
wyspianski
wears
##boro
innov
rearmed
reigning
deeply
uncle
uncovered
recreation
clothed
dispute
dispatched
brigades
brigadier
settlements
patronage
concentrations
farmer
screenwrit
taxonomic
documenting
documentaries
hugh
khote
khepri
kitty
mira
mirror
mutually
##backs
shaan
sharehold
sunday
spectra
spectacles
spectacle
enlarged
reliefs
precision
precise
regulate
regulating
regulator
cooler
acceptable
skulls
pursu
cyclic
cycloprop
quarterly
dictatorial
benefits
benefactor
374
370
48th
azerbai
bonds
custom
customs
customer
niece
rodrigue
rodgers
tunes
wounding
##hiro
tomoshib
conception
##vertently
segments
arrangement
arrangements
ambul
##fficient
acidjazz
hydrox
billionaire
progresses
fruitbody
birthplace
540
berg
berlin
bermuda
bangalore
cardinal
dorval
haun
jamie
mesa
mcconnell
nickel
sandy
sandbar
sortied
congressman
sequences
appealed
resembled
repeat
repeating
mehta
intersect
intersections
pharaonic
familiar
missionary
skilled
extraordinary
denominations
networks
ignore
ignite
ignazio
strengthen
strengthened
697
akula
akshay
akarsu
bonfire
bonaparte
cuernavaca
crowe
dvarap
druid
hampton
ivo
iverson
jonny
kentish
lecture
lecturer
misassigned
pacers
rails
troubles
vicious
##worthy
stalked
##imming
anchors
shook
shutter
shutouts
chambal
ornith
prisoner
advertised
advertising
careers
carefully
aggressively
aggressiveness
flanking
bucks
robust
deposition
deposited
deposits
expeditions
loyalists
incorporates
simpson
steaming
willingness
modeled
tripoli
ukraina
ukraine
crowns
crowned
leonardo
wrecked
hospitalised
vaudevillian
brahm
cuban
eagles
gardens
gatherer
hartlepool
kenora
messina
nutri
pathway
pathways
ratt
ratio
tortured
##iosity
##ukone
##thmod
isolating
spanning
prasad
enantiomeric
feelings
container
flamethrow
doctr
##ierzynski
democrat
democracy
stephan
crashes
administr
poei
diagnostic
melodic
measurements
blended
mechanics
manufacturing
manufactured
manufacturer
aaa
bronchitis
dynastic
racism
ridpw
rubber
rushing
tasks
vacancy
vacancies
vaticana
##iasis
##czak
##bledon
strictly
revered
sponsor
sponsors
rescues
imminent
undertaking
undertaken
prehistory
assaulted
reversed
exposition
engraving
headquartered
easterly
salvaging
confrontations
convincing
fairyopolis
speeches
broadcasting
satisfied
satisfying
faithful
negotiating
lettering
athletics
questioning
smoothb
m181
m184
irregularly
bedecked
bounded
boundary
crying
cryptic
dili
digit
erection
fishes
fishbein
hype
luca
mothers
nonetheless
orientation
ringing
rurales
witold
##restrial
##minate
##rotechn
asci
ascetics
unpaid
heroes
heroism
scratch
contributes
remarks
instructing
disciplinarian
epoxidation
jewelers
penetrated
penetrating
astronomy
casemated
sacrifices
allegiance
allegorical
anthropological
wronged
wrongdo
hundredth
cease
ceasefire
fascist
loved
locker
lockout
pierce
sleeves
taft
tissues
veterans
wednesday
wicked
##iarism
##cases
thinner
forthcoming
bearings
shifted
choose
chalk
check
orchestral
exclude
excludes
leopard
scatter
scarce
amphitheat
upgraded
evacuate
cannib
townsville
transforms
transformation
populations
hymn
proposals
patriots
midfielders
criminals
pantheistic
ancestry
ancestors
vertebra
automatic
predominant
renewing
ceremonial
cleaning
allegedly
disappointed
disappointment
chestnut
besieged
brickley
crania
catching
dogger
dorsal
denneny
fastball
gateway
hipper
hawker
jager
jupiters
migrated
miguel
migrants
olivia
psn
ribbon
sicily
senses
taller
utilities
utilized
utilisation
wingspan
##skommissari
##zzlies
##waite
##ystok
stroud
reichs
reichskommissari
altoge
aldehydes
beauforts
conquered
consequence
consequently
consequences
chatter
unnumbered
perfectly
abundant
mansion
carbonyl
descended
imagination
disgu
minerals
assessed
outlaw
endorsements
numismatist
marcia
songwriters
software
parodies
incidental
continuously
steele
alienation
curtailed
explosion
physicians
raphaelites
buddha
omnip
flintlocks
nicknames
fashioned
theropods
decommissioning
85th
cousins
drift
dripping
draftsman
fibrous
gilmore
gaming
hellenic
jaane
korczak
ketones
lanre
lanost
laney
lithics
lithium
lithuan
laughing
liquids
ndc
nubian
optim
options
pyramidal
papillae
somme
sankt
tamales
voices
venture
ventral
vertically
vegas
wishes
##ekar
andhakas
tomaszewski
stabilized
chulanont
sudeshn
succeeding
arnold
neighb
unfamil
clerk
clarify
allosaurid
timberlake
implication
partitioned
overcrow
pregnancy
bloomsbury
basalt
divorced
obstructing
belgic
parachuting
engagements
barnegat
quantity
157th
postcard
disturbing
landowner
holyhead
conventions
catalogue
households
favoured
refuses
refusal
refusing
garnett
affiliate
infrared
ceratosaurian
intellectuals
lifetimes
polytheism
rejoining
dismembered
nineteen
surpassed
mutualistic
ornamented
ornamentation
sharpening
principally
lemoncelli
witnessed
neutrality
leopoldstad
phylogeny
criminality
bureaucr
dinosaurs
dwarfs
thoroughly
stretches
aristocrats
montenegrin
crazy
cafe
density
densely
diggler
foxtrot
frogs
fujii
friedman
gastric
graphics
hazel
hoarding
kenneth
loretta
lorenzo
nitric
nitrogen
nominees
nicholas
pornographic
tuapse
tuwim
tagga
tucker
verney
vernacular
vuthipong
##wiga
##yclic
##hydrox
##points
##arthy
inaugur
stellatus
stockton
##cheid
isotope
comfortable
spheres
recipient
relieved
abolished
commemorated
commemorative
desperate
repetition
repetitive
overpasses
regiments
coffee
interchanging
genuine
embodiment
supplemental
elaborate
inventory
incompatible
bradley
brushwood
terrorism
portrayed
portrayal
downloadable
avoiding
flexible
flexibility
provisional
telegram
aerobatic
turbines
volleyball
moorish
supervised
autobiographical
benzalfluor
renovated
screaming
adoption
categorised
diamonds
picturesque
tendaguru
innocent
innocence
melodrama
catalysts
chalukyas
kilometre
puppets
saurophagus
etymologies
unofficially
indirectly
borders
bordering
bathurst
barkley
dwyane
dentists
dimensions
fueling
furnaces
grizzlies
gauge
hetman
hetfield
jenny
kapur
kapoor
kubinka
keeps
livelih
lampang
nourishing
padukone
rogers
sangkhasap
tapered
vickers
wirraway
wirraways
wimal
wimbledon
yamamoto
zenobia
##uangshan
##hotep
##τιμον
inhibiting
stereophonic
reopen
reopened
repertor
repertoire
alkylation
anatol
chords
depleted
protein
protege
pledge
plagued
plagiarism
exactly
exhausted
spontaneously
spokesman
spokesperson
splendid
clinton
scanning
compromise
anticipation
basilica
await
accusations
paramount
parameters
humiliation
portrait
portraits
1582
mycological
headliner
headlining
medicine
proprio
proprietor
delightful
funnels
funniest
advisor
restrained
restraint
restaurant
restaurants
sbh3
fringe
equaliser
snowden
harvest
harassed
infringed
neglect
deteriorated
unsatisfied
unsatisfactory
inhabited
confirmation
fabrication
immigrated
dilapidation
dilapidated
tajikistan
vegetable
vegetarian
motorcycle
dimethylsulf
dimethyloxosulf
acknowledged
acknowledging
cisterns
osteoarchaeological
osteoarchaeologists
auspices
baczynski
bipolar
bullying
cresswell
crossover
crawford
caucasus
dickinson
ewg
echoed
fouled
fetish
frazer
frieze
gyro
gonzale
hodgkin
ibn
jesus
jasmine
jailor
kuhlii
loneliness
libya
mendez
nikita
nursing
ostrich
pioneer
piper
sidelined
sums
sardar
sokar
ticket
uterine
uptempo
vfr
vigil
vandalism
varying
wetlands
woolley
αντιμον
##keepers
##czyk
thieves
inscription
##anasund
##thalate
##aduate
foremast
sterile
strychnine
whiskey
rejection
reworked
anemoscope
answers
shedding
hendrik
condemned
isfet
isabella
##osławski
deeming
procedure
##occio
nekheb
external
lepisto
leishmaniasis
unhealed
unbroken
unreleased
unspecified
pradesh
enthusiast
enamel
enforced
enormous
relevant
scrapping
boilers
abhish
abruptly
caricatures
integrated
intimidate
indonesian
immune
disembarked
disagreements
disbanded
reprodu
upright
financially
overlooking
serbia
pretentious
blossom
coexisted
warrior
remedy
conservative
nobility
schwein
subtly
subscribed
emperor
installation
instinctively
germain
obverse
obviouser
belleville
paragliding
saxon
incredible
gravesend
capitals
redeem
steadily
glorification
heliopolis
extracts
destitute
calibers
pressurised
figurines
swinging
initiative
laurel
stylistic
curriculum
crushed
explicitly
philosophy
poetry
fairbairn
sneakers
horizont
traumas
mixture
doubt
volcano
volunteered
insurrectionists
astrahygrol
pastiche
auditioned
diocese
autonom
lifespans
vengeful
polymers
cinematographer
dissatisfied
drexler
tribune
undistorted
reconciliation
counterfe
frescoes
martinek
precipitation
maneuver
rendezvoused
recommendation
hierarchical
flattened
persuasive
anthropomorphic
tetanuran
prolonged
bulldogs
electronegative
suddenly
neighboring
unfortunately
cataloguing
culminating
illegal
symptoms
mysticam
benzaldehyde
cunningham
eccentricity
guarantee
contradictory
memoirs
crystalline
dasyatis
ectomycorrhizal
pivotal
wannabes
extinguish
accommodate
ailments
aayi
atherton
aqua
ayala
astragalus
bomber
bialystok
bossypants
beryllium
bioactive
benedictine
czech
cnn
cicely
cotswold
czesław
database
dalmat
derek
darscheid
domingo
esoteric
fiona
fotograf
fiedler
fucking
gentleman
gabriel
gendered
gizmo
geaster
gorska
gazette
gareth
gatorade
gillingham
hacend
holland
hideout
hakeem
haupt
hilarious
iucn
ithmid
jadwiga
jellicoe
jubile
jockey
katyn
kathleen
krym
komintern
kengrien
kettings
kalyanasund
krzyszto
lisa
lourinha
lustrous
lactone
mavis
mullin
misfortune
nkvd
nesmith
ningaloo
nigel
nandi
niessa
nantucket
oecd
outhwaite
ponchart
pseudonym
pendulum
pompe
pectoral
pumpkin
pussycat
rfc
ralph
risky
sousveillance
sierra
sambha
tisdale
taylor
tutelage
tango
taweret
uminska
vlad
vinyl
viviparous
vibe
voyage
vannoccio
vaguely
wagga
wiesbaden
wartime
wristlets
werner
wembley
wittig
wiłkom
xikuangshan
yedekar
zeppel
zbigniew
zawieys
zofia
เอกว
##iagnostic
##xidant
threshold
inadvertently
inadequate
stralman
stranger
asrani
reardon
reynolds
alamein
aleuria
aleksander
##children
beethoven
bejewelled
shankar
shrewsbury
hevydevy
coniferous
conclusions
chavalit
chanting
churning
chickens
chervona
chancellor
chienchuang
##erephthalate
sekhmet
seydlitz
seymour
sepulchral
deformed
dekanich
suebsak
prostrate
arizona
##raksa
plurality
plaques
orthodox
exquis
leptis
unearthed
uncontrolled
unopposed
unpleasant
unoriginal
unacceptable
trismegistus
trichloride
spaghetti
recaptured
nottingham
enshrined
enhanced
afghanistan
polysacchar
scrolls
scunthorpe
##ubstituted
adscombe
adolescence
sheffield
contemplated
abstract
abrasion
amidships
intricate
deshmukh
aggarwal
aggregate
aguilera
hashmi
airliner
reprisals
reprinted
overarching
overweight
flinders
undergraduate
seringapatam
##ibayashi
compulsory
coiffured
antioxidant
antrodemus
interscope
outskirts
attorney
genealogical
consensus
buzzer
retailers
maisonette
subgenre
surrogate
colombian
preserving
presbyterian
sobek
metaphors
metatarsal
metacritic
elzbieta
paraphyses
invincible
promboon
incontinence
slatanic
bridgestone
grasping
reducing
milwaukee
postmodern
stevenage
propulsion
handcuffs
geometry
telugu
approvingly
entwistle
saltaire
pilgrim
obsolescent
visceral
senigallia
takeshi
erroneously
erlewine
silađin
roadrunner
electrophiles
perspectives
matrikas
informacyjny
superhuman
supervisor
supernatural
mcelhinney
rhizomorphs
biuletyn
multicultural
malhotra
bhumibol
camcorders
montgomery
benjamin
cybele
karnataka
melbourne
cinquemani
mieczysław
polyethyl
dreyfus
macrophages
widescreen
narragansett
konstanty
undisclosed
lukewarm
screenwriter
shareholder
cyclopropanes
azerbaijan
rodriguez
tomoshibi
acidjazzed
dvarapalas
brahmagiri
flamethrower
wrongdoing
amphitheatre
reichskommissariat
altogether
lithuanian
sudeshna
unfamiliar
leopoldstadter
livelihood
repertorio
dimethyloxosulfaniumyl
gonzalez
fotografia
krzysztof
ponchartrain
wiłkomir
zawieyski
เอกวร
022
015
1h
2d
3β
3ds
3sb
4g
5α
6s
6α
7a
7b
8s
90s
ai
ait
aro
aam
aum
aag
ace
aber
ament
awn
aced
ahn
aute
ave
aural
aides
aiding
akh
ahi
aquar
aiy
ayers
bm
b7
bing
bim
bid
bum
bos
bag
bess
bif
bia
bour
bould
bough
bans
bact
bolog
bib
brib
bons
baz
bism
bau
bole
bert
bread
bitch
braw
benth
bounds
bds
bogue
belling
bax
bhar
bma
bns
bto
bgs
baked
bump
binary
boud
boul
bpi
bagl
bagh
bishop
bovine
bouncing
brett
cs
c2
cation
cere
crom
crou
cia
cue
cov
cie
cant
cough
cations
cree
cans
cents
cite
cey
crist
cind
cute
cement
cels
cove
craf
cram
cria
cages
cried
capp
cbs
codes
crap
czer
ccr
cantor
creeks
cimar
coca
cairo
dt
ds
dd
df
dj
dic
dad
dir
dop
dill
dak
dud
dough
dose
dice
dull
dix
dash
dhl
dund
dots
diod
dina
duc
dabbar
dme
dope
domes
dimin
dazz
dude
drif
docked
dressing
diller
della
doped
dci
dichlor
diana
dye
dimming
ee
eit
ero
ech
eul
eoc
eman
ery
eating
eins
eject
eury
eck
egg
ehl
egal
eights
echa
erik
eisen
fw
fi
fc
fy
f7
fes
fec
fom
fay
fus
fog
fie
fide
fiz
foss
fished
fang
fake
fount
fba
faz
fier
fuss
freak
fared
fram
fitch
fences
fero
fests
fenced
fiber
fishing
fiest
fanc
fuk
fumes
fhm
fuse
fiance
fencing
fsa
fusing
fierc
fucose
friction
fibrill
gk
gn
ged
gat
gis
ging
gad
gom
gow
gul
gag
grit
gore
gov
gru
gome
gough
gown
gry
gib
gable
gates
grop
gah
gyp
gels
gina
gott
gats
gaps
gender
gmp
gopal
graham
gym
gendar
grosse
ht
hr
hm
hd
h2
han
hid
hut
hord
hong
hov
hast
hcl
hound
hark
hok
hik
hild
hards
hollow
hood
hues
hoy
hides
hels
hilt
hamb
harker
homet
hurst
hug
hanes
hmp
hsb
hanc
hicks
haven
hutch
hacking
iz
iw
ik
ih
ip
iter
iver
ild
iran
ift
iles
iren
ivan
icel
icz
iowa
ionian
iovine
ji
j1
jin
jat
jou
jel
jos
jab
jost
jov
jast
jake
jays
jons
jank
jury
jeter
jamb
jez
jena
jelly
joked
jailed
juso
kr
kc
ky
kl
k4
kre
kou
kel
kad
kam
kac
kem
kos
kand
kish
kri
kong
kort
kost
kue
kure
kous
kond
koun
kran
kied
kens
kres
koss
khn
kern
kins
kale
kits
kury
kier
kism
kew
kash
kilt
kane
ksh
kott
kyn
kapp
kush
kitt
khar
koles
kana
kesh
koch
krec
kicks
kuk
krat
katan
kaden
kamal
kantor
lb
len
lal
lil
lec
lam
lur
lir
lav
lain
lest
lop
lak
lian
lia
lip
lign
lass
luring
lok
lions
lordan
lubl
lland
liss
lup
lily
lets
lert
lince
lime
lones
lange
lances
liam
laps
lops
lipp
lech
lena
lighth
lora
lala
lakers
linda
lenient
lumin
lapis
leroy
mw
mb
mp
mf
mam
mith
mish
mord
mog
mell
mast
mcl
mould
mond
mold
miz
mors
mular
mates
mhn
moot
mole
mris
moff
mene
mott
mourn
misc
macy
moses
mitz
maker
maken
maki
mocks
mitsu
mamm
miedza
nw
nr
nu
nc
nl
nel
nil
nur
ness
nigh
nld
nap
nect
nort
nie
nave
nome
nond
nose
null
nix
nets
naf
nara
nett
nico
nint
ngo
naked
nude
nuff
nodes
npr
nym
naki
nancy
nuns
nakh
naples
nelle
nasty
nitsu
nuance
nanny
natee
nairo
ou
ov
og
oj
oer
oat
oas
oth
oom
oust
oph
oates
osh
osc
ols
owe
ogn
ocha
othmod
pm
pc
pf
pis
pic
pom
pim
pter
pus
pts
pand
pod
pity
pear
pud
pog
pue
pie
pour
pave
pout
pign
pok
pact
pice
pee
pork
pony
paw
peer
piet
pays
psp
paus
pits
pah
pio
pines
pause
pash
pots
pined
pages
pitted
paying
pisc
pint
pino
pula
puff
plying
ppm
pensions
pikes
pierzynski
qri
qant
ques
rt
rz
rv
r3
rag
rated
rab
ria
rip
rust
rous
rath
rade
rik
rered
rates
rup
rale
raz
raining
rides
rund
riod
rains
rann
rms
ritch
rats
rico
riser
raps
rope
rington
rola
r22
rurally
rpm
rmt
r44
sr
sor
ses
sut
sul
sos
sord
sate
sian
sant
sine
sans
sage
sik
surn
sally
sings
seld
sower
sits
semb
sized
sorted
sash
sbo
sann
sights
sara
siam
sque
sample
szy
seller
silla
sride
sacked
sathi
sonder
siedza
tz
ti
tl
til
tec
tith
ters
trom
till
tame
tia
tie
tans
tib
tah
troup
tues
tai
troy
tann
tyl
tara
tata
tiver
taps
tender
tinct
tiring
tanc
tift
teller
tapes
tpi
tidy
tinker
terephthalate
uc
ub
ug
ugg
uma
ump
upton
uthmod
va
vs
vr
vu
vp
ved
vor
vit
vas
vil
vad
vam
vom
vow
vap
vip
vign
vik
vral
vale
vaz
vene
vying
vangu
viral
vented
vibr
votes
vinc
viph
votive
vagh
vieux
vidy
vhs
vetal
vevo
wer
wan
wel
wac
wow
wav
wip
wie
wack
wight
woll
wire
wals
ween
welf
wield
wys
waz
wank
wise
wired
woy
wrang
waf
wett
wisc
wrought
wii
wyd
wands
wutt
wunder
wahl
wanda
wierzynski
xx
xv
xen
yo
ys
ym
yv
yon
yom
yong
yore
yuk
yulet
yaksh
yachts
zo
zw
zn
z2
zer
zar
zal
zam
zem
zak
zia
zee
zah
zones
zink
zob
zaf
zoviet
zero
zitt
ztv
zwe
zoom
zinc
zeit
zyg
zanj
łop
łemp
δ1
δ15
με
υγ
кр
ка
اث
مي
กเ
ญแ
วภ
ศร
สพ
หล
อค
เพ
เปย
แซ
いつ
いの
うの
かた
もな
もし
##aj
##aer
##aar
##aic
##aac
##aul
##aun
##aft
##afl
##aise
##apping
##aque
##aemen
##auno
##tro
##tum
##test
##tie
##tok
##turn
##tone
##trow
##tale
##tains
##takes
##tana
##twin
##troph
##tanay
##towicz
##tzman
##tuka
##tleness
##togenic
##oe
##o3
##oed
##oat
##oan
##oing
##oter
##oia
##oqu
##oide
##oft
##ofor
##oise
##ohl
##oze
##ooba
##oja
##oomy
##oiced
##oherent
##oicing
##oteric
##oiak
##ooga
##su
##sy
##ser
##sar
##set
##sim
##sos
##sop
##sold
##sels
##sley
##sler
##sden
##skow
##saken
##smar
##sada
##satz
##zm
##zon
##zen
##zic
##zow
##zak
##zong
##zia
##zied
##zik
##zens
##zaw
##zroy
##zef
##ziqu
##zkow
##zuel
##zuk
##zcz
##zberg
##zmar
##zilian
##zelius
##zantine
##eid
##eak
##eph
##eau
##eption
##eeling
##eemed
##eaker
##eagu
##eutic
##efficient
##wy
##wat
##wre
##went
##wter
##wass
##wone
##wale
##wina
##women
##wara
##western
##wester
##wica
##witz
##wanese
##wska
##washed
##wił
##weta
##kit
##kel
##kol
##kam
##kim
##kay
##kul
##kra
##kap
##krit
##kae
##kings
##kick
##kind
##kley
##kara
##kward
##kher
##khan
##khar
##kola
##kiewicz
##kuan
##kamal
##kgru
##kiera
##iu
##ij
##iro
##iun
##iov
##iell
##iose
##iors
##iograph
##iott
##iosaurus
##iology
##iwh
##iope
##iature
##ialled
##iability
##iomy
##iowski
##iece
##iologist
##irot
##iato
##iaceous
##ijan
##iecki
##irowski
##nan
##nas
##nag
##nak
##nity
##nip
##nave
##nage
##nee
##nected
##nby
##nico
##niated
##niel
##north
##notes
##nuts
##notic
##nberg
##numbered
##nborough
##nicka
##rm
##rp
##riv
##rav
##rag
##righ
##rack
##rave
##rach
##race
##rational
##rained
##rides
##raced
##rically
##rina
##ratic
##rination
##rint
##rusion
##rzy
##racted
##rzew
##rensis
##rmod
##rimination
##rng
##rulous
##ruding
##rwass
##mm
##mic
##mad
##mir
##mos
##mere
##mart
##mru
##mens
##mys
##mother
##match
##making
##mare
##mley
##mett
##mata
##mination
##mitt
##metic
##mler
##macy
##miral
##moon
##marked
##murti
##mala
##moud
##miya
##mstein
##m47
##mensch
##m1sb
##uł
##uar
##uro
##uir
##uation
##uos
##uill
##uap
##uther
##ucc
##uating
##uels
##uilt
##uque
##ubert
##uably
##uette
##uarded
##uven
##urous
##uła
##uhand
##uhiro
##ufficient
##cad
##com
##cet
##cid
##cow
##cul
##call
##city
##core
##come
##cose
##cular
##cates
##cene
##crew
##comb
##cras
##cased
##catus
##coms
##cala
##ciar
##cardo
##cemen
##ciusz
##comed
##cardi
##xi
##xed
##xic
##xil
##xual
##xious
##xson
##xeter
##xley
##xford
##xistence
##va
##vent
##vet
##vain
##vish
##vant
##vens
##vang
##view
##vier
##viation
##vention
##vices
##visation
##viate
##vades
##varez
##vnik
##vais
##voiced
##yk
##yi
##yu
##yed
##yen
##yth
##yle
##yag
##yud
##yles
##yah
##yford
##ystem
##yka
##yma
##yoph
##yanka
##yrus
##years
##ycle
##yoj
##yramidal
##71
##70
##72
##7th
##ho
##hed
##hent
##hall
##hab
##houn
##hock
##hey
##hance
##hik
##hash
##handed
##hof
##hift
##hales
##habit
##hala
##hears
##heed
##hatan
##havan
##hills
##helska
##lh
##lon
##lis
##lur
##lot
##lum
##los
##lord
##lab
##lap
##log
##lik
##lings
##lace
##laz
##lert
##lash
##lined
##loff
##lett
##lican
##lana
##lech
##limin
##lores
##luk
##lada
##lagen
##layanam
##ladi
##liffe
##lachts
##bn
##br
##bj
##bol
##bet
##bay
##bos
##bain
##bri
##bated
##bab
##bard
##bear
##bud
##bath
##bike
##born
##boy
##bann
##bene
##brew
##breed
##bitt
##beh
##bla
##blet
##bogen
##block
##banks
##biot
##borns
##build
##batics
##bishop
##banger
##pa
##pc
##py
##pil
##pur
##pet
##pid
##pot
##put
##prom
##pak
##pap
##pine
##pions
##pick
##pah
##peg
##poon
##pability
##penes
##pocr
##posp
##papers
##polated
##posts
##prises
##dc
##dy
##dor
##des
##dan
##dad
##dain
##dia
##dru
##done
##dered
##dled
##dash
##dyn
##demet
##dmt
##gf
##gat
##gic
##gol
##gad
##gess
##gri
##gill
##gian
##gart
##gary
##gant
##gae
##gally
##ggy
##gaining
##gier
##gement
##gather
##gible
##giving
##giers
##gration
##grown
##gemus
##3c
##37
##39
##30
##fo
##fw
##f7
##fin
##far
##fen
##fal
##fel
##fle
##fay
##fem
##fav
##fere
##fish
##fri
##fab
##four
##fman
##fold
##fee
##fair
##foot
##fural
##fund
##fection
##front
##fuk
##frog
##flying
##frey
##fkl
##foor
##łuj
##łkow
##łady
##9th
##928
##81
##67
##56
##571
##10
##4th
##4928
##jm
##jer
##jen
##jas
##jet
##jul
##jab
##just
##jured
##jamb
##jko
##jacks
##jkowski
##jnicki
##jarat
##jevo
##jugated
##jriv
##jho
##τρ
##ιον
##μι
##μμι
##าด
##าร
##2win
##24928
##đman
##รว
##なら
##βι
##พไ
##ยว
##αχ
##ас
##аз
##ны
##مد
##مي
##دي
##วง
##ษฐ
##вк
##ρος
##めの
##سدي
##ชยว
##θη
##ßad
thall
thuring
thio
thier
threw
thief
thym
thunder
throne
thwart
thiomal
theor
theolog
theology
theoph
theban
therap
theodic
thesis
thermod
##erd
##eres
##erly
##erle
##erus
##erich
##erical
##erok
##eract
##eried
##erating
##erham
##erdon
##erger
##errat
##erburg
##eristas
##erriff
##erkra
##erbated
##erpick
##inin
##inor
##inac
##inian
##inqu
##inied
##inally
##inished
##inform
##inte
##inement
##inki
##inister
##inants
##inising
##inology
##inatives
##ineland
##initis
##inavia
##eded
##eday
##edited
##edible
##edero
##edience
##edded
##edelic
##onion
##onim
##onest
##onite
##onson
##onte
##oncer
##oneness
##onven
##onerating
##ndon
##ndle
##ndum
##ndous
##ndicate
##orum
##orop
##orse
##orff
##oried
##orik
##orcraft
##orement
##ormed
##oraries
##orme
##orbe
##orrect
##oretto
##orphism
##orgement
##att
##aty
##aton
##atel
##aters
##atum
##atod
##atri
##atia
##atable
##atons
##atists
##atio
##atility
##atient
##atina
##atising
##atma
##ateness
##atrap
##atrous
##atizes
##atinous
##atulations
##ataceae
##atypes
##atvang
##esy
##eson
##eses
##esan
##esian
##esign
##esaw
##esized
##esford
##esha
##esher
##esby
##esham
##esape
##esbury
##esda
##escourt
##esiosaurus
##arh
##arit
##arro
##arly
##arov
##aried
##arious
##arised
##arind
##arev
##aratory
##arcer
##arana
##arthe
##arino
##arota
##arung
##arrell
##arika
##aramurti
##arcates
##argad
inac
inver
inman
incl
inund
inward
inex
inns
ingen
inception
inbound
inanim
inaction
inedible
##enz
##enut
##enity
##enary
##enite
##enance
##enone
##enics
##enau
##enaries
##enza
##enko
##encement
##enburg
##enwald
##enocytes
##enhotep
##encemen
oft
##itin
##itre
##itle
##itter
##itum
##itri
##itge
##itous
##itations
##itters
##itized
##itime
##itative
##itator
##itives
##itling
##itians
##itatively
##itizing
##itiveness
##itudes
##anor
##anan
##anic
##anth
##anter
##anul
##anist
##ania
##anov
##anine
##anqu
##aney
##anally
##anyl
##anians
##anius
##anza
##anston
##anmar
##anobe
##anmi
##anmere
##anxi
##alf
##aler
##alam
##alid
##alted
##along
##alities
##alists
##alind
##alty
##alior
##altered
##algia
##alifa
##alika
##aletto
##aluation
##algic
##isit
##isan
##isal
##isel
##isth
##isly
##isot
##isut
##isine
##isure
##isual
##isade
##isance
##isaging
##isawa
##isaur
##isvara
##isaurus
##isput
##isinte
##ingh
##ingles
##aser
##asan
##asth
##asions
##asee
##asized
##aski
##asped
##aspor
##asura
##asulfide
##asitized
##asingh
andro
andre
anders
andreas
toe
toi
toil
tots
toos
toub
toled
toky
toole
toll
tomp
toxic
toyed
##icts
##icant
##icans
##icions
##icited
##icates
##icio
##icably
##icze
##icuous
##icola
##icemen
##icommun
##iculous
##icyclic
##roor
##rost
##roid
##roter
##rout
##rold
##roved
##roys
##rove
##rocon
##roto
##robb
##robor
##rooms
##roiled
##rooge
##roplan
##rovnik
##robatics
##ionet
##reu
##reb
##reation
##reted
##reated
##rected
##recon
##reham
##reca
##reuil
##rendous
##oust
##ouds
##ouji
##ela
##elot
##elong
##elect
##elae
##elons
##elets
##elev
##elmed
##elaying
##elago
##elgo
##elitz
##eliograph
##elisaur
##ili
##ilst
##ilay
##ilate
##ilia
##ilations
##ilage
##ilty
##ilting
##ilful
##ilize
##ilibr
##iliah
##iliki
##ilbene
##ilitations
##eck
##ecia
##ecium
##ecai
##ecuted
##echa
##ecrated
##ecker
##ecourse
##ols
##olly
##olos
##olous
##olson
##olics
##olves
##oliated
##oloid
##oliate
##olades
##olita
##olete
##olatrous
##entz
##entive
##entment
##entown
##entiated
##entinus
##stil
##stow
##strom
##stab
##stack
##stib
##stick
##stros
##stached
##step
##structed
##stores
##stelle
##storms
##statement
##styles
##stenau
##tha
##thel
##tham
##thard
##thood
##thouse
##thush
##throscopic
##theland
##thora
##thinker
##thesda
##adec
##adle
##ados
##adra
##adence
##adise
##adically
##adhar
##adicated
##addon
##adsky
##adora
##adamurti
##advant
wasting
##amer
##aming
##amic
##amation
##amand
##amun
##amard
##amia
##amour
##amous
##amaged
##amically
##amined
##ambo
##amha
##amax
##amuk
##ameca
##amatina
##omel
##omod
##omans
##omski
##omica
##omaly
##omimid
onwards
onogi
ontogenic
##uration
##urers
##urized
##urium
##urai
##urana
##urica
##urisation
##urls
##urban
##urpr
##urdy
##uramard
##etid
##etse
##etate
##etue
##etous
##etime
##etane
##etypes
##etrack
##etmala
##etlana
foray
forep
foreg
forked
foreman
foresh
forging
forgets
forsaken
foresaw
stm
stg
stum
stain
stif
stall
stack
stant
stark
stric
stoss
stick
stress
steer
stery
stane
stero
stakes
strick
stems
sticks
stressing
stroll
stalling
stasi
stelae
stilbene
stamatina
##acz
##acic
##acid
##acers
##acif
##acate
##acqu
##acock
##acile
##acious
##acized
##acco
##acoid
##acja
##aceted
##accid
##acerbated
##acelets
##acadora
##iry
##iram
##iries
##irie
##iraz
##irky
##irting
##irane
##irmed
##iriya
##iriously
##irmish
##iricus
##ircular
asa
asin
asap
asides
asha
aswan
whim
whist
whart
whale
whiff
whining
whsmith
whilst
wholly
reid
reall
reins
reoff
reused
reaff
reex
rearing
reacts
rewrit
rehm
reese
reym
reila
reiterating
rehab
reacqu
##lysis
alec
alch
alum
align
alph
alike
alert
alley
alford
alps
alder
alto
aloys
alerted
almond
aloud
alumn
allying
aliph
alkal
alvarez
alpine
algiers
aloneness
alicyclic
##ithmetic
##ithili
##ivial
##ivost
##ivious
##ivided
##ivism
##ivened
##ivization
##ivrat
##ivanov
##ivolous
##ima
##imo
##imir
##imate
##imated
##imore
##imper
##iments
##imented
##imney
##imonic
##imaki
##imolar
##imkhan
##lead
##lender
##leys
##lebar
##leiter
##leboro
##ido
##idan
##idis
##idic
##idos
##idham
##idges
##idiary
##iddo
##idenfeld
##igs
##ige
##igi
##igence
##igens
##igration
##igotes
##igorated
##igua
##igmata
##ayas
##ayuki
##ayogi
##ayalam
##tering
##teras
##terning
##terior
##terpre
##terranean
##termensch
withering
withstand
##chy
##chet
##chand
##chri
##chend
##chland
##chures
##chene
##chior
##chelling
##chants
##chids
##chiff
##chowski
##cheted
##checked
##chords
##chwitz
##chamuk
bee
beer
bead
bever
beard
beards
behn
beale
beached
beata
beven
beads
bevel
befri
bethesda
thatcher
##otent
##otov
##otron
##otsp
##oteh
##otisak
##otches
##otiaceous
##otamia
##oturica
ana
anis
anil
anand
anath
anoin
anfer
anew
ankh
anomeric
anxious
anomaly
anterior
##owack
##owered
##owingly
shp
shain
shall
shak
shap
shru
shout
shark
shaw
shred
shins
shelf
shind
shai
shaving
shored
shiny
shelled
shores
shaken
shocked
shouting
shoma
shapes
shuffle
shouted
shye
sherman
shaman
shweta
sherriff
shanxi
shingles
shouji
shaming
shiraz
##ersing
##ersion
##ersoll
##erside
##ersely
##ersburg
heed
heap
heide
heaw
heink
hears
heights
hemost
hearted
healed
hemis
hepat
healing
hebrew
heaney
healer
##uta
##utr
##utor
##utia
##utely
##utting
##utase
##emic
##emary
##emical
##emates
##emists
##emaking
##emeal
##ematic
##employ
##emistry
##emonic
##emorial
##emakh
##emfoor
##emataceae
##uma
##umer
##uming
##umine
##umann
##umerable
##uminating
##umbent
##ulo
##ulz
##uling
##ulent
##ulish
##ulary
##ulets
##ulative
##ulator
##ulging
##uliar
##ulvin
##usa
##usha
##ushan
atop
atonal
##tsdale
##tserrat
bystand
bypass
byng
byzantine
conan
confer
conning
conway
congr
19s
isond
ishan
isomor
islam
islington
isaac
ishock
isbn
chir
chrom
chill
chian
chach
chile
chry
chik
chiet
chested
chapp
chops
chald
chased
choon
cherry
chilling
chitr
chwist
chewing
chirot
cherok
chesape
chrost
chimney
chotisak
##osity
##osure
##osely
##osau
##osium
##osob
##oscy
##oscor
##osito
##oszewski
##osubstituted
##avely
##avail
##avins
##avery
##aveng
##avior
##aviano
##aviriya
##verish
##verest
##rompt
##rometer
##ager
##agin
##agic
##agorn
##agery
##agement
##agged
##agher
##agta
##agoga
##agwat
##aganza
##cee
##cefor
##cepts
##cevic
##andy
##anding
##andic
##andre
##andra
##andowski
##andestine
##anduill
##andinavia
##ainable
seu
seal
seth
seap
seater
seaw
seitz
sealed
seeta
seiko
seiki
sejm
##odo
##ody
##oding
##odox
##odont
##odelled
##odnik
##odisinte
dei
dear
deol
dender
defor
defer
deification
degen
dearth
##ieste
207
208
2055
como
sunder
suck
suez
sukan
suarez
suites
superson
sugars
suzuk
sukol
supap
prosc
prostit
prostate
prodru
##pps
##ppe
##ppi
##ppin
##ppas
##ppies
##ppey
##ppings
##ppily
##ppets
itv
##esses
##essly
##essive
##essant
##essee
##essential
arct
arens
arson
argy
arba
arise
araf
arbor
arrog
aryan
arenar
arpe
arrange
arrows
arthroscopic
arithmetic
aridham
werethe
##cting
##ctive
##ctee
##ctification
##ctrination
##raan
##raub
##raene
##raha
##raband
##rakul
##raisal
plun
plated
ploy
plains
plug
plaster
plumes
plastic
plaid
plastered
plaque
plesiosaurus
##ocide
##occo
##ocused
##ocyst
##ista
##iston
##istine
##istome
##istors
##istration
##istosomal
##istalgia
##estu
##estal
##estion
##estation
##estrop
##estead
##estically
##estanding
neo
neal
neely
nefer
neuf
nekhen
neotype
##orda
##orded
##ordination
##riot
##rium
##riages
##riott
##ripted
##riya
##rificial
##una
##uni
##unity
##unia
##unks
##unkh
##unecker
##igham
org
orion
orms
orzes
ortwin
orloff
orchids
exother
exerted
exiled
exchang
exonerating
exalted
exacerbated
##ifer
##ifical
##iffer
##ifah
##ifting
##iform
##ifriction
##iforme
##ichai
##allo
##allels
##allible
##alloyed
##oping
##opod
##opened
##opham
##operate
##oprot
##opnicka
##oproter
##opotamia
lever
leog
leather
leech
lewin
leitz
leban
leuk
leapt
lefeld
legged
leaching
leafl
leitge
leisure
leela
leotiaceous
##seilles
##seek
##beric
##berley
##beratory
##illas
##illard
##illary
##illistas
##abet
##abite
##abha
##abhar
##aburi
##abeth
##abilized
##abolism
##abteilung
##abinin
##abutr
##abulary
##arding
##ardous
##ghal
##ghead
ung
uncl
unran
unten
unve
unau
unsh
unrew
unsc
unpar
unaff
unme
unhar
untr
unex
unification
unreal
unorth
unrec
unifying
unmon
uninc
unmar
unvi
unrelated
unocc
unworthy
unvoiced
unjust
unedited
unaltered
untermensch
unchecked
unemploy
unavail
unalloyed
unopened
##aku
##aky
##akou
##akings
##akawa
##aktion
##akstack
trent
tray
tract
trace
trime
trident
trances
triest
triter
truth
trivia
tramal
traction
trench
tridev
tranmere
tracers
trivial
tragic
trieste
trunks
spg
spun
spate
spill
spart
spok
spite
spang
spare
spaced
spying
spez
spored
spells
spelling
sprain
sparing
spends
sphin
spouted
spawn
spewing
spaun
sponson
sprout
spacious
sposob
##ongkh
##itya
recess
recited
rechar
reclaim
recasting
recourse
receded
##apo
##apet
##apski
##apta
##apologist
##apitated
##aporation
##apolis
hadden
hadrian
##thered
##therford
##therham
##udy
##udos
##udillo
##udential
##uddin
##udgier
##ogy
##ogan
##ogous
##ogatory
##ogenes
##rito
##riti
##ritical
whichever
##ectic
##ectable
##ectually
##artic
##artment
##artee
##iaan
##orta
##ortal
##ortment
##ortations
##ialized
##osted
##ipt
##ipe
##iper
##ipod
##ipse
##iport
##ipating
##ipulation
##iphan
##iptical
##ipisut
##iproto
##ipelago
##ipulvin
prus
pride
prath
prick
przy
prayed
przer
prussian
przed
pristine
prudential
##ovy
##oved
##ovich
##ovka
##ovior
notation
notices
notatus
notching
eno
enact
enone
enfield
enones
ency
enrich
enchant
enables
enhance
enstrom
##ieu
##ieff
##ieha
clive
clits
clash
client
cloon
clades
clump
clients
clashed
clavius
clicked
clasped
clouds
clandestine
allan
allot
alluring
allusion
allude
allstate
alligators
alluded
allsop
allosau
afro
afps
aflo
afflu
afanas
aforement
##oury
##ptosaurus
##ptica
##acka
##ruple
##rusted
##rughan
##rucose
##ellen
##ellis
##ellers
##ellished
twain
twelf
twisted
twister
tweak
twyford
twitter
twigs
##ante
##antel
##antists
##antically
##antimon
##avej
herag
heroin
herald
herbal
hermin
hermann
herniated
herriot
worsen
worcestershire
wormley
feɪ
fend
feathered
feathers
feverish
##soever
##aston
##astle
##astated
##astically
##astiza
##astigotes
##ineum
relation
relied
relates
relying
relax
relayed
reliance
reliant
reloaded
reluct
relabel
relinqu
relatable
fires
firms
##icals
polar
polished
polka
pollock
polska
##quog
##quited
##quets
##quier
##quille
##quinas
##qualities
##ustan
##ustion
##ustre
##ustible
##ustments
##ustices
##ustiano
##ustainable
##geon
##gean
##geist
##geki
##geford
peru
pertain
percept
pervers
perug
perera
perkowski
peruv
pervas
pervades
perpet
perfection
peristome
##plot
##plus
##plish
##plate
##plant
##plained
##plane
##plessly
afterellen
##acher
##aches
##achment
##achita
playable
playground
playback
playmaking
scent
scors
scots
scram
screw
scler
scaly
scurf
scroll
scenic
scathing
scrooge
scaveng
scandinavia
##ureen
##ightful
##ightening
##ollo
##ollinum
##ignation
##ignies
##ignard
aden
adren
adolph
adulatory
adhered
adwent
aditya
shea
sheet
sheph
sheathing
shekhar
sheboy
sheppey
##itioner
newman
newton
newnan
newborns
timm
timing
timid
timely
timeless
contents
contended
contender
contacted
contraband
contorta
##wness
firstly
boons
boyd
boof
boomer
boosts
booed
boberic
boosted
##ouses
##ousky
##manent
##manland
##manuel
abu
aben
abies
abba
abeb
abyd
ablet
abismo
abrog
abuse
abbre
abuses
abatement
abusive
abteilung
abaft
ablaz
abesford
abreu
abelisaur
abilia
abaddon
2010s
##atha
##aths
##cling
##clist
##clough
##close
##cloth
##cloped
manor
manas
manning
manned
mango
manama
manila
manoe
manipulation
ama
amide
amass
amended
amado
amyl
amped
amees
ammir
amladi
ampeg
amenhotep
amicably
amulets
amberley
amastigotes
cars
cared
carell
carran
carve
carbo
carries
carriage
carlock
carchar
caraman
caruso
carrier
carriages
intents
intensive
intending
intrus
intrusion
intimate
##enden
##endrigh
goa
goons
goats
gołcz
goatee
goblet
##aterrestrial
##assified
commend
commended
commuting
commencement
itsuka
yearly
##oughby
##oined
##oining
indio
indeter
indices
indication
indemn
indisput
indulging
indignation
apprec
apprised
applying
appalling
appeased
appraisal
butch
butcher
desem
desai
deschan
desider
desires
deserves
resin
resort
resins
resale
resides
resident
resham
reserved
resurf
resurre
reseau
resentment
##ondrial
##onduct
##irected
agm
aging
agren
agility
agilis
aginc
agencies
agatha
hasn
haseen
hasidic
##dued
##duction
tea
teak
teased
tepid
teaser
tethered
offence
offens
offended
offending
offense
##phere
##phony
##phenol
##phenyl
##arka
##arkiewicz
##rano
##ranco
##ranched
##ranovic
airfl
airco
airness
airplan
airmanship
aircrew
##ansi
filton
filipp
imines
imogen
imhotep
immanent
##pery
##perity
##perantists
##oky
##oker
##okawa
whoa
whoever
1822
1811
##ocko
##ocki
disown
dispar
disreg
disresp
disbur
disbel
disasters
disrupting
displeas
disubstituted
disdain
disfav
disinform
disadvant
disclose
godfrey
repression
repuls
reparation
repsold
repartee
filmi
##ffith
##ffling
##ffiti
##ffectually
##owna
##owner
##owned
albans
albanians
ushered
##izers
##izhou
##izacja
##izabeth
beccles
mused
musgr
muswell
mussol
parting
partido
meal
meik
meals
meets
megl
mezz
meadow
meyers
meghan
meeks
meopham
upbe
upwards
upcourt
##actic
##ileptic
##ologic
##ologation
##ologised
##ologically
##ologizes
earrings
fins
fined
fining
finery
finister
finances
secession
secede
timeout
##adevan
##adeva
##adeyi
overwork
overwh
overla
overload
overrun
overhear
overtones
overview
overhears
overlap
overbear
overdone
overgrown
##ronics
##ronomical
##ronemataceae
flop
flap
flue
flared
flamb
flaying
flakes
flung
flux
flaccid
flirting
underrated
underval
undergoing
undermine
undertones
underprom
##ryos
##rygian
##rychowski
##ultz
##cede
decreed
decked
decker
deccan
decoration
decrees
decorative
decisive
deception
decadence
decimated
decapitated
##cluded
server
serenity
serialized
seripisut
##fta
##ftus
##ftime
formations
formulated
formless
formlessness
prete
prelude
prefix
prelimin
prefab
preacher
precluded
##iban
##ibal
##ibing
##ibus
##ibund
##ibars
##ibald
##ibacy
##ibwe
regent
regain
regina
regalia
reggae
registration
compel
compose
compelling
compiling
compulsive
comprises
compatri
compilations
compartment
bloc
blame
blast
blade
blake
blank
blather
blister
blades
bluff
blasting
bluster
blurred
blurring
blessed
blotches
coat
coen
coist
coated
coales
cooked
cobras
coiling
cooke
coherent
coiled
cohen
coefficient
coordination
cooperate
evile
everson
evita
evokes
evading
evesham
evanston
evaporation
minting
mincing
minster
minsk
minnie
minami
miniat
minoan
miniature
minelaying
minutia
asset
assuring
assail
assets
assert
assume
assuming
assortment
ante
antelope
antoine
antitum
anticommun
antigua
antifriction
antiproto
baseless
waree
warsp
warfield
warmed
warhead
warrig
warnings
wartheland
remo
rematch
remote
rembrand
remastered
remodelled
interment
interfer
intercon
intercept
interference
intercepted
interwar
interrog
interming
interlaces
interrupted
interdict
interstate
interlude
intermitt
interfere
intercede
charm
charu
charities
charters
charred
charism
chartered
chariot
charsada
##fork
##forium
outlo
outdo
outtakes
outnumbered
outcome
outposts
monke
monks
monmouth
monomer
monomeric
monitored
monachos
monbiot
monolatrous
monstros
montserrat
monosubstituted
teamed
teaming
teamrock
##rice
##ricts
##ricated
thematic
thematically
##osexual
awe
awry
awkward
britons
britann
brittan
brittleness
##eyer
##eymoon
attic
attain
attire
attaining
attested
attests
attribution
attitudes
attleboro
attachment
##ublished
himesh
himmler
archbishop
archetypes
archipelago
archibald
##lesford
##lesiast
genies
genev
genocide
wheeling
specified
specula
specola
speculates
speculative
##iks
##ikavan
worker
worksh
workmen
workpr
workplace
workmanship
norman
##aeon
##aeid
##aeolithic
consulate
consulting
consecrated
consumer
##ensing
##ensian
##ensibly
##cesco
##orsports
noon
noir
nobody
noemfoor
noistalgia
somehow
##resence
##resista
##ildon
##ildered
acute
acanth
acrobatics
acoust
acetate
accepts
buhen
bujnicki
bundle
endoperidium
endeav
endoder
endorse
retire
retros
retakes
retribution
retaken
retinal
retracted
retreated
##reative
##reatment
ropp
roach
roque
rooted
robb
rochester
rohit
roorda
rotherham
##orkeeper
##ossa
##ossy
##ossos
accent
accred
accroup
accounted
accuse
acclam
accolades
##acek
##ularis
##ularia
knit
knac
knox
knapp
knighth
knighted
kneeling
knossos
schick
schne
schiller
schwart
schlachts
scherger
schumann
schulz
schistosomal
schultz
thereon
mai
maoh
maithili
maillard
maureen
whenever
revive
revise
revamping
##ullers
subhum
subhash
subjugated
suburban
subterranean
subplot
subdued
wouldn
##ribers
##ribute
canister
canvas
canaletto
threefold
township
phet
phits
phrang
phones
phray
phoned
phases
phlog
pharrell
phichai
phrygian
##awan
##awee
##awongkh
archaeologia
armand
armband
armaments
armisen
armoury
impart
impair
impris
imparted
impressing
impropri
impede
impenet
imprint
impatient
impetue
imprompt
impunity
centres
centimet
centimeters
centenary
numerical
mars
marv
marry
marines
margr
mariano
marvin
marlow
marijan
maritime
marriott
marseilles
suri
surged
surya
surasee
surroor
surplus
winfield
winawer
winnings
winnip
winyah
syria
sywell
syrac
syndicate
ember
emerson
embers
emasc
eminently
emetics
emissions
emsley
emmett
emitters
emigration
emulator
emcee
emraan
emmanuel
souza
##landt
instability
deva
device
devoid
devote
devaluation
devastated
betty
bettered
betanc
betrays
betamax
##ationalization
longs
longing
longman
longstanding
longtime
mayor
maybe
mayfair
smear
smart
smile
smother
smash
smiling
smoking
smoker
##issive
##issier
##issible
##issenburg
geront
germinate
gervais
depress
deposed
depressed
deportations
##resses
generosity
germanized
sucharit
cola
colin
colts
colville
followers
presents
presens
presley
presidents
preserves
prescribed
##redo
##redict
##angabad
##angsu
sobbing
sobri
auction
auck
auxil
wherein
whereby
howes
howey
howitz
##sonage
##gyny
##gyrite
##ictions
antimoine
##airat
##aires
peal
peps
pepper
pegged
pewter
peacock
peiper
##iewska
##aysian
shipwre
shipbuild
shipowner
brow
brolin
broker
brothel
brochures
meter
metre
metron
metung
meticulous
metabolism
thanked
artus
artie
artific
articles
artworks
novo
novak
novara
polishing
northeastern
northfle
000th
##risty
suppression
battered
signals
signaled
signifies
##onsu
##onsin
##onsored
##onsawan
##upied
##upata
singers
singular
defected
defects
defying
defiance
defibrill
defencemen
defoliated
varma
varinder
beforehand
##sendowski
dives
divers
divide
divinity
diverg
divisive
diverged
divecha
elton
elroy
elks
ellor
elapsed
elbing
eliza
elsw
eligible
ellington
elizabeth
obe
obey
obama
obtaining
obese
objected
obedience
obadeyi
belk
belting
belush
belfast
beleagu
belfour
beloved
doig
dooms
doyle
dofin
doorkeeper
lars
larina
larsen
larbar
operas
thencefor
##rosive
##rosawa
##roshi
##terns
##ternak
parade
parenth
parada
parnicki
paramil
paratypes
parasitized
paradise
parandowski
parallels
parapet
parsonage
##tenkap
egyptologists
backers
backup
backside
backbone
backlash
joan
johan
joanne
jozef
saif
safer
saibal
##erne
##ropop
##ropical
southold
southampton
antimonyl
fury
furious
furthers
furrowed
furrows
furfural
furanyl
guise
guilt
guested
guha
guiding
guinan
guzman
gujarat
guilty
guizhou
studded
expel
export
expence
expects
expended
expurg
engulf
##teino
##insyd
christie
christeen
christened
christoph
christiaan
lobed
loading
looney
looped
loxley
loftus
wells
wellington
invade
invoke
invading
invalid
invasions
invigorated
##rowska
promos
prompt
prominence
##spect
##sports
##speaker
##elfranco
##ieldy
##ralia
##ralogy
##alek
##alewski
litters
littre
##bazon
##ditions
incense
incurs
incisive
incoherent
inconven
incorrect
incarcer
incentive
incumbent
incessant
valence
valiant
valentinus
valimaki
statewide
##ificant
marker
rocker
rockin
rocked
rockwell
transited
transann
transpar
transiting
transitions
transfers
transistors
transplant
transduction
disco
discus
discount
discography
disciple
discrep
discrimination
disconcer
slot
slain
slated
slade
slick
slits
slaves
slush
slump
slinking
slavk
slighted
slava
slopes
slashed
slapping
sludgier
slogan
##ysurf
classifying
classroom
classrooms
directive
directives
weber
weint
weald
weitz
weidenfeld
weissenburg
##flower
##inded
##inden
##indez
officiel
officiating
##othermal
##utepec
##azer
##azene
##azirid
bril
brain
brave
bride
brings
brace
brute
braves
brink
bramb
braces
brands
brenton
brzo
bridal
brumin
brassy
bramha
bracelets
bridges
bravery
braganza
brigham
grg
grid
grind
gruner
grassy
grisly
gracile
gravely
grignard
goldfield
goldmark
goldstein
goldfish
##reneur
##rencies
scorers
scorpions
creations
crete
crevices
ester
esten
estrella
esteemed
estuar
popart
receipt
publicized
critiqu
apc
apis
aping
apoth
apex
apotrop
apsar
apiece
apatod
aparthe
apollo
locules
mainland
mainline
maintains
founding
foundered
owns
##tyns
##tyła
ordained
ordination
calliope
callamand
capes
capri
capella
caporetto
schooler
schooled
schoolchildren
hump
humour
hummer
humerus
americans
redid
redington
redmen
redoing
redesign
redirected
##ahedral
##ahalides
##ahrwass
teres
terra
terrestrial
terrace
1935
designations
aircraftman
governess
likeable
milt
milan
milford
milestone
milieu
opens
opacif
##cks
##cke
constant
constrain
constantine
constrained
constabulary
neared
mills
millions
millais
millimet
millimeters
millibars
setter
##veau
##rolet
collides
collison
collapse
collench
colloqu
porto
##isms
##ismith
continents
continuity
barc
barber
barack
barris
barring
barque
barbar
barrie
barming
barometric
barrier
bargaining
barreca
##master
##masts
##masana
10s
103
109
101
1050
1070
##auke
##aufkl
grelet
greeting
greppin
rao
raided
rapping
raises
rappers
rawness
dolland
nationalists
nationalized
nationalism
nationalize
##oleon
##oleum
groupings
quit
quod
quiz
quays
query
quint
quotes
quinet
quoting
quotations
queried
quilting
quirky
quimper
exciting
excelled
excuse
excretion
excreted
1500
159th
1556
posh
poses
posing
##ggage
##ggios
##emently
booking
bookane
booklet
booklets
bookstores
franco
francesco
homework
myco
mycorrhiz
mykola
myanmar
demi
demis
demure
demery
demograph
demme
demoted
demography
demyth
demarcates
posture
postage
postulated
postfire
postolos
simulation
simbel
sixteenth
stew
steal
steadic
steady
stealing
stebbing
stevens
showman
showings
showtime
showcase
showcases
showcased
headsh
headlined
headbanger
successes
builds
builder
generalplan
gaa
gael
gauls
gałcz
gaudy
gunsh
gunbo
gunner
gunpoint
junk
junkers
##ominal
##ominates
johnstan
downes
downplay
downgr
downtown
downturn
idle
idios
idleness
idlh
median
medial
medals
mediation
medford
mediated
medication
mediate
meditation
mediator
medthod
mediates
meditative
socially
sociologist
christmasy
##oyen
##oying
##oyama
##oyantly
##oyuki
##oyalty
thirst
thirteen
thirteenth
anybody
hales
halide
halbert
halftime
tope
topic
topics
topsh
topmasts
alongkorn
prevents
preview
prevailed
128
126
121sb
1237
distress
distract
districts
rossud
squander
##imek
##raphy
respite
eleuther
elegant
eleanor
greates
greatness
weep
##eworm
##ewska
strut
strand
stranded
strands
struts
stravins
childish
childbir
cultured
cultivated
janice
janina
octaves
octogen
octanol
octagon
octahedral
##ujang
annih
annoying
##rangarh
majestic
majima
personify
personification
willard
willetts
willoughby
millionaires
avro
aviator
avenues
didur
daylight
##evich
##elski
303
countenance
glen
glow
glut
glide
glory
glove
glanced
glucose
glaise
gloomy
glamour
glossy
##ashiva
##ashivrat
commanded
differing
coiner
mora
morall
morrow
morphs
morbid
morahan
moravia
moresby
morenz
morocco
moribund
weston
westward
westwor
westcott
westfal
representations
misses
additions
dams
damages
damita
##rils
complimented
lefties
excavator
hyster
muhl
muker
muzz
muzik
mukher
muppets
mughal
##aiya
heaviness
heaviest
propose
propulsive
organize
organosulf
organizacja
119
1100
fleure
flemish
servant
serviced
servicemen
synops
174
1744
1772
helen
helena
helgol
heliport
helplessly
handing
handles
handover
inflated
inflict
inflating
inflected
inflamed
inflections
sevier
universally
##ographed
##ographia
geo
geb
gepp
geeta
geggy
geetmala
trujillistas
singlehanded
majored
137
136
131
13th
austen
delaying
delta
delete
delmon
deleted
delicious
deliriously
delectable
footnote
footstep
patel
paterson
patient
patients
pattana
patterning
skg
skated
skater
skipped
sklar
skorop
skaters
skilful
skirmish
skysurf
extort
extinct
extrat
extension
characterized
characterise
madness
maderistas
clubby
activation
activated
americanism
##risse
##undis
##undity
performs
performers
augustinian
bullimore
eastwards
eastwest
efflores
lifeboat
##kiat
##kien
concourse
contrary
contrived
contrasts
associates
included0
destined
destiny
destroys
eufem
fungal
funnel
justification
modena
modesty
oppression
shortage
shortcom
proficient
profici
largo
governmental
everett
sapieha
sapignies
typo
proves
provost
trader
trades
humane
humanised
humanitarian
teleph
triads
trifluor
trihalides
triphenyl
triforium
positioned
##othrium
standings
standby
standpoint
standpoints
tracked
halfway
navel
navigators
navarro
passion
passively
passages
passchend
##asek
entries
entailed
enticing
entrep
entitling
controls
controller
listens
listened
rune
runners
salon
salem
salman
salve
saloon
salmons
salnave
salaried
salamun
salunkh
salterns
##anea
##aneity
goalkeepers
fleeting
calder
calming
calvin
calais
calhoun
calgary
calisth
calomel
caloscy
lightly
lightest
lightened
##identally
confronts
confessed
confinement
confesses
advise
advances
advising
advanc
adversely
directorial
influential
influenza
cores
correc
corrupted
corrupting
corrobor
corrected
coracoid
corollinum
corrosive
courant
courthouse
jufer
juice
juices
juven
juwan
nowels
nowicki
nowhere
##shi
##shod
##shall
##boa
##osauridae
natures
natively
nativity
soundmatch
wrobel
wroxeter
protects
protested
protector
protruding
pressed
europa
figured
landmark
landlord
resting
restore
restart
restarted
swim
sword
swab
swap
swath
swiss
swann
swelled
swung
swathed
swords
swimming
sworbe
sitar
sitcoms
##mbal
##royuki
blackhaw
blackfoot
completeness
muchachos
bandrowski
edit
edith
edict
edible
edison
editing
edgar
edwina
edgart
jackal
jackie
jackings
joins
##rament
##ramid
##anno
##annes
timeslot
finales
finalist
finalized
instituting
obsession
observe
obsolete
obsessive
lowers
lowther
lowered
midway
midline
midship
midlands
midseason
midnight
midriff
midwestern
sbi
sbocl
sbbr
reacting
reactive
reactors
reactivated
politically
politechn
despising
despotism
25s
257
254
252
2500
ledge
lima
limitation
initiate
initiating
behest
behave
behold
behalf
##ulfoxide
monthly
differentiation
differentiate
differentiator
bills
billed
billie
billboards
cameo
frs
frill
frivolous
frightful
makeover
purge
purged
purges
purging
purika
purplish
whatsoever
realist
realities
realised
realise
realization
realistically
debt
debated
debating
debussy
communal
communism
communicated
communicate
149
141
142
circles
circling
holi
holmes
holotype
holgate
holoca
holtzman
holzm
hollender
lineage
oldsk
romanowicz
visually
visakh
##coo
##coat
indianised
indianapolis
1868
1866
1860s
marching
statements
statto
statuette
authoring
epi
episc
eponym
epoxide
epanter
epiphan
epileptic
lax
lauding
lafay
laagta
rightful
wayman
wayne
##aimare
replies
replaces
replicate
primer
primrose
primetime
columella
involve
labelling
walford
walden
walmart
waltham
walchand
##obile
##obodnik
##obothrium
##engers
requires
enterprises
bodom
bodied
femi
femme
feminist
femora
lasting
masted
massey
mascher
mascul
masionet
verse
##itched
##ambulatory
survival
battleground
locales
locality
localised
circa
circus
freeing
freefall
freezes
freeflying
freethinker
##hała
##arski
convection
convales
conviction
convictions
##ightsville
valkyrie
168
161
1615
jewelled
matched
matchday
soled
solos
solve
solemn
solicited
vii
viii
viability
viju
virocon
##bruck
deathbed
deathroll
battling
professes
professions
21m
219
214
21st
2181
camped
camping
campus
##ylated
##atorian
##atorium
comedies
similarity
similarities
curly
curated
curry
curious
curved
curator
curves
curving
currie
cursing
curiosity
currencies
cupularis
equalled
equaled
equalling
equilibr
equimolar
levi
levers
levey
systematically
systematising
24r
246
241
24th
catt
cats
caton
catuv
catucc
crux
cruises
certior
certifying
prix
prieb
priya
prized
priyanka
senk
senility
troopers
trotha
tropps
taksin
takayuki
watercraft
waterlo
waterston
##ezed
erat
erich
erase
errant
ersatz
erratic
eradicated
eighteenth
eightieth
radar
radom
radford
radiot
radzi
radicals
selivanov
selimkhan
solder
storch
storage
hunch
hunts
hunters
hunting
meme
memes
possessions
toro
torun
torii
tormented
torchy
##epang
##epolis
straps
straker
suns
sunny
sunflower
arsenals
reportedly
eartha
earthy
earthly
earthworks
variously
popularly
popularised
popularizing
crain
crest
crate
crack
crunch
crude
cracks
cracked
cramping
cradle
housekeeper
sovietized
explain
explores
admits
admission
admitt
admires
administer
coaches
royalist
royalty
royalties
philp
philae
philatel
criticises
kingdoms
cougars
deny
denis
denial
denying
denby
denmark
denounced
denouncing
denzong
deniability
dengeki
denationalization
fifteenth
fruits
frugally
fructification
oxo
oxoantimony
oxoac
oxetane
oxirane
oxazirid
poised
poisons
pozn
poedero
poppies
pippa
pirotechn
titular
tituss
titania
##scenes
##parade
##parents
contracting
contractual
coldplay
colderham
coldreham
frontiers
mercil
merging
meretse
merchants
merauke
sentence
sentenced
sentiment
sentiments
inspire
inspected
inspections
shouldn
shoulders
dealers
centralized
footballer
busiest
culled
detained
fairs
fairfield
fairways
fairclough
matera
silently
silhou
##yneth
##yncras
##ynamically
##ometers
speaker
fewer
appointing
roadway
roadstead
roadblock
occupies
occupant
occupiers
fares
farman
farley
farms
farmed
farnborough
mena
menaced
menacing
nightmare
paunch
pa28
paxson
paorik
paisan
paige
##ataquog
##aughlin
fernandes
1000
cutter
cutscenes
facial
faceless
faceted
facsim
holder
holders
michoac
michalek
sanctions
santhush
sidekick
tempest
##egsmar
##eguarded
##hibited
chronometers
attacker
specialty
specialises
specializing
specializes
departing
departures
electrical
electropop
everywhere
civilians
civilizations
killick
lesson
##aele
shoten
1906
1901
##antaisaurus
additive
additives
submit
submerged
submersion
submissive
personalities
materialistic
materialize
237
236
232
drain
drained
draining
drivers
drastic
drzew
dragon
dragged
drastically
frenzied
persecut
persecuted
persepolis
snout
snark
snaky
summers
summons
summaries
summarily
summoning
summarised
tenuous
##appan
stationing
stationary
stonehurst
connote
connotations
competing
competence
competitors
competitor
competitiveness
australians
australoven
creators
creatures
creatively
putative
putzig
putrament
##byella
sexiest
sexoturica
progression
progresista
discoveries
hygros
hygien
hygrometer
borns
borne
hitters
hitfix
hitparade
illium
illumin
illuminating
jamesonite
potts
potens
potato
potwor
##cessible
##hania
##quez
##queen
striped
stripe
strikers
strikings
unionists
claimants
##ournalists
operationally
feline
felipe
feliks
favors
hillary
hillside
hillforts
matured
matthi
matamor
matteino
temiy
template
temasek
treaties
treatise
treatises
##ucar
##ucent
##ucional
##icoat
suffrag
revolver
revolve
revolving
revolutions
broadside
broadcaster
thoughtful
identifies
buri
burr
burl
burgess
burrito
horrors
horakh
horrible
horrendous
horstenau
horemakh
latest
latoszewski
latifah
panic
panya
panuf
panitan
pancho
panvel
panicked
panchamuk
sonics
trait
trapping
trappings
traunecker
wrappers
##efa
##efons
##efsky
##iscible
angie
angular
angled
anglican
combustible
##apsulates
##played
carols
caroline
carolyn
carolinas
photoh
photoj
photodisinte
colleague
totaled
totaling
observes
observational
violet
violations
violates
columbuses
dominic
dominion
domination
dominoes
richly
##ecutor
applause
applaud
applicable
applicant
decidedly
improper
improvement
improvisation
developmental
caesar
caerle
caudillo
honest
honeymoon
journals
masses
massively
mixer
mixes
necropol
necrophag
wentworth
informally
refit
refute
refitted
refug
refract
refocused
needle
needling
goodwin
blockaded
mintmarked
reactionaries
purple
purported
purposely
professionalized
professionalism
professionalising
professionalisation
401
ballast
ballads
breakage
breakwater
breakfast
dares
daring
darts
darzens
growling
harris
harsh
harms
harpocr
harrold
hariram
hallam
hosts
hostess
hostility
ironic
ironically
ironstone
lyte
lycop
lyrically
lydia
narod
narong
narayan
narada
narcot
uranium
uranita
volks
volunt
volonte
volatility
wolff
wolves
atlas
atlases
1876
1872
1870s
interval
intervene
intervened
intervening
beginner
fruitings
fruitful
fruitlessness
piecemeal
piechała
recognise
22e
223
225
224
22nd
2200
focal
moi
moors
moiety
moises
mohs
mohit
##intendent
##elessly
staffs
staffers
readable
superoxide
superstruct
superiors
superbike
superacid
superintendent
##apeutic
regionally
cm3
fielded
hardline
hardening
hardaway
hardcore
ladies
ladder
praises
prabh
prapat
praziqu
prairie
ruin
ruinous
rutherford
rounding
roundhouse
villains
##ebel
insb
insight
insurg
insults
insulate
insulted
insinc
insulting
insiders
insisting
insubstant
insufficient
whitei
whitewashed
whitehall
declare
declaratory
minorities
southernmost
transporting
estimate
estimating
mcgr
mcready
mcda
mcnam
mcbl
mcbain
mcgill
mcfar
mcanally
mcrobb
penis
penance
penned
penelope
penaeid
rhodes
rhodium
rhineland
commissioners
scholastic
sooner
fragile
priority
priorities
prioritizing
revolutionised
revolutionized
357
358
351
3540
3560
354th
astros
astern
astrog
astarte
biographies
castor
castro
castillo
castmate
castelli
castelfranco
multilay
pastime
pitchfork
viewing
viewership
viewpoint
##axy
##axcala
##meister
##meule
ancillary
animator
animistic
##rometers
envious
envelope
envisaging
closeup
regardless
serviceable
servicewomen
synagogues
courtaul
courtesy
piloting
317
315
311
dug
duer
duets
dukes
duclair
duxford
duppas
garth
garments
garret
garrett
garrulous
rivera
riverbank
riverbanks
sati
satyen
satanic
ulm
ulf
ulrich
wallis
wallpapers
##selaer
##nese
##harth
##harawat
##harvas
injure
injustices
champion
championed
chamberlin
processing
affecting
affections
researcher
researchers
surroundings
employer
announcer
businessman
silvery
photographic
hygrometricum
45b
455
450
452
4500
bruce
bruster
bombs
bombed
motives
motyka
motorsports
motoyama
picket
pickles
pickering
rama
rammed
ramla
ramsey
ramifications
rammstein
ramaiya
technologies
infect
infested
infract
infuses
infamous
infallible
##entials
aspired
aspires
permissible
coastline
guarded
guarding
guardado
guardians
lookout
occurring
georges
surveys
auditions
audiov
counted
counsel
counsels
credibility
credentials
diederich
namesake
pows
powstan
powhatan
taroon
taranto
tarpan
changelessly
array
unload
closes
closers
crewmen
mythological
mythologically
modernity
journalism
286
285
280
casts
casey
casarino
dien
diene
diaries
dihydrox
diaspor
dioscor
eyed
eyford
eylandt
ferry
ferrying
ferdyn
facto
faction
license
malaya
malfunction
maloide
malayalam
malaysian
malaimare
paler
palme
palette
palestine
paltrow
palisade
palabutr
palaeolithic
vera
verily
verve
verma
veranda
verrucose
vermeule
##exenone
##lerowa
##aldi
##aldry
##ommon
analogous
commentary
commentator
commentators
##akesi
1857
1858
1851
1852
assassin
architrave
divisional
socialism
campaigned
summerfield
arkansans
auto
autocr
autissier
bhrng
bhatt
bhagwat
bhabha
bhujang
camelot
dana
dano
dancer
danzig
federation
lawful
lawfully
petro
petition
petry
petbe
petchar
petroch
petrina
petersburg
sacchar
saccardo
sacrificial
sacristy
woody
wooded
woodland
woodward
woodcut
ylid
ylids
##ippers
##majer
##ugate
##ugraha
neolithicisation
predates
predators
predicted
practically
practiced
practicing
practitioner
ensued
enslav
ensberg
montu
montana
knows
physics
backgrounds
ideally
ideals
synths
synthetic
fungorum
methodology
299
291
292
benito
benicio
benenden
bowel
dutto
fictions
grounded
groundbre
gambian
gambino
nationals
nationwide
renenut
renowned
rift
rifai
treasured
treasurer
widest
wanderer
reasoning
deadly
argue
arguably
adama
absent
carbonaris
smithville
gradational
gradient
reductions
collaborate
collaborates
collaborating
collaborative
propagation
situated
situational
detailing
zagrebacka
267
603
609
achiet
achaemen
cycle
cytok
cymru
cymbal
donate
doncaster
escapes
escapologist
escudos
frees
freestyle
freestanding
fallout
karan
karun
karla
karama
karls
karlyn
karanj
karnas
talky
taliban
winged
##banda
waspa
rebuilt
rebutting
conditioner
conditioning
chaplin
chiefs
defeating
capturing
captains
captivity
responsive
radiohead
radioisot
interviewed
279
275
270
272
burne
burney
cathy
catholics
cathartic
gotten
lifelong
micrometers
melts
melee
melora
melinda
melzer
melchior
melastiza
sami
samael
sampha
samuels
samjho
samurai
##timore
##vanized
threats
threatening
stanza
stanwick
stansted
converge
separation
travers
traveler
traversed
encrusted
encapsulates
boarded
texel
warszaw
programmed
environs
celibacy
drooping
fitness
fitzroy
groper
grogan
grooming
groote
grotes
großad
groovy
hurting
hurlers
julius
julien
kingsford
kingsnorth
liking
payment
payton
venom
venustiano
zrinski
ashta
ashaway
negauno
examines
examination
##ophone
##ophairat
1848
1846
1842
1840s
measured
flows
flowed
flowing
accession
safest
safeguarded
grandis
grandeur
grandiosity
grandchildren
grandiose
grandmother
grandmaster
grandparents
termination
termini
terminal
terminating
terminology
respectful
participant
participations
participating
heavenly
naturalist
suggestion
establishes
laborer
laboratorian
currus
currents
memoriam
necessitating
hungarians
361
364
360
36th
368th
costly
cornelius
cornovior
dunham
dunks
dunking
duncan
dungeon
deterrent
futility
futuro
grossed
grossly
irty
irrational
irpc
irrecon
keel
keizer
kraals
kraisi
krakau
kraisak
krahelska
letting
letestu
mien
mihai
miłos
miyag
rapes
rapide
vanity
##oonish
##orescent
##ilisation
stooped
leonhard
repairing
quarried
intelligent
bankers
banknote
banknotes
clearer
clearest
clearcut
espanol
esposito
foxsports
penny
tonal
tonite
tonally
tonnage
testament
testimon
taxila
##copic
##copters
##bsak
unitis
polyester
polygl
polygon
polyhydrox
polychords
polyphenol
teacher
floating
coloring
battersea
mastery
mastering
admiralty
admiralstab
sexualized
analysing
cinematic
cinemasc
torpedoes
427
426
425
42nd
889
880
athena
athimar
athmoud
birming
dermat
derogatory
derffling
dedun
dedicating
dedicates
esque
esope
esquinas
esperantists
kercar
keratin
kindle
librarian
morty
mortal
mortals
mortuary
mounting
purchases
semester
semesters
semaph
womanhood
womanizer
##ydride
##linch
thomson
##esterly
plaincloth
##riptions
exhibiting
dissent
dissect
dissident
dissidents
dissipating
composure
composited
composite
doorways
doorjamb
greenock
greenery
greenberg
greenbacks
franchises
distinctly
magnate
magnetic
magnitude
magnifies
initials
synthesize
synthesizing
synthesizer
sculptors
763
762
76th
blender
budak
budge
budgets
bahut
dictated
igor
igcar
jeanne
jequier
keys
macroscopic
maccles
macqueen
pleats
plethora
paperwork
ravi
ravages
ravanan
sourced
urine
urge
urdu
urinating
thinker
##urgical
fortified
fortification
fortnight
fortunes
beatles
beatty
beatrice
concluding
challinor
adopts
floods
flooded
complements
consistency
surfaces
emerging
markedly
approximated
speeding
victorian
389
381
3880
388th
70mm
banning
banjo
banjul
banasura
banquets
bassline
basslines
gallant
gallantry
galleries
gallagher
hinder
hindered
hindlim
hindustan
ossol
osborn
osotsp
ossendowski
ourselves
painter
paints
rarer
rarest
tennis
tennessee
##iquitous
##iterated
##umentary
##ocracy
excepting
unsubstant
unsurpr
unsustainable
indications
1809
narrate
narrates
fellowship
3000
759
755
752
bales
balkh
baltimore
bolt
bolster
badge
badami
bayan
bayesian
cleverest
drake
drapery
dramatically
festubert
ghoul
happens
happier
happening
konopnicka
konarski
picturisation
queue
rainout
rainbow
rainwater
raincoat
ranger
ranges
savings
savoia
savagery
tendinitis
virility
virabh
viribus
wilno
wilkinson
##napping
##lofen
##dini
##eshwar
rejoicing
rejuven
reinhard
reinvention
reinstatement
reinterpre
referral
##oteurs
healthy
chemist
chairs
chaired
dismiss
dismayed
dismasting
dismutase
subjecting
winded
antimonic
antimonos
antimonate
antimonous
antimonite
antimonii
antimoniate
antimonites
antimonials
definite
definitely
slowing
capitalist
capitalism
capitalization
structural
legislations
legislating
eyeing
graduate
frequency
frequented
cosmographer
thailandicus
bottles
bottled
dubois
dubuque
dubrovnik
dubreuil
jazzily
muriel
murdered
makeshift
ninnast
namo
namely
rani
ranbir
sails
tribe
tribal
tributes
undulation
unduly
undiagnostic
undamaged
undivided
underside
undiffer
waive
waived
wajda
##sbf7
##sinian
##warit
##lette
##bean
##beis
##inguished
alleviate
##imento
##imentary
prohibition
prohibits
platt
platted
platoon
platyoph
reconstruct
reconno
reconstructed
scientist
scientology
scientifically
newsday
newsgather
boxset
normative
normandy
empress
empires
empacadora
empowered
emphasize
emphasising
christianity
experiencing
poorer
determinative
determinatives
957
951
branko
dials
dialectic
folkestone
hershey
kimi
mumbles
punished
punky
pungent
punjab
pushes
rumored
rumours
ruminants
rolled
rollescourt
##ohiko
##ohexenone
##ohydride
##ofden
##yaan
##gslagen
thicker
alternately
anthologies
anthiomal
anthrac
anthologised
##uszynski
deploying
proceeding
learjet
trainor
trainers
spotlight
marshall
emotive
brookline
brooklyn
belongs
belongings
elevate
elevations
eleventh
patterned
extremes
confederation
confederates
counterions
substitutes
celebration
celebrations
demonstrating
337
332
864
860
862
86th
breast
breach
breton
breached
breech
bremen
brezn
breaching
brendon
babo
baboon
babcock
babbitt
cites
candi
fears
fearful
fearless
granite
gransden
hinted
hinting
hairlike
hairstyles
luang
lucy
luigi
luggage
molotov
mobility
oversight
overseen
overseer
romero
romulo
romantically
sarita
sarcas
sarcevic
wyka
wyrzy
wearer
watches
##ochwil
##ochemistry
##ochondrial
##cilable
##boranes
##falls
innate
innumerable
innominates
rearmost
rearranged
reigniting
deepika
uncurls
uncritical
uncommon
recreated
amateurs
disposed
dispatch
disputes
disposing
disperse
disputing
disposition
dispersing
musicals
prepares
preparations
accomplishing
brotherhood
transferring
classicist
ordnances
patroness
concentrates
contrasting
goaltenders
farming
farmers
farmlands
panelist
astraeicola
environmentalists
taxonomical
preparedness
surrendering
bottomed
branches
lengthy
accompany
accompanies
390
3980
3960
censure
censors
drumming
drumkit
dreadover
huish
huene
hubert
hulew
hugged
hugging
huelgo
jarosław
jaracz
khety
khenti
khiri
khoiak
khatvang
khalifa
khurana
khonsu
kitne
laye
layout
layouts
lotna
miron
mirus
mirren
mutilation
mutinied
mandated
mandame
mandapa
mandvi
marty
martialled
martinsyd
omission
ominous
omisha
pistols
watkins
wattan
wattanay
##munt
##munen
##heads
##headed
thrill
thrilled
stibi
reforming
shaq
shaiva
shaivism
shaquille
##osphere
spectator
spectators
spectroscopic
spectrog
enlist
enlivened
enlightening
contemporaries
disappears
disapproved
precinct
cooled
cooling
accepting
embassy
embarking
embolism
embarkation
embraced
embedded
embroiled
embellished
embryos
grammar
grammys
gramophone
receptionist
globally
pursues
pursued
pursuing
pursuit
individuality
cyclones
cycload
cyclogenes
cyclohexenone
quarterdec
jefferson
benefiting
suspects
suspension
suspicious
suspicions
reinforced
reinforces
reinforcing
3730
azam
azetid
azuma
baal
baiga
bailey
bafta
baildon
bonded
cotty
custer
custody
frederic
fredrick
hips
housing
housman
hangs
hangar
hangal
hangover
louder
mouths
niosh
niagara
pounders
peterborough
petercoo
tesseract
tuned
tello
telloh
tellurium
wrists
wrightsville
wayside
yeoman
##lsson
inhg
foreigners
##chanaburi
conceive
conceived
##cendo
plotting
rectified
clocks
clockwork
scriptwrit
ambition
ambles
ambivalent
offset
attracts
acidic
mahayogi
mahabhar
mahadevan
mahashivrat
peacekeep
supplanted
constitute
constitucional
porticoes
hyde
hydrate
hydrog
hydride
hydroch
hydrides
hydroplan
restriction
historicism
progressing
progressively
elephantine
encourage
encourages
encouragement
murdering
321
322
32nd
470
472
47th
415
414
410
41st
5410
529
521
520
947
941
944
94th
berent
berth
berlitz
berthed
berzelius
berkel
bergslagen
boris
borough
borrow
borohydride
bachelor
bangistan
cardington
cardiac
dorosh
dorchester
dryosaurus
dryptosaurus
dharshan
fatale
fattest
fingers
fingerpick
fills
haa
haake
hailey
haitians
haasan
hauling
jams
jamal
jamille
jamiliah
linz
liners
linotype
linemates
mesmer
meskhen
meskim
mesdemet
mesopotamia
mccain
mccoy
mccarthy
mccurdy
mccullers
rudd
rudin
rudra
rudimentary
roughed
sandbridge
sorties
##oyski
##walla
##kovar
##hawk
##loric
##loride
##orporated
congressional
congressmen
chao
chaotic
sequenced
##rifoliate
unusually
abandon
abandons
abandonment
abandoning
manifested
appealing
imperfect
imperiously
mehooba
mehrangarh
overtly
overture
floret
florence
floriforme
remixes
remixing
colonists
colonels
colonization
investment
settles
settings
settling
familial
missionaries
skillful
sketchy
sketching
sketchbook
extrapolated
protesting
protestors
bombarded
bombarding
licenses
ignacy
ignoring
penguin
690
640
642
64th
779
778
772
akin
akari
akira
akaki
aktion
akharawat
bona
cuff
cuisine
cartridge
cartoons
cartilage
crowds
dvds
druids
ethic
ethical
ethanol
hamre
hamish
hammer
hamlets
jonacate
kaa
kaema
kaalia
kahne
koi
koichi
koepang
kraszewski
logs
logan
logic
logical
logged
logistics
logging
loggia
logger
misuse
misunder
misuos
misbeh
mislead
misplayed
rosary
rosner
roslyn
rosettes
rosendo
roszak
rosalind
rosemary
railing
siraf
vicar
viceroy
##roxide
stalks
renders
renditions
shoals
shopping
shooter
shuttered
shorea
heightened
channelled
ornately
execute
execution
trusted
trustee
trustees
trustworthy
recovering
recommending
advertiser
contentious
boyle
boycot
boycott
careful
aggressor
aggression
displacement
updated
flanks
buckled
buckets
buckley
robin
robbers
depositing
depositions
depositors
northwich
northwards
northwesterly
objections
objectives
expedite
promiscuity
incorporate
directorship
stepson
stepinac
confirms
corpses
ukrainians
requesting
criticisms
honoring
necktie
necklace
technicality
karlovac
wrecking
wreckage
dharmaraja
dharmatma
manifesto
investigated
investigator
investigators
hospitalization
438
43rd
516
514
braun
brake
brazilian
brabazon
cavity
cavities
cavern
cuba
cubase
cubicles
cubitt
darkness
eagerly
fabillis
gusted
gustave
gangue
gangster
gatherers
gatherings
hayley
hartig
hartley
iconocl
kalan
kaling
kalkgru
kalpak
messengers
naan
na3sb
nałkow
naagin
naismith
naoyuki
naohiko
nuts
nutrisse
ostap
ostland
ostoja
ostensibly
oaks
oakland
oakley
oaksmith
package
packaged
packages
pathogen
pathetically
pathologic
roncall
ricky
sellar
sellers
sellout
sophon
sophie
torturing
tortoise
tortrakul
utility
vaiya
voiceover
yoga
yogi
yogisvara
yogeshwar
##ukundis
##hoods
##glass
thrower
##thmics
forestall
forestry
sharples
sharma
isolate
prospal
prospector
arabian
unknowingly
##aptor
prasert
enantiomers
enantiomer
enantioselectivity
adjusting
adjustments
adjoining
resigning
agreements
underwear
underwater
serveth
precedes
precedent
accountable
accountability
smoakstack
deprecated
elsevier
websites
brandys
planetary
stephentown
responds
respondents
circumspect
circumambulatory
conversations
professionals
crimea
crashed
administrations
industrialist
industrialists
narrowed
narrowly
melodies
lieutenants
channeled
mechanical
mechanization
manufacturers
correspondences
006
001
004
575
5767
568
566
623
625
799
796
927
92nd
bronisław
broniewski
broniewska
bbc4
hanna
hanns
hannu
lingerie
liberating
munich
munidas
mapesbury
ottomans
ottaviano
pitiful
pitfalls
racist
racecourse
racetrack
racemic
riders
rubble
rubbed
rosebud
rivalry
rushed
rushes
sadness
sadyoj
sadhala
saddled
sadashiva
tatnall
tatpur
tatarkiewicz
tasked
tips
tropic
veit
vacated
vaclav
wisner
wiseman
##czkowski
##relakou
revere
reverb
reverting
reverberatory
alexandre
beaches
beachfront
shinn
shining
shinji
heartfest
heartfel
seattle
sponsorship
recruits
recruiting
recruitable
percival
percolated
rescued
rescinded
resistant
immense
immemorial
immortal
immiscible
undertakings
comparatively
assaults
interpreter
interprets
outbreaks
conspicuous
reverses
implementation
centrepiece
defensemen
engraved
brutally
barrera
stefani
salvo
salvos
salvaged
salvador
burials
conductor
conducting
satisfies
satisfactory
affaires
absorbing
negotiated
krakowski
withdraws
withdrawal
metallicity
odorous
schedules
louisiana
m1847
m1855
499
490
533
845
97th
9780
bedrick
crescendo
dilip
dilwale
diligence
dusted
erections
erecting
eldest
fishery
fisheries
hypnotic
kicked
kicking
kevan
lucille
lucjan
lucasi
malling
mallord
moths
nonexistence
ohta
orioles
oriental
outermost
porch
porches
pillared
pettway
petticoat
punching
pucks
ringtone
rigour
rigorously
rigidly
rashes
rashid
##kinpah
##monary
##caniello
##lavnik
##ergic
##ecessary
##acoordinated
ascot
ascetic
ascribed
ascertain
ascocar
whitby
whitney
whitlock
whitcomb
procure
procreation
procreative
unpublished
unpredict
unconfir
unconvin
unconvent
splenocytes
##ipses
priesthood
enclaves
enclosure
enjoying
enjoyable
climatic
climax
climactic
heroic
scratched
scottsdale
contribute
amazement
intensity
intensively
intensifying
commodity
commodities
induced
inductee
texture
textual
textile
textured
textbook
bluesy
bluesfest
bluespot
coaling
remarkably
interpose
soulful
instructions
depths
divinely
disciples
skeletal
youths
confiscate
sbf2
walkers
solidity
solidified
coulthard
electricity
penetration
astronomica
casemates
stanisława
urbanisation
ghostlike
allegations
normalized
herefordshire
anthropology
anthropologist
anthropologists
anthropogenic
freshly
freshwater
behaviors
crowded
crowdfund
jacqui
conspiracy
yellowish
yellowstone
348
34th
347th
46b
468
464
462
556
635
630
897
890
827
931
932
968
9600
bitter
daemonic
fancy
fanfare
folds
fascination
fascinating
glebal
hulls
hulled
jonesi
jonesboro
kazuki
kazakh
lodged
lovingly
lovemaking
locks
lockman
lockyears
lockheed
pierced
rotate
rotary
rotorcraft
rows
szempl
sztuka
szpil
szarota
szenwald
sabavas
sabbath
saboteurs
saku
saket
sakkara
sectarian
siekiera
siegf
sideshow
taill
tapping
tetrach
tetraene
tetralogy
tetmajer
tetroxide
tubular
tidewater
tactic
veterinary
vehemently
wedge
wedded
yielding
##museum
##8039
stuka
beams
##otypes
##otyping
conflicts
choosing
chooses
cheers
cheated
cheats
chalky
checks
checking
supremacy
neutron
neutrons
orchestrated
orchestras
trickery
priestly
##ellauni
worshipping
worshippers
scarp
scarf
scarlet
scarborough
scarcity
bobcat
amphora
amphoteric
amphipod
resolute
resolving
upgrading
fluid
flukowski
fluorescent
regurgitated
regurgitating
regurgitator
intermediary
intermediaries
interchangeable
conscripted
townships
phyllis
phylotypes
supposedly
southeastward
translations
translucent
transformed
transforming
transformative
discourage
weakens
weakened
populist
collectors
collectivization
collectanea
simultaneous
stringent
synonymized
synonymization
synonymizations
patriotism
trademarks
fundamentals
streaming
pantheons
richardson
mooney
ancestral
eyesight
automated
automatons
automobile
predominate
predominated
renewal
venerable
pleasing
pleasant
pleasures
problematic
cleaned
cleanly
cleanse
gregoriana
elderly
interpretatio
hudsons
72nd
beside
bulky
bestsellers
cellist
cellular
crane
cranial
cranium
cranfield
craniology
catchy
catcher
catches
dhriti
dhanno
dogs
fastened
fueled
gatekeepers
hoist
hoisted
hooper
hołuj
hojas
hoerburg
hoofden
hiroshi
hiroyuki
homily
homeland
homestead
homologation
jagiell
jumping
kilogram
kilograms
lombardi
migrations
mummified
mummification
mummiform
oli
oliver
olga
pugh
puzz
pulls
pittendrigh
rayovac
ribs
ribbent
ribosomal
ribaldry
siccardi
sensation
sensory
sensual
sensitive
sensuous
tumour
tallied
utilizing
wadj
##skie
tolerated
tolerant
tolerably
forevermark
altaha
altitude
aldgate
aldestrop
beaufort
heatseek
conquests
conformer
conformed
conforming
consequent
chattan
chatraksa
chatikavan
chopin
proofing
##alleled
unnecessary
uniforms
uniformed
unrestricted
tryout
clustered
clustering
perceive
perceiving
carbines
carbothermal
descendant
descendants
imagery
imagines
imagined
imaginary
imaginative
disgorge
disgorgement
flotation
flotillas
flashed
flashback
flashbacks
blazing
blazoned
assessments
attributing
endorser
endorsed
endorses
endorsers
endorsement
mauryan
subsided
subsumed
subsystem
subsidiary
phenkae
phosphazene
numismatists
marcellis
symposium
songwriting
meteorologist
signaling
signalized
parodied
parodying
sauces
sauerkra
expresses
expressway
incidentally
humorists
posthumous
anniversaries
syncretic
1797
1795
1792
calculations
calamities
calamaty
califone
adventurer
adventurous
experimental
explosives
appointments
electronic
moorey
trendy
substantially
substantively
physician
encounters
antiquarians
nucleus
nucleuses
athlone
ghetto
virtual
wilhousky
weaponry
mobile2win
watershed
nicknamed
anchorage
advertisements
touched
touches
porfirian
porfiristas
porfiriato
lodgepole
##burghii
consciously
fashioning
legends
099
095
2sch2
875
87th
830
991
99th
borejs
boldness
bryon
brydz
cessation
crisp
cambrensis
domains
domosławski
domestically
drier
drips
diploma
diplocyst
fantasized
fiba
fibre
fibers
fibula
fertile
fertilized
gilbert
gamely
gamma
gamska
gamboa
hellfire
jaa
jaan
jaadu
jaidev
korzen
korvet
korelitz
korbsak
ketan
ketone
kettle
kettering
ltd
lioness
laughs
laughed
laughter
mistaking
mistresses
moshimo
ndor
ntrt
ntrw
opting
optical
pyrar
pyrotechn
pyronemataceae
pyramid
pulvin
pulheim
pulaski
pulleys
pulakesi
pulmonary
papal
papery
papua
papyrus
sinai
sinha
sinclair
sinhales
sinagoga
somber
somkuan
someday
somkiat
sankalia
tanwar
tanami
taman
tamba
tamils
tamarind
voter
venti
ventilation
##ekhar
##ienski
##arisvara
ingles
ingram
ingmar
ingersoll
ingestion
tomasz
toddler
##oulai
##adowing
stinging
stingrays
stimi
stimulate
stimuli
stabilisation
##uttulate
congregations
chulalong
sudan
ardent
ardency
plantations
neighbour
leicestershire
unfinished
spurred
spurring
##aphone
clerks
clarity
clarified
clarification
clarifying
carpentaria
teenage
teenagers
teenager
implies
implied
implicated
implications
megaton
megiddo
megaphone
overcame
decreasing
bloomer
mindy
mindful
basidiomy
retarding
retardant
impressments
expansive
looser
promulgating
transcended
transcendent
transcendence
discernible
descriptive
mainstay
millennia
barnet
barnston
barnabite
quantitatively
1578
1572
mycelia
mycelium
headdresses
120m1sb
usefulness
triumfo
correctly
swansea
columnist
columnists
catalase
oxyhalides
merchantman
bushes
favouring
horsepower
trailer
trailbl
methyls
garnier
affiliations
motorised
motivation
motivate
motivations
ritualised
instrumentalist
illustrates
illustrating
wilmette
andrewsfield
nineties
surpasses
aziridine
railroads
northwestward
rhythmic
sharpened
sharpness
principles
hypothesis
hypothesized
hypothecium
witnessing
scrutinising
feudalistic
sympathies
thoroughness
thoroughfare
israeli
02º
67th
660
612
741
987
aeon
aegean
bernard
bernie
bernardo
bernstein
baldwin
c64
cadway
cadbury
culminated
culpability
cassidy
cassandra
duration
durban
denser
dresses
dwellings
etat
etched
foes
foiled
foetus
froth
froze
froberg
fujibayashi
fujiwh
fujisawa
fontanka
gigs
gigantic
gigantor
gastronomical
gasteyer
gastralia
habits
habilitations
hazira
hazlett
hazardous
hoarded
hoarders
iltale
ilkley
jetty
jumper
jumped
jesse
jessy
jessop
jessup
jessica
kirk
kidd
kidnapping
kronos
lorentz
lynchet
lumberton
lumberjacks
nitre
pentland
pentoxide
pentasulfide
pentahalides
pentacoordinated
pupil
pornography
pornchai
patched
rawicz
tsuge
tsesar
tuđman
tiniest
taga
tagg
tagline
vernon
##oantimonic
##market
##hti
##hydrates
##doad
##thylsulf
stellar
stellate
stellatum
stamps
stamped
stampede
reunion
alfred
albertini
ankara
##owiczowna
chakrav
##aglio
comforting
comfortably
comfortless
proclivity
proclamation
plateau
exterminated
extermination
unwanted
unwieldy
unstopp
unstabilized
unhappily
sporadically
allotropes
reliever
relieve
relieving
relegated
abdominal
abdoulai
mannose
mannheim
mannerisms
amnh
commemorate
1837
1833
1836
1831
1830s
dislike
disloyalty
repetitions
overthrow
overthink
overthrew
overthrown
overthinker
comprehend
blowing
blowouts
blogger
reminder
reminding
buffer
buffoonish
accelerant
symmet
symphony
embodies
embodied
embodying
supplemented
defendant
ellen
ellis
ellie
elliott
elliptical
elaborated
elaborates
elaborating
obligation
obliterate
obliterating
oblivious
obliterated
johannes
inventive
inventoried
brushy
##kylboranes
terrorist
barbie
barbette
mystery
mystified
idols
idolized
flexor
1787
1783
1789
1782
profitability
sweat
lowestoft
sb2o3
waldorff
feminism
femininity
conventionally
viennese
expertly
expertise
expertness
storyteller
drivel
persisting
honoured
turbine
turboprop
turbulent
moorings
supervision
supervise
supervising
superiority
villainous
envisioning
franciscans
judgement
quarrying
dissanayeke
bahamian
bahraini
categorized
categorise
categorize
oddly
punishable
innocuous
spiritual
disappearances
attracting
attraction
attractions
hieroglyphic
osteological
prospectus
melodramas
melodramatic
melodramatizes
bronzefield
dynamite
dynamics
unpopularity
momentum
psychiat
psychedelic
nucleophilicity
omniscience
triumphed
triumphal
triumphalis
tastefully
acknowledge
diastereoselective
diastereomer
036
0347
042
687
bellies
bubble
bathing
bathiya
barkers
barkmarket
biggest
biplanes
cecily
cowell
cunliffe
cashier
cemetary
dweller
dwarka
dentine
denticles
dimitri
dimisit
ekier
ekbann
ekawee
ekwarit
ecclesiast
erodes
fuzes
fuhrer
furnish
furnished
foods
gallef
galindez
galaxy
galvanized
gandharvas
griz
griffith
gauze
gauleiter
houdini
hubs
hubie
hubbard
icts
icones
icrp
icarly
jaworski
jennings
jennifer
klemens
kotlar
kotwica
kotlab
kotaku
kubrick
kubicki
keegan
kornel
lasts
livery
livvi
ligaments
ludlum
lamps
lampoons
lancers
nhs
nagar
nagas
nagakawa
naglerowa
nourish
nourished
pelham
pelvic
pelicans
pecans
pecking
peculiar
peckinpah
padmasana
pooleys
renting
rentoul
roger
rogallo
taping
tapeworm
tearing
trawl
trawling
trawls
trawlers
upheav
vasta
vastly
vastmanland
vicky
vicksburg
www
yaarana
yautepec
yamanobe
yamuna
zenon
zelada
zealand
zealots
##zoan
##zanov
##rzak
##rzynski
##malian
##3sb2
inhibit
inhibitions
##itarianism
topple
forecaster
forecourt
forecasters
forecastle
stereochemistry
stereotyping
stipe
stimmida
anatomical
shadowed
heyday
conjunction
conjugated
conjoined
conjugate
conjectural
seedling
sending
seamus
seamless
deploys
depleting
suitably
prosecution
prosser
prosperity
prosecutor
pledged
pledgemus
exhausting
exhaustion
exemplary
lebda
leapfrog
spontaneous
spontaneity
splendor
splendours
pronator
pronunc
pronasz
pronounced
prayuth
enneads
clinch
clinched
relocating
scanned
scuttling
indefatig
1825
disagreed
bechtlers
decomposed
decomposing
decomposes
decomposition
compromised
compromises
compounded
anticipate
anticipated
basilical
basilius
monkey
monkeys
awaited
roofs
accurate
accusers
accusative
schemer
canaanite
impotent
impersonal
devilishly
parsed
guaraldi
expanding
wellesley
disciplines
slavs
slavic
slavonia
sloviter
capillitium
humiliated
humiliations
excessively
1585
mycologist
mycographia
demoscene
idealistic
medicines
medicinally
annotatus
hypertroph
concurrent
contradicted
advisory
advisories
corridos
swedish
editorial
fringed
fringes
equalising
ergostane
possessed
possessor
possesses
possessing
crimson
frustrating
electrolysis
addresses
hopeful
harvey
harvested
harassing
harassment
insecurities
satellites
infringement
infringements
lawsuit
riffs
widths
absolutely
escorting
microscopy
sampler
neglected
negligible
cornerstone
deterioration
deteriorate
acquisitions
chemotherapeutic
assemblies
fixture
learnt
wycech
globalization
telecommunications
inhaling
inhabits
inhabiting
lectureship
distinguishable
fabricated
fabricating
immigration
immigrants
crystal
tajne
tajna
beaufighter
atmospherics
diplomat
mistakenly
ardhanarisvara
motorcycles
motorcyclist
leslaw
sultanate
shakespearean
cheekbone
chihuahuan
kalayanamitrs
rashtrakuta
のウァルキュリア３
3sbo
3sbs
73rd
auschwitz
agha
aghed
aghora
bacciar
bromine
bromide
brompton
bunny
bunker
bakula
bakoteh
bakshi
bipyramidal
buryatia
cresseid
crosby
crawley
cynic
cynical
cynics
caucasian
dabble
dabney
dabrowska
dualism
dickensian
egat
egghead
eguttulate
fouls
fetters
fraud
friable
fondness
falsely
falsified
falsetto
fulfilling
fulfills
fulfilled
gwen
gwalior
gwyneth
gyrations
gonna
gutters
gutless
graeca
grazia
graffiti
gestation
gesture
gestapo
gillies
gillette
haina
haines
hatebreed
ibfw
jedrychowski
jesuit
jasper
jayenge
jakov
jakub
jakob
kurosawa
lonely
lacerate
laconia
lacrosse
libavius
lambasted
lambeth
lambasting
mateja
matejko
mendes
mikko
mikuł
miklos
nicoll
nicely
nicolson
nikitin
nursery
ostracized
pasargad
pasternak
pioneering
pirie
piraeus
pestle
pesticide
pipes
pinkish
pinkpop
randy
randolph
randgri
rationale
rationalized
ramps
rampal
rampant
svetlana
słonim
słowack
słobodnik
sediment
sedgeford
sidharth
sardonic
sokorski
tybee
tyrant
tyrm
tickets
uterus
uptake
vigorously
vandalised
vitality
weser
wojci
wojskow
wojtyła
yarra
yarrow
yarmouth
zooey
ανθη
##uvres
##cielska
##czycielska
##blains
##fuhrer
##jamata
##μονιον
thighs
thieving
inscriptions
##eczposp
##thorized
##thalmos
##uravadamurti
forgot
forgiving
forgiveness
foremost
forgetting
forgetful
sterigmata
stryjkowski
stairs
staircase
staircases
whiskered
reassess
reassigned
reassignment
rejecting
reworking
allyl
anionic
anemic
answer
henderson
##tsmanship
condensing
isfahan
isabelle
chilbol
chilantaisaurus
chilblains
chandra
chandran
chandrar
chloro
chlorine
chlorides
##avanich
procedures
nekhbet
externally
executing
executions
executives
exceeded
exceeding
lepida
leaks
leakages
leishmania
untold
untamed
untiring
unholy
unbranched
unrequited
unsponsored
trashy
trumpet
spoof
spoils
spooky
spinoff
sparse
spitting
spitfire
spearing
spearheaded
##apatnam
pranalika
pradaksh
enthused
enamored
enforce
enormity
enrollment
clergyman
affordable
relevance
scrapped
bohdz
bohemia
bohdan
boiler
abhay
carlton
carlisle
carlaeon
caricature
integrity
intimidating
indoctrination
indonesia
buttons
buttocks
resonate
resonance
resonates
immunomod
disembarkation
disagreement
disbanding
reproaches
usnm47
musketoon
meatworks
upriver
financiers
overlooked
serbian
pretty
blossoming
coexisting
assuredly
warriors
remedying
conservator
nobuhiro
schweizer
revitalized
revitalise
revitalising
subtitle
subscribers
marginally
marginalised
emperors
installations
smuggle
smuggled
smugglers
germination
sovereignty
default
defaults
defaulted
obverses
paragliders
saxons
southwestward
guessing
guesswork
incredibly
transmuted
transmitted
transmissions
slipway
slipshod
weakening
brightness
capitulation
redeemed
redistributed
redistribution
redistribute
rajkamal
rajasth
quadrate
quadruple
quadrifoliate
demobilized
demobilised
demobilize
postsurgical
simplest
simplified
simplistic
gloria
morphology
morphological
morphologies
117th
1714
heliograph
delivering
extraterrestrial
extraction
madhya
madhuri
madhava
concessionaire
destitution
oppresses
oppressive
oppressors
profoundly
trialkylboranes
triptychs
salaam
calibrated
coronet
coronation
coronate
pressurized
figurine
switching
initiatives
laureate
stylised
1604
curricula
curveball
soldiering
philosopher
oxidase
oxidizes
oxidizers
poisoned
poisonous
fairbanks
sneha
horizon
trauma
photosynth
mixtape
doubly
harmony
harmful
volcanoes
volunteers
ruffled
rufforth
astrahygrone
pastiches
diocesan
palmitate
autonomy
talkative
rebuilding
lifespan
encompasses
encompassing
vengeance
3670
polymeric
polymerizations
polymerizes
cinematography
mountainous
dissolve
dissolves
dissolving
dissatisfaction
drexel
tribunal
undistinguished
reconciled
counterfeit
taxonomist
taxonomists
taxonomically
martinez
precipitating
loudspeaker
maheshmurti
constitutionality
fatalities
maneuvers
cartoonish
recommendations
depositories
hierarchies
recruitment
flattening
persuasions
anthropomorphism
tetanurans
fluoride
fluorenyl
fluoroantimonic
bulldoze
baptista
electronegativity
vulcanalis
stabilize
stabilizer
stabilimento
neighborhood
unfortunate
catalogued
culminates
habsburgs
illegible
symptom
benzaldehydes
cecilia
kleiner
upholding
upholders
guaranteed
contradictions
crystallizes
dasyatidae
ectomycorrhizae
wannabe
extinguishing
accommodated
parliamentary
handkerchiefs
2soch2
785
axe
axial
ayesha
aylesford
ahh
ahmed
aadt
aadmi
aurangabad
aapke
aubers
aubrey
binaca
bicyclic
bicycle
bottle
botanist
bianco
biancaniello
barton
bartelski
bastion
bastet
bindon
binding
breasts
breasted
brewers
brewster
cortland
cortex
catered
catering
crumble
crumbling
cushing
cushion
dowd
dowry
dumart
dumps
dulwich
dulhania
dodge
dodgers
dishoom
dishonest
dribble
dribbled
eclipse
eclipses
fisch
fischer
fostered
fostering
fadeaway
fools
gelatin
gelatinous
gusha
gusurg
hatred
hatteras
hesitated
hesitating
hapi
hapu
hassan
hassles
hailing
heteroat
heterosexual
iodine
iodide
jalu
jalal
jogged
jhappi
kinie
kinase
kanlayanam
kanchanaburi
kuribayashi
kurzanov
kulbh
kulukundis
krupp
kruczkowski
krisiun
kitchen
kitchener
lutosławski
lutzow
lagi
lagged
lindon
lindgren
lazuli
lazarev
lamented
lamenting
linguist
linguistically
mtwara
mtdc
msdmt
mitogen
mitochondrial
mouments
moustached
mentor
mentorship
mosley
moscow
makarov
makuszynski
mongers
mongoloid
mathew
mathematic
mockery
mockumentary
mosses
nostalgic
nostrils
naugat
nauczycielska
naughty
naughton
otome
owed
owen
oberon
obertyns
olefins
olefination
pinball
pedanius
pedestal
pigs
pigment
pavlo
pavelic
pustules
pustularia
paternal
paternity
panski
peasant
peasantry
pontifical
riots
riabinin
rerun
rerouted
rouen
roulette
riveted
riviera
rutkowski
rutnam
riteish
renshaw
rensselaer
rahim
rahman
siena
siwa
sagarika
sessile
sessilis
soprano
sopocko
sacha
sachin
sighting
siblings
sibiricus
sicken
sickness
sanderstead
tdi
tusk
tusks
tandem
tandava
tugboat
udit
udyaan
uploaded
uplifting
uttar
uttam
wigged
wooing
wonderful
wiercinska
wiercinski
ziminska
zimbab
στιμμι
στιβι
##awnicze
##treuhand
##oisoproter
##ziecki
##nastics
##gruppen
##łoszewski
##atzgruppen
inequalities
ineffectually
inquired
inquiry
inferior
infernal
##enerbe
##eneterephthalate
##aszkiewicz
tobias
tobacco
wasilewski
wasilewska
forebears
foreboding
sturges
sturrock
stunts
stunning
steeple
reyes
reyner
reissues
reissued
reorganising
reorganisation
reelectionist
altering
alterations
alabaster
alabama
witherspoon
##chaiyud
bewildered
bewitched
bequeathed
bequeaths
anonymous
anonymously
shattered
shatrughan
shroff
shrouded
shelton
shelley
shoves
shovelling
shocktro
shielding
shorthorn
shorthanded
heathrow
chinameca
choreographed
chevrons
chevrolet
seismic
seismograph
##oderma
deutsche
deutschland
dehydrated
dehydrating
2023
arcane
arcades
plundered
neatly
neatest
lending
uninjured
uninhibited
unanimous
unanimously
truncation
truncated
splinter
splinters
reclusive
reclassified
recollections
recolligens
recoined
recoinage
prachai
prachuap
notorious
notoriety
enigma
enigmatic
enquiring
enquiries
enzyme
enzymes
claude
claudius
afflicted
affleck
feeds
feasible
feasibility
feisty
relentlessly
scribes
scribal
adhering
adherents
newfoundland
bootham
abyss
abyssinian
mangrove
manuscript
manuscripts
carnivals
carnosaurian
caribou
caribbean
committing
indexes
appropriated
appropriateness
apprentice
apprenticing
imbues
imbibing
disarmed
disarray
discharged
discharging
disillusioned
disillusionment
partnered
partnership
meyerhof
flavor
flavored
formulaic
precautions
precautionary
blucher
blindly
cooperation
cooperative
cohesion
cohesive
evolve
evolving
mindset
assigns
antagonist
antagonising
warehouse
warehouses
outsider
outweigh
outweighed
himalayan
himalayas
archeology
archeological
geniuses
wheaties
consolidation
consolidated
consultation
consultative
retaliation
retaliate
roxanne
roxburghii
rootlessness
accumulated
accumulating
accidentally
mausi
mausoleum
revisionary
subordinate
subordinates
phonics
phonographic
impractical
impracticable
marquess
marquette
surmised
surmounted
sylwester
sylvain
emblems
emblematic
instructional
betrayed
betrayal
smarter
smarts
##angerite
thanksgiving
articulated
articulate
joyfully
invisible
invisibly
inconsistent
inconsistencies
vallee
rockingham
transcaucasian
transcaucasia
discredit
discredited
slapdash
slapstick
slugger
sluggish
weinstein
weinreb
cremated
crematorium
apocalyptic
apocalyptica
terrified
terrifying
barszcz
quietly
excellent
excellence
excarnation
excarnated
steinem
steinberg
125sb
distributing
distributor
stratigraphic
stratigraphy
gladys
gladstone
coincidence
coincidentally
hyderabad
muhammed
muhammad
proportionate
proportionately
inflammation
inflammatory
1336
1353
efficiently
efficiency
eugenia
eugeniusz
provinces
provincial
advocate
advocating
authentic
authenticity
corpse
courtside
protagonist
protagonists
swinie
swinford
255th
limbless
debriefing
righteousness
1661
watercolor
watercolour
goalscorer
goalscorers
exploit
exploits
explanation
explanatory
philippa
philippines
philanthropic
philanthropist
mercury
mercenaries
detonation
detonating
silicon
silicified
##ynthetic
facilitated
facilitate
privileged
privileges
snippet
snippets
fundraising
fundraisers
favourable
favourite
tempting
temptations
panorama
panoramic
trapanese
massacres
massacred
referee
referendum
refugees
insignia
insignificant
davisville
fragmentary
multifarious
multifaceted
multitracked
multitracking
pastoralist
affirm
affirms
lackluster
lacklustre
malti
maltreatment
vermont
vermette
analyse
analytical
danishefsky
widowed
argentine
argentino
rebounder
microhabit
microelect
melancholic
melancholy
cabaret
cabarets
drowned
drowning
grandfather
grandfathers
judicial
judiciary
4238039
semicircular
semiconduct
zapatista
zapatistas
jeopardized
jeopardize
acquaintance
acquaintances
balkans
balkerne
draught
draughtsmanship
henotheism
henotheistic
tributo
tributaries
undesirable
undescribed
reconfigures
reconfiguration
dialkylsulfide
dialkylsulfoxide
folkloric
folklorist
anthemonion
overseeing
sarasvati
sarasota
innovations
innovator
hughes
kittyhawk
pursuant
pursuits
customized
ambulance
ambulances
hydroxy
hydroxides
bergman
bergmann
haunts
haunted
nickelback
druidical
ornithomimid
ornithopod
robusta
robustus
nutrient
nutrients
rattling
rattavanich
doctrine
doctrines
stephanie
administrative
administrator
convincingly
smoothbore
smoothbores
m1817
m1816
m1841
m1842
digitally
chalklands
checkpoints
cannibalised
cannibalism
jagermusic
jagermeister
reichsgau
reichsfuhrer
chatterjee
chatterji
disguised
disguise
outlaws
outlawed
omnipotent
omnipresence
drifting
lanostane
optimum
optimism
andhakasuramard
andhakasuravadamurti
neighbors
neighbours
overcrowding
overcrowded
bureaucratic
bureaucrats
hazelnuts
inauguration
inaugurated
telegrams
benzalfluorene
benzalfluorenes
keepsake
dimethylsulfonium
dimethylsulfaniumyl
fetishes
gyroplane
gyrocopters
vigilante
αντιμονος
αντιμοναχ
enthusiastically
abhishek
abhishapta
reproduces
reproductive
schweinitz
horizontal
horizontally
autonomous
autonomously
counterfeited
counterfeiting
extinguisher
czechowiczowna
dalmatian
dalmatia
hacendias
hacendados
hollandia
hauptabteilung
haupttreuhand
jubilee
jubilees
kalyanasundara
kalyanasundaramurti
[...]
